{
  "version": "1.0",
  "truncation": null,
  "padding": null,
  "added_tokens": [
    {
      "id": 0,
      "content": "[UNK]",
      "single_word": false,
      "lstrip": false,
      "rstrip": false,
      "normalized": false,
      "special": true
    },
    {
      "id": 1,
      "content": "[CLS]",
      "single_word": false,
      "lstrip": false,
      "rstrip": false,
      "normalized": false,
      "special": true
    },
    {
      "id": 2,
      "content": "[SEP]",
      "single_word": false,
      "lstrip": false,
      "rstrip": false,
      "normalized": false,
      "special": true
    },
    {
      "id": 3,
      "content": "[PAD]",
      "single_word": false,
      "lstrip": false,
      "rstrip": false,
      "normalized": false,
      "special": true
    },
    {
      "id": 4,
      "content": "[MASK]",
      "single_word": false,
      "lstrip": false,
      "rstrip": false,
      "normalized": false,
      "special": true
    }
  ],
  "normalizer": null,
  "pre_tokenizer": null,
  "post_processor": null,
  "decoder": null,
  "model": {
    "type": "BPE",
    "dropout": null,
    "unk_token": "[UNK]",
    "continuing_subword_prefix": null,
    "end_of_word_suffix": null,
    "fuse_unk": false,
    "byte_fallback": false,
    "vocab": {
      "[UNK]": 0,
      "[CLS]": 1,
      "[SEP]": 2,
      "[PAD]": 3,
      "[MASK]": 4,
      "!": 5,
      "\"": 6,
      "#": 7,
      "$": 8,
      "%": 9,
      "&": 10,
      "'": 11,
      "(": 12,
      ")": 13,
      "*": 14,
      "+": 15,
      "-": 16,
      ".": 17,
      "/": 18,
      "0": 19,
      "1": 20,
      "2": 21,
      "3": 22,
      "4": 23,
      "5": 24,
      "6": 25,
      "7": 26,
      "8": 27,
      "9": 28,
      ":": 29,
      ";": 30,
      "<": 31,
      "=": 32,
      ">": 33,
      "?": 34,
      "@": 35,
      "A": 36,
      "B": 37,
      "C": 38,
      "D": 39,
      "E": 40,
      "F": 41,
      "G": 42,
      "H": 43,
      "I": 44,
      "J": 45,
      "K": 46,
      "L": 47,
      "M": 48,
      "N": 49,
      "O": 50,
      "P": 51,
      "Q": 52,
      "R": 53,
      "S": 54,
      "T": 55,
      "U": 56,
      "V": 57,
      "W": 58,
      "X": 59,
      "Y": 60,
      "Z": 61,
      "[": 62,
      "\\": 63,
      "]": 64,
      "_": 65,
      "`": 66,
      "a": 67,
      "b": 68,
      "c": 69,
      "d": 70,
      "e": 71,
      "f": 72,
      "g": 73,
      "h": 74,
      "i": 75,
      "j": 76,
      "k": 77,
      "l": 78,
      "m": 79,
      "n": 80,
      "o": 81,
      "p": 82,
      "q": 83,
      "r": 84,
      "s": 85,
      "t": 86,
      "u": 87,
      "v": 88,
      "w": 89,
      "x": 90,
      "y": 91,
      "z": 92,
      "{": 93,
      "|": 94,
      "}": 95,
      "~": 96,
      "": 97,
      "": 98,
      "": 99,
      "¡": 100,
      "£": 101,
      "¤": 102,
      "«": 103,
      "­": 104,
      "»": 105,
      "Á": 106,
      "Ç": 107,
      "É": 108,
      "Ó": 109,
      "Ö": 110,
      "×": 111,
      "Ø": 112,
      "ß": 113,
      "à": 114,
      "á": 115,
      "â": 116,
      "ã": 117,
      "ä": 118,
      "å": 119,
      "æ": 120,
      "ç": 121,
      "è": 122,
      "é": 123,
      "ê": 124,
      "ë": 125,
      "í": 126,
      "î": 127,
      "ï": 128,
      "ð": 129,
      "ñ": 130,
      "ó": 131,
      "ô": 132,
      "ö": 133,
      "÷": 134,
      "ø": 135,
      "ú": 136,
      "ü": 137,
      "ý": 138,
      "ā": 139,
      "ă": 140,
      "ć": 141,
      "Č": 142,
      "č": 143,
      "ē": 144,
      "ğ": 145,
      "ī": 146,
      "İ": 147,
      "ı": 148,
      "ń": 149,
      "ō": 150,
      "ő": 151,
      "ś": 152,
      "ş": 153,
      "Š": 154,
      "š": 155,
      "ū": 156,
      "ŭ": 157,
      "ž": 158,
      "ư": 159,
      "ʻ": 160,
      "ʿ": 161,
      "Έ": 162,
      "Δ": 163,
      "Ε": 164,
      "Θ": 165,
      "Λ": 166,
      "Ρ": 167,
      "έ": 168,
      "ή": 169,
      "ί": 170,
      "α": 171,
      "β": 172,
      "γ": 173,
      "δ": 174,
      "ε": 175,
      "η": 176,
      "θ": 177,
      "ι": 178,
      "κ": 179,
      "μ": 180,
      "ν": 181,
      "ξ": 182,
      "ο": 183,
      "π": 184,
      "ς": 185,
      "σ": 186,
      "τ": 187,
      "υ": 188,
      "φ": 189,
      "ω": 190,
      "ό": 191,
      "ύ": 192,
      "Љ": 193,
      "Њ": 194,
      "Б": 195,
      "К": 196,
      "Л": 197,
      "М": 198,
      "П": 199,
      "а": 200,
      "б": 201,
      "в": 202,
      "г": 203,
      "д": 204,
      "е": 205,
      "и": 206,
      "й": 207,
      "к": 208,
      "л": 209,
      "м": 210,
      "н": 211,
      "о": 212,
      "п": 213,
      "р": 214,
      "с": 215,
      "т": 216,
      "у": 217,
      "ш": 218,
      "ы": 219,
      "ю": 220,
      "ј": 221,
      "ќ": 222,
      "ַ": 223,
      "ָ": 224,
      "א": 225,
      "ב": 226,
      "ד": 227,
      "ה": 228,
      "י": 229,
      "כ": 230,
      "ל": 231,
      "ם": 232,
      "נ": 233,
      "ס": 234,
      "ע": 235,
      "צ": 236,
      "ק": 237,
      "،": 238,
      "؍": 239,
      "؛": 240,
      "؜": 241,
      "؟": 242,
      "ء": 243,
      "آ": 244,
      "ئ": 245,
      "ا": 246,
      "ب": 247,
      "ت": 248,
      "ث": 249,
      "ج": 250,
      "ح": 251,
      "خ": 252,
      "د": 253,
      "ذ": 254,
      "ر": 255,
      "ز": 256,
      "س": 257,
      "ش": 258,
      "ص": 259,
      "ض": 260,
      "ط": 261,
      "ظ": 262,
      "ع": 263,
      "غ": 264,
      "ف": 265,
      "ق": 266,
      "ل": 267,
      "م": 268,
      "ن": 269,
      "ه": 270,
      "و": 271,
      "١": 272,
      "٢": 273,
      "٣": 274,
      "٤": 275,
      "٥": 276,
      "٦": 277,
      "٧": 278,
      "٨": 279,
      "٩": 280,
      "٪": 281,
      "پ": 282,
      "چ": 283,
      "ژ": 284,
      "ک": 285,
      "گ": 286,
      "ی": 287,
      "۰": 288,
      "۱": 289,
      "۲": 290,
      "۳": 291,
      "۴": 292,
      "۵": 293,
      "۶": 294,
      "۷": 295,
      "۸": 296,
      "۹": 297,
      "ം": 298,
      "ട": 299,
      "ണ": 300,
      "ന": 301,
      "പ": 302,
      "മ": 303,
      "ര": 304,
      "റ": 305,
      "വ": 306,
      "ാ": 307,
      "ി": 308,
      "െ": 309,
      "്": 310,
      "ḥ": 311,
      "ṛ": 312,
      "Ṣ": 313,
      "ṣ": 314,
      "ṭ": 315,
      "ἄ": 316,
      "ῶ": 317,
      " ": 318,
      " ": 319,
      "​": 320,
      "‌": 321,
      "‍": 322,
      "‎": 323,
      "‏": 324,
      "–": 325,
      "—": 326,
      "―": 327,
      "’": 328,
      "…": 329,
      "‪": 330,
      "‫": 331,
      "‬": 332,
      "‭": 333,
      "‹": 334,
      "›": 335,
      "⁣": 336,
      "⁦": 337,
      "⁧": 338,
      "⁩": 339,
      "№": 340,
      "™": 341,
      "≈": 342,
      "▫": 343,
      "☆": 344,
      "♥": 345,
      "♯": 346,
      "《": 347,
      "》": 348,
      "げ": 349,
      "ご": 350,
      "て": 351,
      "の": 352,
      "は": 353,
      "ら": 354,
      "れ": 355,
      "を": 356,
      "ん": 357,
      "ィ": 358,
      "カ": 359,
      "ズ": 360,
      "チ": 361,
      "デ": 362,
      "ニ": 363,
      "ネ": 364,
      "メ": 365,
      "ャ": 366,
      "ル": 367,
      "ン": 368,
      "ー": 369,
      "上": 370,
      "中": 371,
      "割": 372,
      "卷": 373,
      "味": 374,
      "命": 375,
      "唐": 376,
      "圖": 377,
      "夜": 378,
      "孩": 379,
      "幹": 380,
      "彼": 381,
      "星": 382,
      "港": 383,
      "照": 384,
      "片": 385,
      "白": 386,
      "藪": 387,
      "見": 388,
      "誰": 389,
      "運": 390,
      "韓": 391,
      "귀": 392,
      "기": 393,
      "를": 394,
      "면": 395,
      "울": 396,
      "이": 397,
      "️": 398,
      "﻿": 399,
      "�": 400,
      "🌹": 401,
      "📱": 402,
      "🔰": 403,
      "🔸": 404,
      "🔹": 405,
      "🔻": 406,
      "🛑": 407,
      "ای": 408,
      "ان": 409,
      "ار": 410,
      "در": 411,
      "ست": 412,
      "می": 413,
      "از": 414,
      "به": 415,
      "ند": 416,
      "ام": 417,
      "را": 418,
      "ال": 419,
      "ور": 420,
      "بر": 421,
      "ود": 422,
      "اد": 423,
      "با": 424,
      "که": 425,
      "است": 426,
      "این": 427,
      "‌ه": 428,
      "رد": 429,
      "نی": 430,
      "لی": 431,
      "ری": 432,
      "سی": 433,
      "می‌": 434,
      "رو": 435,
      "دی": 436,
      "اه": 437,
      "بی": 438,
      "تی": 439,
      "ه‌": 440,
      "شد": 441,
      "هم": 442,
      "‌های": 443,
      "وی": 444,
      "فت": 445,
      "ات": 446,
      "کرد": 447,
      "شت": 448,
      "اب": 449,
      "اس": 450,
      "تو": 451,
      "دا": 452,
      "مو": 453,
      "انی": 454,
      "ون": 455,
      "ما": 456,
      "لا": 457,
      "آن": 458,
      "دار": 459,
      "من": 460,
      "گی": 461,
      "یک": 462,
      "‌ها": 463,
      "مان": 464,
      "گر": 465,
      "بود": 466,
      "زی": 467,
      "فر": 468,
      "ده": 469,
      "دو": 470,
      "پی": 471,
      "خو": 472,
      "برای": 473,
      "هر": 474,
      "کن": 475,
      "تا": 476,
      "زار": 477,
      "کار": 478,
      "های": 479,
      "عی": 480,
      "یم": 481,
      "جه": 482,
      "ند.": 483,
      "شور": 484,
      "باز": 485,
      "فی": 486,
      "ایی": 487,
      "نا": 488,
      "شی": 489,
      "گاه": 490,
      "داد": 491,
      "است.": 492,
      "او": 493,
      "اع": 494,
      "شود": 495,
      "سال": 496,
      "مح": 497,
      "نو": 498,
      "تر": 499,
      "اف": 500,
      "انت": 501,
      "اق": 502,
      "هی": 503,
      "خت": 504,
      "مع": 505,
      "اری": 506,
      "مج": 507,
      "اج": 508,
      "مر": 509,
      "گفت": 510,
      "اره": 511,
      "داشت": 512,
      "شک": 513,
      "کشور": 514,
      "ران": 515,
      "خود": 516,
      "نگ": 517,
      "اید": 518,
      "نه": 519,
      "مس": 520,
      "له": 521,
      "مت": 522,
      "قر": 523,
      "د.": 524,
      "امه": 525,
      "انه": 526,
      "یا": 527,
      "مای": 528,
      "کت": 529,
      "مه": 530,
      "تیم": 531,
      "دان": 532,
      "شر": 533,
      "بت": 534,
      "روز": 535,
      "خی": 536,
      "سر": 537,
      "الی": 538,
      "قی": 539,
      "باید": 540,
      "گزار": 541,
      "ول": 542,
      "شان": 543,
      "ه‌ای": 544,
      "اص": 545,
      "طر": 546,
      "اده": 547,
      "ئی": 548,
      "کی": 549,
      "خواه": 550,
      "نظ": 551,
      "مین": 552,
      "وری": 553,
      "گذ": 554,
      "تص": 555,
      "دست": 556,
      "لس": 557,
      "جام": 558,
      "نده": 559,
      "قل": 560,
      "رس": 561,
      "هن": 562,
      "ساز": 563,
      "بال": 564,
      "مرد": 565,
      "مد": 566,
      "‌شد": 567,
      "اند": 568,
      "مق": 569,
      "ادی": 570,
      "اما": 571,
      "خص": 572,
      "اک": 573,
      "ایران": 574,
      "لام": 575,
      "چه": 576,
      "می‌شود": 577,
      "قرار": 578,
      "لت": 579,
      "عه": 580,
      "نیز": 581,
      "رسی": 582,
      "شه": 583,
      "نیم": 584,
      "شگاه": 585,
      "به‌": 586,
      "گفت:": 587,
      "خا": 588,
      "لم": 589,
      "اش": 590,
      "تح": 591,
      "شد.": 592,
      "ند،": 593,
      "اح": 594,
      "علی": 595,
      "بازی": 596,
      "اخت": 597,
      "ورد": 598,
      "رئی": 599,
      "یر": 600,
      "حض": 601,
      "وز": 602,
      "رین": 603,
      "عد": 604,
      "ملی": 605,
      "هست": 606,
      "خبر": 607,
      "نامه": 608,
      "پیام": 609,
      "اسی": 610,
      "می‌ک": 611,
      "مردم": 612,
      "لو": 613,
      "لامی": 614,
      "آم": 615,
      "نمای": 616,
      "امی": 617,
      "کرد:": 618,
      "روی": 619,
      "تما": 620,
      "وت": 621,
      "بان": 622,
      "ره": 623,
      "سن": 624,
      "دید": 625,
      "گرفت": 626,
      "گزارش": 627,
      "اسلامی": 628,
      "توان": 629,
      "ارد": 630,
      "شته": 631,
      "گان": 632,
      "اینکه": 633,
      "وق": 634,
      "کم": 635,
      "رئیس": 636,
      "پیش": 637,
      "بار": 638,
      "ضو": 639,
      "‌ال": 640,
      "مل": 641,
      "۱۴": 642,
      "باره": 643,
      "سو": 644,
      "مدی": 645,
      "آی": 646,
      "شن": 647,
      "بخ": 648,
      "تع": 649,
      "دارد": 650,
      "تم": 651,
      "‌بود": 652,
      "آن‌ها": 653,
      "ولی": 654,
      "دیگر": 655,
      "رف": 656,
      "اگر": 657,
      "وه": 658,
      "خواهد": 659,
      "انتهای": 660,
      "مجلس": 661,
      "نین": 662,
      "ارت": 663,
      "افز": 664,
      "راه": 665,
      "جود": 666,
      "ائ": 667,
      "دور": 668,
      "اط": 669,
      "ماه": 670,
      "دولت": 671,
      "حی": 672,
      "زش": 673,
      "۰۰": 674,
      "ورت": 675,
      "عنو": 676,
      "است،": 677,
      "عنوان": 678,
      "گرد": 679,
      "ستان": 680,
      "‌شده‌": 681,
      "هزار": 682,
      "جو": 683,
      "کر": 684,
      "پای": 685,
      "نام": 686,
      "کمی": 687,
      "کرده": 688,
      "نیست": 689,
      "آمو": 690,
      "پر": 691,
      "م.": 692,
      "ضا": 693,
      "کا": 694,
      "هنگی": 695,
      "فیلم": 696,
      "انجام": 697,
      "فرهنگی": 698,
      "مانی": 699,
      "چنین": 700,
      "اجتما": 701,
      "بسی": 702,
      "حضور": 703,
      "مش": 704,
      "کرو": 705,
      "شکل": 706,
      "ایت": 707,
      "بین": 708,
      "بل": 709,
      "قان": 710,
      "ها": 711,
      "اعت": 712,
      "نان": 713,
      "ادامه": 714,
      "ه‌های": 715,
      "رای": 716,
      "۱۴۰۰": 717,
      "درباره": 718,
      "طرح": 719,
      "مص": 720,
      "اجتماعی": 721,
      "سین": 722,
      "حال": 723,
      "گیری": 724,
      "میلی": 725,
      "توجه": 726,
      "نگار": 727,
      "سه": 728,
      "نمی‌": 729,
      "یکی": 730,
      "پس": 731,
      "صورت": 732,
      "موضو": 733,
      "وجود": 734,
      "ین": 735,
      "قه": 736,
      "کل": 737,
      "بد": 738,
      "نق": 739,
      "جمه": 740,
      "هران": 741,
      "مورد": 742,
      "شهر": 743,
      "همه": 744,
      "مند": 745,
      "شو": 746,
      "گوی": 747,
      "عیت": 748,
      "سازمان": 749,
      "خبرنگار": 750,
      "توس": 751,
      "زند": 752,
      "کان": 753,
      "کو": 754,
      "تهران": 755,
      "فع": 756,
      "موضوع": 757,
      "کنند": 758,
      "جم": 759,
      "مسئ": 760,
      "اظ": 761,
      "اض": 762,
      "داشته": 763,
      "نظر": 764,
      "صد": 765,
      "بز": 766,
      "زیر": 767,
      "ترین": 768,
      "مرا": 769,
      "حوز": 770,
      "برنامه": 771,
      "کرد.": 772,
      "طی": 773,
      "‌شده": 774,
      "شورای": 775,
      "باشد": 776,
      "نس": 777,
      "تولی": 778,
      "کرونا": 779,
      "دام": 780,
      "بیان": 781,
      "00": 782,
      "دف": 783,
      "گری": 784,
      "بخش": 785,
      "یم.": 786,
      "گذشته": 787,
      "کنیم": 788,
      "بات": 789,
      "بود.": 790,
      "فوت": 791,
      "حق": 792,
      "قلاب": 793,
      "باش": 794,
      "صی": 795,
      "امام": 796,
      "انقلاب": 797,
      "ابل": 798,
      "تق": 799,
      "امروز": 800,
      "اخ": 801,
      "وزار": 802,
      "سری": 803,
      "امل": 804,
      "شب": 805,
      "ایر": 806,
      "وزارت": 807,
      "پرد": 808,
      "جی": 809,
      "خان": 810,
      "کتاب": 811,
      "چند": 812,
      "اشاره": 813,
      "برگزار": 814,
      "تب": 815,
      "سیون": 816,
      "همین": 817,
      "حوزه": 818,
      "دن": 819,
      "دانش": 820,
      "گرو": 821,
      "نفر": 822,
      "نشان": 823,
      "رفت": 824,
      "گو": 825,
      "هو": 826,
      "ورز": 827,
      "شرای": 828,
      "تولید": 829,
      "ه‌اند": 830,
      "کس": 831,
      "عل": 832,
      "ایج": 833,
      "استان": 834,
      "نش": 835,
      "زمان": 836,
      "ابت": 837,
      "برخی": 838,
      "خصو": 839,
      "عر": 840,
      "مط": 841,
      "بزر": 842,
      "اول": 843,
      "لف": 844,
      "قانون": 845,
      "واک": 846,
      "فوتبال": 847,
      "بو": 848,
      "رات": 849,
      "بازیک": 850,
      "همچنین": 851,
      "بح": 852,
      "بعد": 853,
      "قط": 854,
      "ضای": 855,
      "دانشگاه": 856,
      "ایش": 857,
      "شود.": 858,
      "..": 859,
      "مشکل": 860,
      "ازی": 861,
      "‌هایی": 862,
      "سیاسی": 863,
      "میلیون": 864,
      "خار": 865,
      "انس": 866,
      "چی": 867,
      "اقتص": 868,
      "غی": 869,
      "استف": 870,
      "لیل": 871,
      "آز": 872,
      "جر": 873,
      "ساخت": 874,
      "جای": 875,
      "بوده": 876,
      "شتر": 877,
      "م،": 878,
      "رت": 879,
      "می‌شود.": 880,
      "اشت": 881,
      "سازی": 882,
      "فته": 883,
      "استفاده": 884,
      "پرو": 885,
      "سخ": 886,
      "جلس": 887,
      "بیم": 888,
      "اعلام": 889,
      "مست": 890,
      "شرایط": 891,
      "هار": 892,
      "اتی": 893,
      "کاری": 894,
      "نج": 895,
      "شتی": 896,
      "شم": 897,
      "تل": 898,
      "مهم": 899,
      "تاکی": 900,
      "کنند.": 901,
      "انتخا": 902,
      "عمل": 903,
      "گون": 904,
      "دم": 905,
      "برا": 906,
      "قای": 907,
      "تاکید": 908,
      "اظهار": 909,
      "می‌ده": 910,
      "مرک": 911,
      "گل": 912,
      "13": 913,
      "جان": 914,
      "ابق": 915,
      "''": 916,
      "فاق": 917,
      "باشگاه": 918,
      "طب": 919,
      "رفی": 920,
      "شده": 921,
      "آموزش": 922,
      "تواند": 923,
      "شهی": 924,
      "داری": 925,
      "جا": 926,
      "د،": 927,
      "مث": 928,
      "شا": 929,
      "پاس": 930,
      "شرکت": 931,
      "تلا": 932,
      "جدید": 933,
      "مخت": 934,
      "بررسی": 935,
      "شکی": 936,
      "ت‌های": 937,
      "همان": 938,
      "کمیسیون": 939,
      "جوان": 940,
      "افزود": 941,
      "صح": 942,
      "14": 943,
      "جهان": 944,
      "20": 945,
      "بسیار": 946,
      "اسف": 947,
      "دود": 948,
      "ثر": 949,
      "وض": 950,
      "دین": 951,
      "ویژ": 952,
      "تمام": 953,
      "قدر": 954,
      "‌و": 955,
      "خصوص": 956,
      "پرس": 957,
      "خانه": 958,
      "اقدام": 959,
      "کند": 960,
      "گروه": 961,
      "سلام": 962,
      "هیچ": 963,
      "افرا": 964,
      "منت": 965,
      "بی‌": 966,
      "نیاز": 967,
      "بری": 968,
      "خاطر": 969,
      "افزایش": 970,
      "اتفاق": 971,
      "ایجاد": 972,
      "ورزشی": 973,
      "ساعت": 974,
      "سوی": 975,
      "دل": 976,
      "واق": 977,
      "تش": 978,
      "خوبی": 979,
      "جهانی": 980,
      "می‌توان": 981,
      "واکسن": 982,
      "شهید": 983,
      "حتی": 984,
      "می‌کند": 985,
      "گیرد": 986,
      "شنا": 987,
      "بزرگ": 988,
      "زه": 989,
      "زان": 990,
      "قهر": 991,
      "ریح": 992,
      "بند": 993,
      "دلیل": 994,
      "هایی": 995,
      "زد": 996,
      "فرا": 997,
      "کند.": 998,
      "لیگ": 999,
      "افزود:": 1000,
      "مجمو": 1001,
      "وارد": 1002,
      "صن": 1003,
      "محمد": 1004,
      "توسط": 1005,
      "ایشان": 1006,
      "نم": 1007,
      "آمری": 1008,
      "لح": 1009,
      "اند.": 1010,
      "جمهوری": 1011,
      "هنگ": 1012,
      "عت": 1013,
      "آسی": 1014,
      "ونی": 1015,
      "تس": 1016,
      "خدا": 1017,
      "زمی": 1018,
      "طور": 1019,
      "اساس": 1020,
      "گرفته": 1021,
      "تلاش": 1022,
      "قیق": 1023,
      "خیلی": 1024,
      "غیر": 1025,
      "وا": 1026,
      "شده‌": 1027,
      "دارد.": 1028,
      "نسبت": 1029,
      "چون": 1030,
      "خواست": 1031,
      "استقل": 1032,
      "درصد": 1033,
      "th": 1034,
      "ضی": 1035,
      "سریال": 1036,
      "ندگان": 1037,
      "پرداخت": 1038,
      "افت": 1039,
      "بیشتر": 1040,
      "(ع": 1041,
      "ندار": 1042,
      "گیر": 1043,
      "استقلال": 1044,
      "چرا": 1045,
      "ت‌": 1046,
      "‌الله": 1047,
      "آب": 1048,
      "ته": 1049,
      "شدن": 1050,
      "خیر": 1051,
      "اقتصادی": 1052,
      "یافت": 1053,
      "یاد": 1054,
      "باشد.": 1055,
      "اطلا": 1056,
      "بنی": 1057,
      "آقای": 1058,
      "ارائ": 1059,
      "طه": 1060,
      "وزیر": 1061,
      "معا": 1062,
      "لاح": 1063,
      "داده": 1064,
      "جلسه": 1065,
      "خانو": 1066,
      "نشست": 1067,
      "فدر": 1068,
      "هستند": 1069,
      "چهار": 1070,
      "بته": 1071,
      "صل": 1072,
      "انتخابات": 1073,
      "خط": 1074,
      "اسیون": 1075,
      "مختلف": 1076,
      "نوی": 1077,
      "زندگی": 1078,
      "فدراسیون": 1079,
      "البته": 1080,
      "کلی": 1081,
      "جامعه": 1082,
      "پایان": 1083,
      "منط": 1084,
      "بودجه": 1085,
      "پولی": 1086,
      "فه": 1087,
      "تاری": 1088,
      "داد:": 1089,
      "دوم": 1090,
      "اسلام": 1091,
      "آمد": 1092,
      "نظام": 1093,
      "in": 1094,
      "مشکلات": 1095,
      "ان،": 1096,
      "دنی": 1097,
      "عمو": 1098,
      "(ع)": 1099,
      "کردند": 1100,
      "کنون": 1101,
      "an": 1102,
      "بیش": 1103,
      "وضعیت": 1104,
      "مدیری": 1105,
      "وم": 1106,
      "شناس": 1107,
      "قب": 1108,
      "لای": 1109,
      "مربی": 1110,
      "نتی": 1111,
      "مرکز": 1112,
      "شنبه": 1113,
      "ایرانی": 1114,
      "تغی": 1115,
      "ضر": 1116,
      "حمای": 1117,
      "میان": 1118,
      "تف": 1119,
      "ریق": 1120,
      "پاسخ": 1121,
      "اطلاع": 1122,
      "یع": 1123,
      "ستاد": 1124,
      "فعالی": 1125,
      "ازم": 1126,
      "حل": 1127,
      "رق": 1128,
      "فرد": 1129,
      "دری": 1130,
      "حسین": 1131,
      "ارائه": 1132,
      "بع": 1133,
      "ستی": 1134,
      "رم": 1135,
      "شاه": 1136,
      "دیدار": 1137,
      "می‌گوی": 1138,
      "ه‌شده": 1139,
      "معاون": 1140,
      "سپ": 1141,
      "تعداد": 1142,
      "پرسپولی": 1143,
      "on": 1144,
      "جری": 1145,
      "سته": 1146,
      "جز": 1147,
      "تصوی": 1148,
      "جش": 1149,
      "10": 1150,
      "19": 1151,
      "سیر": 1152,
      "گذاری": 1153,
      "رسید": 1154,
      "سم": 1155,
      "خوب": 1156,
      "آغ": 1157,
      "داریم": 1158,
      "زمینه": 1159,
      "حضرت": 1160,
      "دوره": 1161,
      "می‌تواند": 1162,
      "تصریح": 1163,
      "شما": 1164,
      "پرسپولیس": 1165,
      "درو": 1166,
      "هنری": 1167,
      "مسابق": 1168,
      "فرو": 1169,
      "نقش": 1170,
      "پز": 1171,
      "داخ": 1172,
      "ریم": 1173,
      "خصی": 1174,
      "کمک": 1175,
      "نهاد": 1176,
      "سام": 1177,
      "مقابل": 1178,
      "اجرای": 1179,
      "فصل": 1180,
      "زمین": 1181,
      "نماینده": 1182,
      "هفته": 1183,
      "نگاه": 1184,
      "نها": 1185,
      "اولی": 1186,
      "آخ": 1187,
      "این‌": 1188,
      "مذ": 1189,
      "مبت": 1190,
      "پذ": 1191,
      "شبکه": 1192,
      "عا": 1193,
      "er": 1194,
      "جنگ": 1195,
      "افراد": 1196,
      "دارند": 1197,
      "هیئ": 1198,
      "دستگاه": 1199,
      "گونه": 1200,
      "می‌کن": 1201,
      "آغاز": 1202,
      "انیم": 1203,
      "گران": 1204,
      "‌ترین": 1205,
      "نخ": 1206,
      "شار": 1207,
      "لازم": 1208,
      "دول": 1209,
      "جمع": 1210,
      "است؛": 1211,
      "دیگری": 1212,
      "دفاع": 1213,
      "تنها": 1214,
      "بود،": 1215,
      "ویژه": 1216,
      "مسابقات": 1217,
      "کردن": 1218,
      "پیدا": 1219,
      "یعنی": 1220,
      "مانده": 1221,
      "قابل": 1222,
      "خانواده": 1223,
      "وقتی": 1224,
      "بازیکنان": 1225,
      "ویت": 1226,
      "آور": 1227,
      "نیرو": 1228,
      "دس": 1229,
      "آینده": 1230,
      "قبل": 1231,
      "مرح": 1232,
      "ازه": 1233,
      "کسی": 1234,
      "پو": 1235,
      "جدی": 1236,
      "رئیس‌": 1237,
      "اران": 1238,
      "تصمی": 1239,
      "رع": 1240,
      "علمی": 1241,
      "جمهور": 1242,
      "فرهنگ": 1243,
      "خاب": 1244,
      "ویزی": 1245,
      "پار": 1246,
      "نز": 1247,
      "رخ": 1248,
      "می‌کند.": 1249,
      "ائل": 1250,
      "بیر": 1251,
      "ه‌بود": 1252,
      "حمایت": 1253,
      "بنا": 1254,
      "عمومی": 1255,
      "مال": 1256,
      "باط": 1257,
      "کنار": 1258,
      "وب": 1259,
      "بهداشت": 1260,
      "آمریکا": 1261,
      "تلویزی": 1262,
      "ریف": 1263,
      "فضای": 1264,
      "میت": 1265,
      "مسئول": 1266,
      "سیاست": 1267,
      "تن": 1268,
      "جمله": 1269,
      "انتخاب": 1270,
      "لوم": 1271,
      "خد": 1272,
      "توسعه": 1273,
      "رضا": 1274,
      "هنر": 1275,
      "جشنو": 1276,
      "مدیریت": 1277,
      "گفت‌و": 1278,
      "بحث": 1279,
      "ثبت": 1280,
      "عالی": 1281,
      "جوی": 1282,
      "دنبال": 1283,
      "شهری": 1284,
      "بسیاری": 1285,
      "مایی": 1286,
      "کنیم.": 1287,
      "زیادی": 1288,
      "شد،": 1289,
      "آر": 1290,
      "تامین": 1291,
      "امور": 1292,
      "سط": 1293,
      "الم": 1294,
      "مطرح": 1295,
      "عملی": 1296,
      "جشنواره": 1297,
      "حس": 1298,
      "نمایندگان": 1299,
      "علا": 1300,
      "وان": 1301,
      "نتیجه": 1302,
      "کردیم": 1303,
      "حاض": 1304,
      "الب": 1305,
      "بدون": 1306,
      "رئیس‌جمهور": 1307,
      "می‌کنیم": 1308,
      "انتق": 1309,
      "لب": 1310,
      "سید": 1311,
      "کود": 1312,
      "روزی": 1313,
      "تصمیم": 1314,
      "قضا": 1315,
      "سمت": 1316,
      "اصلی": 1317,
      "حقوق": 1318,
      "بده": 1319,
      "‌تر": 1320,
      "داشت:": 1321,
      "عدم": 1322,
      "حالی": 1323,
      "قیم": 1324,
      "الت": 1325,
      "باع": 1326,
      "ابع": 1327,
      "غر": 1328,
      "مدر": 1329,
      "برخ": 1330,
      "زینه": 1331,
      "کردند.": 1332,
      "پیک": 1333,
      "دنیا": 1334,
      "نای": 1335,
      "حر": 1336,
      "۱۳": 1337,
      "مدار": 1338,
      "خواهیم": 1339,
      "منطقه": 1340,
      "امیدو": 1341,
      "حاضر": 1342,
      "مخا": 1343,
      "اثر": 1344,
      "ید": 1345,
      "the": 1346,
      "می‌کنند": 1347,
      "تاریخ": 1348,
      "»،": 1349,
      "ثار": 1350,
      "حرف": 1351,
      "مانند": 1352,
      "ظم": 1353,
      "روند": 1354,
      "مقام": 1355,
      "انتظ": 1356,
      "موف": 1357,
      "پرور": 1358,
      "برگزاری": 1359,
      "ه‌اند.": 1360,
      "قوه": 1361,
      "لمان": 1362,
      "انی،": 1363,
      "اختی": 1364,
      "اصل": 1365,
      "ذر": 1366,
      "مالی": 1367,
      "پنج": 1368,
      "‌ن": 1369,
      "ماده": 1370,
      "اصلاح": 1371,
      "امکان": 1372,
      "پژ": 1373,
      "فار": 1374,
      "بازیکن": 1375,
      "زاده": 1376,
      "ادر": 1377,
      "کننده": 1378,
      "بیت": 1379,
      "کسب": 1380,
      "مسائل": 1381,
      "لیس": 1382,
      "اجر": 1383,
      "بخشی": 1384,
      "حدود": 1385,
      "کشورهای": 1386,
      "کاه": 1387,
      "مربو": 1388,
      "حج": 1389,
      "is": 1390,
      "بست": 1391,
      "داد.": 1392,
      "رسانه": 1393,
      "شخصی": 1394,
      "برد": 1395,
      "جن": 1396,
      "تغییر": 1397,
      "سوال": 1398,
      "گذار": 1399,
      "زمانی": 1400,
      "کارگرد": 1401,
      "صر": 1402,
      "وال": 1403,
      "...": 1404,
      "ه،": 1405,
      "15": 1406,
      "اخیر": 1407,
      "حف": 1408,
      "جریان": 1409,
      "خش": 1410,
      "امیدوار": 1411,
      "قضائی": 1412,
      "وند": 1413,
      "مطال": 1414,
      "کشتی": 1415,
      "مود": 1416,
      "سرد": 1417,
      "باعث": 1418,
      "پرورش": 1419,
      "مسئله": 1420,
      "خواهند": 1421,
      "‌ها،": 1422,
      "سپاه": 1423,
      "پذیر": 1424,
      "قو": 1425,
      "ساس": 1426,
      "دیم": 1427,
      "مشخص": 1428,
      "ارتباط": 1429,
      "امنی": 1430,
      "صحبت": 1431,
      "حه": 1432,
      "زبان": 1433,
      "ظرفی": 1434,
      "محی": 1435,
      "ریاست": 1436,
      "مخ": 1437,
      "هدف": 1438,
      "مجموعه": 1439,
      "خاص": 1440,
      "آمده": 1441,
      "جهت": 1442,
      "طرف": 1443,
      "مرحله": 1444,
      "دانش‌": 1445,
      "اسفند": 1446,
      "امتی": 1447,
      "مبار": 1448,
      "کام": 1449,
      "روس": 1450,
      "ادت": 1451,
      "کاهش": 1452,
      "عضو": 1453,
      "مهدی": 1454,
      "قت": 1455,
      "ملت": 1456,
      "عرا": 1457,
      "30": 1458,
      "مسیر": 1459,
      "فعالیت": 1460,
      "مناس": 1461,
      "ورود": 1462,
      "همراه": 1463,
      "کنی": 1464,
      "فکر": 1465,
      "برابر": 1466,
      "همکاری": 1467,
      "ورزش": 1468,
      "سلی": 1469,
      "قهرمان": 1470,
      "مجازی": 1471,
      "ندارد": 1472,
      "چار": 1473,
      "فری": 1474,
      "سرمربی": 1475,
      "رود": 1476,
      "گست": 1477,
      "ضمن": 1478,
      "بازار": 1479,
      "توانیم": 1480,
      "کمیته": 1481,
      "دای": 1482,
      "پژوه": 1483,
      "بین‌ال": 1484,
      "پا": 1485,
      "گفت‌وگو": 1486,
      "دریافت": 1487,
      "بور": 1488,
      "بانی": 1489,
      "اختیار": 1490,
      "غذ": 1491,
      "تاث": 1492,
      "صه": 1493,
      "مهر": 1494,
      "وع": 1495,
      "سفر": 1496,
      "بین‌المل": 1497,
      "طبق": 1498,
      "شهرد": 1499,
      "الله": 1500,
      "سینما": 1501,
      "آزاد": 1502,
      "اجرایی": 1503,
      "می‌دهد": 1504,
      "حاج": 1505,
      "راست": 1506,
      "بندی": 1507,
      "توانست": 1508,
      "نور": 1509,
      "ابقه": 1510,
      "پیش‌": 1511,
      "آیا": 1512,
      "پزشکی": 1513,
      "اور": 1514,
      "۱۰": 1515,
      "جع": 1516,
      "خارجی": 1517,
      "سرمای": 1518,
      "سایر": 1519,
      "فا": 1520,
      "می‌شو": 1521,
      "اعضای": 1522,
      "شکست": 1523,
      "نوز": 1524,
      "فرهنگی،": 1525,
      "جوانان": 1526,
      "فقط": 1527,
      "بهمن": 1528,
      "پور": 1529,
      "برنام": 1530,
      "‌سازی": 1531,
      "مدت": 1532,
      "قا": 1533,
      "روح": 1534,
      "برتر": 1535,
      "لاف": 1536,
      "دهای": 1537,
      "تهی": 1538,
      "شین": 1539,
      "نیست.": 1540,
      "بودن": 1541,
      "یک‌": 1542,
      "هزینه": 1543,
      "بنابر": 1544,
      "تج": 1545,
      "ابی": 1546,
      "داشت.": 1547,
      "تشکی": 1548,
      "‌آ": 1549,
      "دمات": 1550,
      "ضایی": 1551,
      "بن": 1552,
      "12": 1553,
      "خودش": 1554,
      "بیماری": 1555,
      "ed": 1556,
      "ت‌الله": 1557,
      "آموز": 1558,
      "کور": 1559,
      "دغ": 1560,
      "بلکه": 1561,
      "نیروی": 1562,
      "فرمانده": 1563,
      "ذکر": 1564,
      "متاسف": 1565,
      "تجر": 1566,
      "دبیر": 1567,
      "معظم": 1568,
      "سرا": 1569,
      "دش": 1570,
      "صنعت": 1571,
      "نخست": 1572,
      "فرزند": 1573,
      "فنی": 1574,
      "مقدس": 1575,
      "بیمار": 1576,
      "اجرا": 1577,
      "دیده": 1578,
      "مبتلا": 1579,
      "سطح": 1580,
      "منتشر": 1581,
      "پن": 1582,
      "لات": 1583,
      "باشد،": 1584,
      "فنا": 1585,
      "بینی": 1586,
      "تک": 1587,
      "مسئولی": 1588,
      "میلیارد": 1589,
      "اولین": 1590,
      "آثار": 1591,
      "خری": 1592,
      "فیت": 1593,
      "نفت": 1594,
      "دارد،": 1595,
      "متاسفانه": 1596,
      "اسم": 1597,
      "خارج": 1598,
      "1400": 1599,
      "سوم": 1600,
      "معرفی": 1601,
      "حدا": 1602,
      "نف": 1603,
      "انسان": 1604,
      "سعی": 1605,
      "آیت‌الله": 1606,
      "تومان": 1607,
      "علوم": 1608,
      "شاید": 1609,
      "آذر": 1610,
      "هستیم": 1611,
      "هنوز": 1612,
      "اتر": 1613,
      "بک": 1614,
      "ترا": 1615,
      "خاطرنشان": 1616,
      "قهرمانی": 1617,
      "مندان": 1618,
      "or": 1619,
      "طریق": 1620,
      "ارزش": 1621,
      "‌شده‌است.": 1622,
      "ابط": 1623,
      "نوشت": 1624,
      "طول": 1625,
      "نمایش": 1626,
      "کری": 1627,
      "مربوط": 1628,
      "دشمن": 1629,
      "اوت": 1630,
      "منظ": 1631,
      "as": 1632,
      "سخت": 1633,
      "تاثیر": 1634,
      "سینمایی": 1635,
      "درست": 1636,
      "مسئولان": 1637,
      "مثل": 1638,
      "اقدامات": 1639,
      "نیروهای": 1640,
      "شود،": 1641,
      "قرآن": 1642,
      "خدمات": 1643,
      "عمل‌": 1644,
      "اوی": 1645,
      "تاکنون": 1646,
      "محیط": 1647,
      "مدیر": 1648,
      "al": 1649,
      "هم‌": 1650,
      "رهبری": 1651,
      "سند": 1652,
      "چنان": 1653,
      "نزدی": 1654,
      "نوع": 1655,
      "آخرین": 1656,
      "علیه": 1657,
      "عراق": 1658,
      "سان": 1659,
      "دوست": 1660,
      "منابع": 1661,
      "فرص": 1662,
      "میزان": 1663,
      "درمان": 1664,
      "امتیاز": 1665,
      "پخش": 1666,
      "مم": 1667,
      "۱۱": 1668,
      "نگه": 1669,
      "می‌شود،": 1670,
      "سلامت": 1671,
      "جب": 1672,
      "دهم": 1673,
      "فرور": 1674,
      "عمل‌کرد": 1675,
      "صادر": 1676,
      "وار": 1677,
      "رژ": 1678,
      "فروردین": 1679,
      "سامانه": 1680,
      "حم": 1681,
      "نت": 1682,
      "هستند.": 1683,
      "راب": 1684,
      "دوران": 1685,
      "گیرد.": 1686,
      "تری": 1687,
      "مجموع": 1688,
      "تشکیل": 1689,
      "الان": 1690,
      "تلویزیون": 1691,
      "است:": 1692,
      "برنامه‌های": 1693,
      "دارند.": 1694,
      "مدارس": 1695,
      "امر": 1696,
      "زیست": 1697,
      "آسیا": 1698,
      "می‌رس": 1699,
      "قانونی": 1700,
      "رئیسی": 1701,
      "بنابراین": 1702,
      "جذ": 1703,
      "تعی": 1704,
      "شکر": 1705,
      "حسن": 1706,
      "وظ": 1707,
      "پیروزی": 1708,
      "داخلی": 1709,
      "شرو": 1710,
      "شاهد": 1711,
      "متن": 1712,
      "شع": 1713,
      "می‌دان": 1714,
      "تحت": 1715,
      "شناسی": 1716,
      "تصویب": 1717,
      "نباید": 1718,
      "مینی": 1719,
      "تعیین": 1720,
      "گفته": 1721,
      "اشته": 1722,
      "اطلاعات": 1723,
      "دیل": 1724,
      "رز": 1725,
      "نداشت": 1726,
      "ساله": 1727,
      "عود": 1728,
      "خدمت": 1729,
      "دانشجوی": 1730,
      "اردی": 1731,
      "رعایت": 1732,
      "نهایی": 1733,
      "نظارت": 1734,
      "انگ": 1735,
      "تحریم": 1736,
      "گردش": 1737,
      "عزی": 1738,
      "اضاف": 1739,
      "مجوز": 1740,
      "and": 1741,
      "جایگاه": 1742,
      "دستور": 1743,
      "جلو": 1744,
      "داور": 1745,
      "فناوری": 1746,
      "وین": 1747,
      "می‌کرد": 1748,
      "شتیم": 1749,
      "ar": 1750,
      "سیما": 1751,
      "خرد": 1752,
      "دولتی": 1753,
      "بین‌المللی": 1754,
      "محدود": 1755,
      "بهترین": 1756,
      "تحقیق": 1757,
      "صول": 1758,
      "ب‌": 1759,
      "سل": 1760,
      "22": 1761,
      "جمعیت": 1762,
      "محل": 1763,
      "رسیده": 1764,
      "مز": 1765,
      "بگوی": 1766,
      "طبی": 1767,
      "چیزی": 1768,
      "نگی": 1769,
      "شش": 1770,
      "le": 1771,
      "موق": 1772,
      "پرونده": 1773,
      "اقتصاد": 1774,
      "‌شده‌است": 1775,
      "رهبر": 1776,
      "۱۲": 1777,
      "می‌کنم": 1778,
      "اندی": 1779,
      "حد": 1780,
      "آمار": 1781,
      "اساسی": 1782,
      "جایی": 1783,
      "وس": 1784,
      "ناد": 1785,
      "مدیران": 1786,
      "حفظ": 1787,
      "شروع": 1788,
      "برنامه‌": 1789,
      "نکت": 1790,
      "کامل": 1791,
      "سال‌های": 1792,
      "هفت": 1793,
      "سخن": 1794,
      "رقابت": 1795,
      "شدند": 1796,
      "شاد": 1797,
      "داشتیم": 1798,
      "سردار": 1799,
      "حذ": 1800,
      "پیگیری": 1801,
      "ایل": 1802,
      "مصو": 1803,
      "رسمی": 1804,
      "وید": 1805,
      "قیمت": 1806,
      "راهی": 1807,
      "قدرت": 1808,
      "واقع": 1809,
      "به‌طور": 1810,
      "امیر": 1811,
      "18": 1812,
      "نهای": 1813,
      "کال": 1814,
      "ممکن": 1815,
      "صرف": 1816,
      "شعر": 1817,
      "مستند": 1818,
      "مف": 1819,
      "خور": 1820,
      "تحصی": 1821,
      "وقت": 1822,
      "اضافه": 1823,
      "تبدیل": 1824,
      "کشورمان": 1825,
      "سلیمانی": 1826,
      ":۲": 1827,
      "زن": 1828,
      "همی": 1829,
      "شای": 1830,
      "دع": 1831,
      "و...": 1832,
      ":۵": 1833,
      "مراسم": 1834,
      "ظرفیت": 1835,
      "گشت": 1836,
      "قرارداد": 1837,
      "واح": 1838,
      "پلیس": 1839,
      "ریزی": 1840,
      "نزدیک": 1841,
      "قق": 1842,
      "السلام": 1843,
      ":۳": 1844,
      "ماند": 1845,
      "نبود": 1846,
      "re": 1847,
      "امنیت": 1848,
      "رال": 1849,
      "جل": 1850,
      "عم": 1851,
      ":۰": 1852,
      "صف": 1853,
      "پایی": 1854,
      "مون": 1855,
      "ing": 1856,
      "کوت": 1857,
      "اهل": 1858,
      "لایحه": 1859,
      "طل": 1860,
      ":۴": 1861,
      "مخاطب": 1862,
      "انسانی": 1863,
      "صدا": 1864,
      ")،": 1865,
      "حرکت": 1866,
      "شهرداری": 1867,
      "گاهی": 1868,
      "‌شده‌و": 1869,
      "تحول": 1870,
      "موسی": 1871,
      "16": 1872,
      "اجه": 1873,
      "ترکی": 1874,
      "مناط": 1875,
      "هیئت‌": 1876,
      "عین": 1877,
      "می‌کنند.": 1878,
      "ارو": 1879,
      "کشی": 1880,
      "تز": 1881,
      "برس": 1882,
      "عملیات": 1883,
      "روش": 1884,
      "نویس": 1885,
      "ادبی": 1886,
      "موجود": 1887,
      "بهتر": 1888,
      "داف": 1889,
      "فروش": 1890,
      "قاسم": 1891,
      "50": 1892,
      "گزارش،": 1893,
      "فراهم": 1894,
      "خودرو": 1895,
      "یم،": 1896,
      "شهادت": 1897,
      "کارهای": 1898,
      "باشند": 1899,
      "ارز": 1900,
      "آورد": 1901,
      "اضی": 1902,
      "‌گیری": 1903,
      "پیشنهاد": 1904,
      "نگوی": 1905,
      "مواجه": 1906,
      "اهمیت": 1907,
      "مام": 1908,
      "ا،": 1909,
      "رفع": 1910,
      "دک": 1911,
      "اکنون": 1912,
      "139": 1913,
      "می‌گوید": 1914,
      "تیم‌های": 1915,
      "به‌عنوان": 1916,
      "گرفت.": 1917,
      "کاران": 1918,
      "24": 1919,
      "روایت": 1920,
      "en": 1921,
      "ویی": 1922,
      "روزهای": 1923,
      "ه‌ی": 1924,
      "کرده‌اند": 1925,
      "بهر": 1926,
      "17": 1927,
      "بهشت": 1928,
      "تخ": 1929,
      "تور": 1930,
      "لذ": 1931,
      "کز": 1932,
      "مادر": 1933,
      "مناطق": 1934,
      "شتری": 1935,
      "غل": 1936,
      "پشت": 1937,
      "پروژ": 1938,
      "المپیک": 1939,
      "روابط": 1940,
      "میدان": 1941,
      "تجربه": 1942,
      "استع": 1943,
      "می‌توانند": 1944,
      "تسنیم": 1945,
      "علاوه": 1946,
      "اصله": 1947,
      "شف": 1948,
      "مدا": 1949,
      "پول": 1950,
      "سخنگوی": 1951,
      "کارشناس": 1952,
      "امید": 1953,
      "ویروس": 1954,
      "زین": 1955,
      "فرمود": 1956,
      "‌ماه": 1957,
      "انتشار": 1958,
      "حجت": 1959,
      "بران": 1960,
      "فجر": 1961,
      "at": 1962,
      "آل": 1963,
      "کند،": 1964,
      "تایی": 1965,
      "عدالت": 1966,
      "نقل": 1967,
      "برداری": 1968,
      "درخواست": 1969,
      "بچه": 1970,
      "هواد": 1971,
      "انتقال": 1972,
      "رشد": 1973,
      "صبح": 1974,
      "پژوهش": 1975,
      "یافته": 1976,
      "آنان": 1977,
      "نکته": 1978,
      "موفق": 1979,
      "موارد": 1980,
      "منظور": 1981,
      "آموزان": 1982,
      "عرصه": 1983,
      "ستم": 1984,
      "ذی": 1985,
      "بازی‌های": 1986,
      "نح": 1987,
      "باس": 1988,
      "پیشر": 1989,
      "خوش": 1990,
      "اهای": 1991,
      "مذاک": 1992,
      "قابل‌": 1993,
      "الح": 1994,
      "فیل": 1995,
      "۱۵": 1996,
      "افق": 1997,
      "کات": 1998,
      "هیئت": 1999,
      "دارای": 2000,
      "ورزشگاه": 2001,
      "خداوند": 2002,
      "دینی": 2003,
      "علم": 2004,
      "همیشه": 2005,
      "it": 2006,
      "انتظار": 2007,
      "می‌رود": 2008,
      "یز": 2009,
      "فرصت": 2010,
      "ابه": 2011,
      "هشت": 2012,
      "مسابقه": 2013,
      "دقیق": 2014,
      "بالا": 2015,
      "برنامه‌ریزی": 2016,
      "ندی": 2017,
      "گردشگری": 2018,
      "حسی": 2019,
      "طرا": 2020,
      "شناخت": 2021,
      "محیط‌": 2022,
      "اهی": 2023,
      "آبان": 2024,
      "ساد": 2025,
      "نهایت": 2026,
      "‌نامه": 2027,
      "ادث": 2028,
      "خصوصی": 2029,
      "ارتش": 2030,
      "اله": 2031,
      "۰۹": 2032,
      "مقاو": 2033,
      "‌زاده": 2034,
      "محصول": 2035,
      "سای": 2036,
      "کمتر": 2037,
      "ضع": 2038,
      "کسانی": 2039,
      "امیدوارم": 2040,
      "اپ": 2041,
      "رسید.": 2042,
      "دقی": 2043,
      "رسیدگی": 2044,
      "11": 2045,
      "جدول": 2046,
      "رده": 2047,
      "کارگردانی": 2048,
      "ه‌ایم": 2049,
      "رح": 2050,
      "لز": 2051,
      "امسال": 2052,
      "‌شان": 2053,
      "باشند.": 2054,
      "مخال": 2055,
      "مراکز": 2056,
      "زده": 2057,
      "چشم": 2058,
      "غال": 2059,
      "لحاظ": 2060,
      "خوان": 2061,
      "قضائیه": 2062,
      "رشته": 2063,
      "جنو": 2064,
      "شوی": 2065,
      "سینمای": 2066,
      "توضی": 2067,
      "دچار": 2068,
      "معتق": 2069,
      "موجب": 2070,
      "پوی": 2071,
      "کیفیت": 2072,
      "کشور،": 2073,
      "حا": 2074,
      "مقر": 2075,
      "عات": 2076,
      "شرح": 2077,
      "احتم": 2078,
      "ودی": 2079,
      "امت": 2080,
      "‌الاسلام": 2081,
      "دکتر": 2082,
      "ابله": 2083,
      "خرداد": 2084,
      "تزریق": 2085,
      "پرست": 2086,
      "براساس": 2087,
      "صره": 2088,
      "صاص": 2089,
      "مقابله": 2090,
      "دهه": 2091,
      "بانک": 2092,
      "داستان": 2093,
      "توضیح": 2094,
      "حالا": 2095,
      "کرد،": 2096,
      "می‌آی": 2097,
      "رض": 2098,
      "چیز": 2099,
      "تخص": 2100,
      "فیلم‌های": 2101,
      "جاری": 2102,
      "آتش": 2103,
      "فلس": 2104,
      "پدر": 2105,
      "گذشت": 2106,
      "حجت‌الاسلام": 2107,
      "قف": 2108,
      "واکسی": 2109,
      "آنچه": 2110,
      "آموزشی": 2111,
      "خل": 2112,
      "انق": 2113,
      "آمریک": 2114,
      "اخلا": 2115,
      "تبلی": 2116,
      "بیشتری": 2117,
      "داخل": 2118,
      "۰۱": 2119,
      "داشتی": 2120,
      "صدور": 2121,
      "ایع": 2122,
      "شدند.": 2123,
      "فعال": 2124,
      "شهریور": 2125,
      "روسی": 2126,
      "21": 2127,
      "فول": 2128,
      "علیه‌": 2129,
      "ic": 2130,
      "گذاشت": 2131,
      "مشتر": 2132,
      "کشا": 2133,
      "بهره‌": 2134,
      "۹۹": 2135,
      "ندارد.": 2136,
      "زنان": 2137,
      "تایید": 2138,
      "کدام": 2139,
      "راف": 2140,
      "تاب": 2141,
      "مبارزه": 2142,
      "‌نام": 2143,
      "کردم": 2144,
      "لاغ": 2145,
      "بهبود": 2146,
      "دانست": 2147,
      "موسیقی": 2148,
      "رابطه": 2149,
      "عهده": 2150,
      "محیط‌زیست": 2151,
      "علیه‌السلام": 2152,
      "صند": 2153,
      "لابی": 2154,
      "الهی": 2155,
      "مشار": 2156,
      "مشک": 2157,
      "ظه": 2158,
      "ارسال": 2159,
      "اختصاص": 2160,
      "داشتند": 2161,
      "کنش": 2162,
      "حسینی": 2163,
      "ه‌ام": 2164,
      "معی": 2165,
      "برخورد": 2166,
      "ان‌": 2167,
      "ورزی": 2168,
      "‌بودند": 2169,
      "هماه": 2170,
      "دخ": 2171,
      "باشیم.": 2172,
      "اجازه": 2173,
      "پارلم": 2174,
      "باه": 2175,
      "محور": 2176,
      "ماج": 2177,
      "این‌که": 2178,
      "تد": 2179,
      "آیین": 2180,
      "موس": 2181,
      "واره": 2182,
      "مندی": 2183,
      "باشیم": 2184,
      "میل": 2185,
      "ro": 2186,
      "الش": 2187,
      "کادر": 2188,
      "مرکزی": 2189,
      "دقیقه": 2190,
      "25": 2191,
      "تبلیغ": 2192,
      "حذف": 2193,
      "‌نشده‌": 2194,
      "تبصره": 2195,
      "عهد": 2196,
      "صحنه": 2197,
      "مردمی": 2198,
      "هیات": 2199,
      "۱۳۹۹": 2200,
      "دستگاه‌های": 2201,
      "پل": 2202,
      "وف": 2203,
      "دارو": 2204,
      "کودک": 2205,
      "‌کننده": 2206,
      "دفت": 2207,
      "مشارکت": 2208,
      "پیشرفت": 2209,
      "مول": 2210,
      "علنی": 2211,
      "علیرضا": 2212,
      "میز": 2213,
      "خبرنگاران": 2214,
      "حکم": 2215,
      "رقم": 2216,
      "وقی": 2217,
      "زام": 2218,
      "متو": 2219,
      "آماد": 2220,
      "140": 2221,
      "رون": 2222,
      "موفقی": 2223,
      "خبری": 2224,
      "by": 2225,
      "‌مان": 2226,
      "پرداز": 2227,
      "روشن": 2228,
      "انقلابی": 2229,
      "متف": 2230,
      "وط": 2231,
      "دهی": 2232,
      "همچنان": 2233,
      "شاع": 2234,
      "اسناد": 2235,
      "شید": 2236,
      "لذا": 2237,
      "آوری": 2238,
      "ظر": 2239,
      "بعدی": 2240,
      "نداشته": 2241,
      "نار": 2242,
      "اعی": 2243,
      "غان": 2244,
      "ثبت‌نام": 2245,
      "عز": 2246,
      "رسان": 2247,
      "مقاومت": 2248,
      "رسانی": 2249,
      "ناسیون": 2250,
      "عرض": 2251,
      "‌اش": 2252,
      "تمرین": 2253,
      "آنجا": 2254,
      "کنتر": 2255,
      "خودشان": 2256,
      "شیر": 2257,
      "تیر": 2258,
      "مناف": 2259,
      "عبد": 2260,
      "قوانی": 2261,
      "اسب": 2262,
      "عو": 2263,
      "تصویر": 2264,
      "داران": 2265,
      "نتایج": 2266,
      "واکسیناسیون": 2267,
      "گرفتن": 2268,
      "حقوقی": 2269,
      "آمریکایی": 2270,
      "پیش‌بینی": 2271,
      "خیص": 2272,
      "۱۶": 2273,
      "نمایشگاه": 2274,
      "زنی": 2275,
      "60": 2276,
      "غم": 2277,
      "انتظامی": 2278,
      "قالب": 2279,
      "مایش": 2280,
      "تلویزیونی": 2281,
      "وسی": 2282,
      "عش": 2283,
      "لیت": 2284,
      "تقویت": 2285,
      "صنایع": 2286,
      "حک": 2287,
      "مبنی": 2288,
      "یاب": 2289,
      "مناسب": 2290,
      "سود": 2291,
      "دوز": 2292,
      "انجام‌شده": 2293,
      "عمر": 2294,
      "روست": 2295,
      "افرادی": 2296,
      "لال": 2297,
      "اصلا": 2298,
      "قطعا": 2299,
      "مواد": 2300,
      "مصرف": 2301,
      "جد": 2302,
      "مشترک": 2303,
      "مهاج": 2304,
      "صندوق": 2305,
      "اهداف": 2306,
      "ه‌شده‌": 2307,
      "دادن": 2308,
      "محرو": 2309,
      "دارم": 2310,
      "کنترل": 2311,
      "st": 2312,
      "بنده": 2313,
      "ادبیات": 2314,
      "40": 2315,
      "کاغذ": 2316,
      "شد:": 2317,
      "زیاد": 2318,
      "23": 2319,
      "طراحی": 2320,
      "تعطی": 2321,
      "جذب": 2322,
      "دعوت": 2323,
      "ابر": 2324,
      "مب": 2325,
      "اردیبهشت": 2326,
      "وظی": 2327,
      "استاد": 2328,
      "ه‌ها": 2329,
      "آزمون": 2330,
      "جبه": 2331,
      "دفتر": 2332,
      "هند": 2333,
      "مرگ": 2334,
      "ارزی": 2335,
      "سرمایه‌": 2336,
      "ندگی": 2337,
      "هد": 2338,
      "بازیگر": 2339,
      "صاح": 2340,
      "دادند": 2341,
      "مسئولیت": 2342,
      "200": 2343,
      "سیم": 2344,
      "شده‌اند": 2345,
      "تبی": 2346,
      "چهارم": 2347,
      "آماده": 2348,
      "حداقل": 2349,
      "سب": 2350,
      "فاصله": 2351,
      "گردان": 2352,
      "اعتبار": 2353,
      "قوانین": 2354,
      "می‌کند،": 2355,
      "ادل": 2356,
      "ورزشی،": 2357,
      "علت": 2358,
      "نمی‌توان": 2359,
      "وریت": 2360,
      "گار": 2361,
      "وش": 2362,
      "بازیگران": 2363,
      "اداری": 2364,
      "نگهبان": 2365,
      "شخصیت": 2366,
      "خورد": 2367,
      "احمد": 2368,
      "پارلمانی،": 2369,
      "حمل": 2370,
      "سختی": 2371,
      "حاشی": 2372,
      "حاک": 2373,
      "تغیی": 2374,
      "تجه": 2375,
      "ارات": 2376,
      "برخور": 2377,
      "اعتم": 2378,
      "آزادی": 2379,
      "کاملا": 2380,
      "تجهیز": 2381,
      "تسهی": 2382,
      "شوند.": 2383,
      "تمامی": 2384,
      "آسیب": 2385,
      "واکنش": 2386,
      "توصی": 2387,
      "تخصصی": 2388,
      "خام": 2389,
      "جهاد": 2390,
      "سوری": 2391,
      "رئیسه": 2392,
      "پزشک": 2393,
      "مصوبه": 2394,
      "ثری": 2395,
      "صاد": 2396,
      "تهیه‌": 2397,
      "کنندگان": 2398,
      "روحانی": 2399,
      "شناسایی": 2400,
      "مذکور": 2401,
      "معاونت": 2402,
      "می‌رسد": 2403,
      "شامل": 2404,
      "اعتق": 2405,
      "کارگردان": 2406,
      "پیامبر": 2407,
      "دانی": 2408,
      "(ص": 2409,
      "گام": 2410,
      "وک": 2411,
      "گویی": 2412,
      "انتقاد": 2413,
      "تان": 2414,
      "اعمال": 2415,
      "\"،": 2416,
      "--": 2417,
      "چهر": 2418,
      "می‌شوند": 2419,
      "چک": 2420,
      "کنم": 2421,
      "ترتی": 2422,
      "وزن": 2423,
      "۲۰": 2424,
      "دیر": 2425,
      "باقی": 2426,
      "تاریخی": 2427,
      "علی‌": 2428,
      "شوند": 2429,
      "کشاورزی": 2430,
      "محتو": 2431,
      "موقعیت": 2432,
      "ایام": 2433,
      "می‌شد": 2434,
      "خواند": 2435,
      "احساس": 2436,
      "رفتار": 2437,
      "فوق": 2438,
      "گل‌": 2439,
      "عظ": 2440,
      "دغدغ": 2441,
      "هوش": 2442,
      "انگی": 2443,
      "پاک": 2444,
      "شرکت‌های": 2445,
      "معلمان": 2446,
      "شری": 2447,
      "صور": 2448,
      "رویکرد": 2449,
      "ایست": 2450,
      "آباد": 2451,
      "صعود": 2452,
      "قبال": 2453,
      "حقیق": 2454,
      "احتمال": 2455,
      "نخستین": 2456,
      "محمدی": 2457,
      "of": 2458,
      "اداره": 2459,
      "رسیدن": 2460,
      "افتاد": 2461,
      "ناب": 2462,
      "خلا": 2463,
      "بودند.": 2464,
      "درس": 2465,
      "(ره": 2466,
      "فعالیت‌های": 2467,
      "جمعه": 2468,
      "آن‌": 2469,
      "ارشاد": 2470,
      "اشتباه": 2471,
      "بنیان": 2472,
      "گفتند": 2473,
      "ابتدا": 2474,
      "جلسات": 2475,
      "حرفه‌ای": 2476,
      "بس": 2477,
      "مدال": 2478,
      "کودکان": 2479,
      "خطر": 2480,
      "خمینی": 2481,
      "دانشجویان": 2482,
      "مخاط": 2483,
      "رش": 2484,
      "نهادی": 2485,
      "یت": 2486,
      "بزرگی": 2487,
      "نظامی": 2488,
      "وزی": 2489,
      "‌رسانی": 2490,
      "بهداشتی": 2491,
      "صدر": 2492,
      "تبر": 2493,
      "درآمد": 2494,
      "ایران،": 2495,
      "جمعی": 2496,
      "په": 2497,
      "فردی": 2498,
      "مشه": 2499,
      "ضرورت": 2500,
      "هوا": 2501,
      "حساب": 2502,
      "بتوانیم": 2503,
      "خوانی": 2504,
      "تحقق": 2505,
      "هدایت": 2506,
      "گرم": 2507,
      "دانش‌آموزان": 2508,
      "هیچ‌": 2509,
      "گین": 2510,
      "سه‌": 2511,
      "چالش": 2512,
      "دهد": 2513,
      "اعتماد": 2514,
      "برگ": 2515,
      "تی،": 2516,
      "جامع": 2517,
      "رونی": 2518,
      "نوعی": 2519,
      "تدوین": 2520,
      "کنید": 2521,
      "مدیرع": 2522,
      "ابتدای": 2523,
      "دوستان": 2524,
      "چاپ": 2525,
      "1401": 2526,
      "بتوان": 2527,
      "راستای": 2528,
      "ایف": 2529,
      "قهرمانان": 2530,
      "سران": 2531,
      "زیرا": 2532,
      "۱۷": 2533,
      "همچون": 2534,
      "هستند،": 2535,
      "‌بند": 2536,
      "خواهم": 2537,
      "کنند،": 2538,
      "اتفاقات": 2539,
      "فارسی": 2540,
      "است؟": 2541,
      "مغ": 2542,
      "وظیفه": 2543,
      "افغان": 2544,
      "کوتاه": 2545,
      "ir": 2546,
      "کتور": 2547,
      "نمود": 2548,
      "ترتیب": 2549,
      "مرز": 2550,
      "غرب": 2551,
      "راض": 2552,
      "شورا": 2553,
      "هماهنگی": 2554,
      "بخش‌های": 2555,
      "تئ": 2556,
      "راح": 2557,
      "دهد.": 2558,
      "مجمع": 2559,
      "کووید": 2560,
      "ou": 2561,
      "رژی": 2562,
      "نخواهد": 2563,
      "اسلامی،": 2564,
      "فشار": 2565,
      "اینجا": 2566,
      "فولاد": 2567,
      "طبیعی": 2568,
      "70": 2569,
      "شهدا": 2570,
      "قسمت": 2571,
      "میر": 2572,
      "صفر": 2573,
      "سریع": 2574,
      "توزی": 2575,
      "شرایطی": 2576,
      "قبلی": 2577,
      "نمو": 2578,
      "می‌گیرد": 2579,
      "الکت": 2580,
      "فران": 2581,
      "شهرستان": 2582,
      "فرم": 2583,
      "مرداد": 2584,
      "مثال": 2585,
      "مسکن": 2586,
      "ترد": 2587,
      "تیمی": 2588,
      "مسلح": 2589,
      "بگیرد": 2590,
      "حتما": 2591,
      "(ره)": 2592,
      "بازگشت": 2593,
      "ویل": 2594,
      "آرام": 2595,
      "رفته": 2596,
      "مدیرعامل": 2597,
      "بگیر": 2598,
      "قاضی": 2599,
      "ثی": 2600,
      "ژی": 2601,
      "مدرسه": 2602,
      "لط": 2603,
      "عزیز": 2604,
      "کارشناسی": 2605,
      "خرید": 2606,
      "نمونه": 2607,
      "نشر": 2608,
      "رمض": 2609,
      "انرژی": 2610,
      "دها": 2611,
      "فین": 2612,
      "بیمارستان": 2613,
      "عوامل": 2614,
      "سرعت": 2615,
      "نگر": 2616,
      "سامان": 2617,
      "میه": 2618,
      "خون": 2619,
      "ظاه": 2620,
      "توزیع": 2621,
      "جلوگیری": 2622,
      "این‌گونه": 2623,
      "نیست،": 2624,
      "معتقد": 2625,
      "بردی": 2626,
      "متعد": 2627,
      "آن،": 2628,
      "ایی،": 2629,
      "نحوه": 2630,
      "نیمه": 2631,
      "مدافع": 2632,
      "داشت،": 2633,
      "(ص)": 2634,
      "باور": 2635,
      "تحقیقات": 2636,
      "داوری": 2637,
      "کیلو": 2638,
      "90": 2639,
      "انتخابی": 2640,
      "تشخیص": 2641,
      "گرا": 2642,
      "شمار": 2643,
      "ترام": 2644,
      "عبار": 2645,
      "چگونه": 2646,
      "پایه": 2647,
      "موضوعات": 2648,
      "موفقیت": 2649,
      "داریم.": 2650,
      "تربیت": 2651,
      "مشاه": 2652,
      "بیماران": 2653,
      "تهیه": 2654,
      "شاخص": 2655,
      "روحی": 2656,
      "کاندید": 2657,
      "فض": 2658,
      "فعلی": 2659,
      "بسته": 2660,
      "قبول": 2661,
      "بینیم": 2662,
      "ترم": 2663,
      "یادآور": 2664,
      "پروژه": 2665,
      "ساخته": 2666,
      "فاط": 2667,
      "هواداران": 2668,
      "ساختار": 2669,
      "عکس": 2670,
      "سابق": 2671,
      "مدرضا": 2672,
      "می،": 2673,
      "100": 2674,
      "واقعی": 2675,
      "مجاز": 2676,
      "برق": 2677,
      "جبهه": 2678,
      "موثر": 2679,
      "ضعف": 2680,
      "ویژگی": 2681,
      "می‌گرد": 2682,
      "منافع": 2683,
      "اعتقاد": 2684,
      "بلند": 2685,
      "همواره": 2686,
      "رژیم": 2687,
      "ارف": 2688,
      "قضایی": 2689,
      "برو": 2690,
      "همان‌": 2691,
      "چین": 2692,
      "حقیقت": 2693,
      "سبک": 2694,
      "۱۴۰۱": 2695,
      "واقعا": 2696,
      "لاحی": 2697,
      "اولویت": 2698,
      "واردات": 2699,
      "حادث": 2700,
      "دوباره": 2701,
      "تعریف": 2702,
      "کانون": 2703,
      "عصر": 2704,
      "لاتی": 2705,
      "سیستم": 2706,
      "son": 2707,
      "کشورها": 2708,
      "می‌دهد.": 2709,
      "مار": 2710,
      "ه‌اش": 2711,
      "مرتب": 2712,
      "گذشته،": 2713,
      "دارند،": 2714,
      "دفاعی": 2715,
      "کافی": 2716,
      "جنوبی": 2717,
      "بالای": 2718,
      "80": 2719,
      "ناشی": 2720,
      "اصفه": 2721,
      "آخر": 2722,
      "هیئت‌رئیسه": 2723,
      "پایین": 2724,
      "خودمان": 2725,
      "اختلاف": 2726,
      "۱۸": 2727,
      "نیازمند": 2728,
      "نظری": 2729,
      "اعتراض": 2730,
      "می‌توانیم": 2731,
      "خر": 2732,
      "هستیم.": 2733,
      "قض": 2734,
      "کرون": 2735,
      "بتواند": 2736,
      "توپ": 2737,
      "قد": 2738,
      "قطعی": 2739,
      "گفتم": 2740,
      "مهمی": 2741,
      "بگیری": 2742,
      "حص": 2743,
      "همزمان": 2744,
      "ازن": 2745,
      "اینها": 2746,
      "پذی": 2747,
      "ابلاغ": 2748,
      "لاک": 2749,
      "است\"": 2750,
      "کردیم.": 2751,
      "es": 2752,
      "آیین‌نامه": 2753,
      "حریف": 2754,
      "حوزه‌های": 2755,
      "آیند": 2756,
      "بسیج": 2757,
      "سخنان": 2758,
      "حمی": 2759,
      "زدهم": 2760,
      "اها": 2761,
      "um": 2762,
      "حو": 2763,
      "مسلمان": 2764,
      "منجر": 2765,
      "گروه‌های": 2766,
      "نویسنده": 2767,
      "صدی": 2768,
      "گن": 2769,
      "انج": 2770,
      "رویداد": 2771,
      "نه‌": 2772,
      "‌اند": 2773,
      "الکترونی": 2774,
      "دلار": 2775,
      "جزئی": 2776,
      "فیق": 2777,
      "زو": 2778,
      "دختر": 2779,
      "روسیه": 2780,
      "مجد": 2781,
      "خرو": 2782,
      "محسو": 2783,
      "فکری": 2784,
      "مواف": 2785,
      "محمدرضا": 2786,
      "آس": 2787,
      "تکلی": 2788,
      "رسول": 2789,
      "سراسر": 2790,
      "حداک": 2791,
      "شنی": 2792,
      "زستان": 2793,
      "زل": 2794,
      "تجهیزات": 2795,
      "بیانی": 2796,
      "اتح": 2797,
      "متفاوت": 2798,
      "نص": 2799,
      "حاصل": 2800,
      "سپاهان": 2801,
      "قیه": 2802,
      "آنکه": 2803,
      "مخالف": 2804,
      "سعید": 2805,
      "پیشنهادی": 2806,
      "تیمش": 2807,
      "بط": 2808,
      "بحران": 2809,
      "تکر": 2810,
      "چوب": 2811,
      "عاش": 2812,
      "گانی": 2813,
      "این‌بود": 2814,
      "عتی": 2815,
      "بیرون": 2816,
      "۱۹": 2817,
      "جدیدی": 2818,
      "حمله": 2819,
      "سنی": 2820,
      "سوریه": 2821,
      "صرفا": 2822,
      "کم‌": 2823,
      "مثلا": 2824,
      "آمادگی": 2825,
      "رسانه‌ای": 2826,
      "مبل": 2827,
      "اروپا": 2828,
      "ستانی": 2829,
      "آنتن": 2830,
      "کنیم،": 2831,
      "حکو": 2832,
      "زود": 2833,
      "ازدهم": 2834,
      "زهرا": 2835,
      "مسی": 2836,
      "99": 2837,
      "پاد": 2838,
      "بنیاد": 2839,
      "تحصیل": 2840,
      "محسن": 2841,
      "مراج": 2842,
      "سیاست‌های": 2843,
      "نماز": 2844,
      "می‌کنیم.": 2845,
      "سایت": 2846,
      "هاش": 2847,
      "افتخار": 2848,
      "حضوری": 2849,
      "تنظ": 2850,
      "اجتماعی،": 2851,
      "رانی": 2852,
      "خودم": 2853,
      "ابراه": 2854,
      "امکانات": 2855,
      "اعزام": 2856,
      "چرخ": 2857,
      "کشوری": 2858,
      "دیوان": 2859,
      "خاصی": 2860,
      "صهی": 2861,
      "28": 2862,
      "داشتن": 2863,
      "مشاهده": 2864,
      "نسل": 2865,
      "باب": 2866,
      "نمایی": 2867,
      "شیوع": 2868,
      "رنگ": 2869,
      "توجهی": 2870,
      "محترم": 2871,
      "یار": 2872,
      "فردا": 2873,
      "باح": 2874,
      "وح": 2875,
      "واحد": 2876,
      "ارزیابی": 2877,
      "تشکر": 2878,
      "اسپ": 2879,
      "مصوب": 2880,
      "پروت": 2881,
      "ابراهیم": 2882,
      "مرت": 2883,
      "محصولات": 2884,
      "خاک": 2885,
      "کنم.": 2886,
      "ترک": 2887,
      "تنظیم": 2888,
      "صلاحی": 2889,
      "خوزستان": 2890,
      "سرپرست": 2891,
      "ویش": 2892,
      "فساد": 2893,
      "مرتبط": 2894,
      "سپس": 2895,
      "تدار": 2896,
      "ری،": 2897,
      "تکلیف": 2898,
      "اکران": 2899,
      "تغییرات": 2900,
      "برود": 2901,
      "بستان": 2902,
      "سرمایه‌گذاری": 2903,
      "رها": 2904,
      "بازنشست": 2905,
      "ستانه": 2906,
      "تبلیغات": 2907,
      "شهروند": 2908,
      "تهران،": 2909,
      "لزوم": 2910,
      "ژاد": 2911,
      "عامل": 2912,
      "نمی‌شود": 2913,
      "تکمی": 2914,
      "برادر": 2915,
      "غربی": 2916,
      "مراجعه": 2917,
      "فتیم": 2918,
      "تئاتر": 2919,
      "ببر": 2920,
      "گسترش": 2921,
      "سابقه": 2922,
      "مخاطبان": 2923,
      "عباس": 2924,
      "کارشناسان": 2925,
      "پایگاه": 2926,
      "سرمایه": 2927,
      "موافقت": 2928,
      "وزارتخانه": 2929,
      "متع": 2930,
      "افغانستان": 2931,
      "متوجه": 2932,
      "اولیه": 2933,
      "ممن": 2934,
      "رادی": 2935,
      "پوشش": 2936,
      "هنرمندان": 2937,
      "آتش‌": 2938,
      "قصد": 2939,
      "همه‌": 2940,
      "بیمه": 2941,
      "ایمان": 2942,
      "تراکتور": 2943,
      "استانی": 2944,
      "خانگی": 2945,
      "برج": 2946,
      "‌ای": 2947,
      "پیو": 2948,
      "پایانی": 2949,
      "نقطه": 2950,
      "قول": 2951,
      "سهم": 2952,
      "بیست": 2953,
      "دهند.": 2954,
      "یس": 2955,
      "همان‌طور": 2956,
      "التی": 2957,
      "می‌کنند،": 2958,
      "انع": 2959,
      "بدان": 2960,
      "دانش‌بنیان": 2961,
      "عملیاتی": 2962,
      "استقبال": 2963,
      "مجری": 2964,
      "اصول": 2965,
      "song": 2966,
      "خرا": 2967,
      "جزو": 2968,
      "27": 2969,
      "عن": 2970,
      "قات": 2971,
      "گانه": 2972,
      "اجتماعی؛": 2973,
      "مدعی": 2974,
      "به‌صورت": 2975,
      "‌گذاری": 2976,
      "سال‌ها": 2977,
      "لوب": 2978,
      "بعضی": 2979,
      "مذاکرات": 2980,
      "اشتغال": 2981,
      "صادق": 2982,
      "ابان": 2983,
      "می‌گویند": 2984,
      "پویا": 2985,
      "جدا": 2986,
      "قطر": 2987,
      "جالب": 2988,
      "بچه‌ها": 2989,
      "تخلف": 2990,
      "محاس": 2991,
      "ضعی": 2992,
      "محسوب": 2993,
      "انجمن": 2994,
      "۰۸": 2995,
      "پوشان": 2996,
      "واقعیت": 2997,
      "کنان": 2998,
      "طوری": 2999,
      "تماش": 3000,
      "مک": 3001,
      "نوجوان": 3002,
      "مهم‌ترین": 3003,
      "تحصیلی": 3004,
      "آورده": 3005,
      "تذکر": 3006,
      "اشک": 3007,
      "ایند": 3008,
      "تعدادی": 3009,
      "شخص": 3010,
      "کرده‌اند.": 3011,
      "دستو": 3012,
      "می‌شوند.": 3013,
      "برخوردار": 3014,
      "سا": 3015,
      "امیدواریم": 3016,
      "قطع": 3017,
      "سبب": 3018,
      "26": 3019,
      "اهل‌": 3020,
      "سالی": 3021,
      "جایزه": 3022,
      "صهیو": 3023,
      "نتوانست": 3024,
      "می‌توانست": 3025,
      "اندیشه": 3026,
      "یکدیگر": 3027,
      "پروتکل": 3028,
      "لغ": 3029,
      "شهدای": 3030,
      "منطق": 3031,
      "پدیده": 3032,
      "تعامل": 3033,
      "مستقیم": 3034,
      "خته": 3035,
      "آلود": 3036,
      "‌بندی": 3037,
      "احترام": 3038,
      "اخذ": 3039,
      "پرسش": 3040,
      "صهیونیست": 3041,
      "جبران": 3042,
      "شهرهای": 3043,
      "زیرس": 3044,
      "کره": 3045,
      "29": 3046,
      "کوچک": 3047,
      "قوی": 3048,
      "باف": 3049,
      "تست": 3050,
      "زنده": 3051,
      "بودند،": 3052,
      "ه‌ایم.": 3053,
      "دومین": 3054,
      "‌پور": 3055,
      "مهمترین": 3056,
      "مثبت": 3057,
      "to": 3058,
      "همسر": 3059,
      "زمینی": 3060,
      ").": 3061,
      "موم": 3062,
      "اید.": 3063,
      "ناک": 3064,
      "ولو": 3065,
      "خانم": 3066,
      "مرحوم": 3067,
      "کف": 3068,
      "گش": 3069,
      "نقد": 3070,
      "دریایی": 3071,
      "سیس": 3072,
      "شدت": 3073,
      "عبدال": 3074,
      "جاع": 3075,
      "کرده‌بود": 3076,
      "گروهی": 3077,
      "صلی": 3078,
      "تحریم‌ها": 3079,
      "ارتی": 3080,
      "خواهی": 3081,
      "بانوان": 3082,
      "درمانی": 3083,
      "ند؛": 3084,
      "قرمز": 3085,
      "حادثه": 3086,
      "متخص": 3087,
      "باتی": 3088,
      "جزئیات": 3089,
      "کش": 3090,
      "اصر": 3091,
      "۲۲": 3092,
      "ابتلا": 3093,
      "عب": 3094,
      "داوران": 3095,
      "کتی": 3096,
      "فل": 3097,
      "تکرار": 3098,
      "حز": 3099,
      "راه‌اند": 3100,
      "ه‌سازی": 3101,
      "کمبود": 3102,
      "پذیرش": 3103,
      "تقری": 3104,
      "قری": 3105,
      "واس": 3106,
      "تحویل": 3107,
      "صلاحیت": 3108,
      "شده،": 3109,
      "دادند.": 3110,
      "‌ان": 3111,
      "سیاسی،": 3112,
      "داده‌اند.": 3113,
      "ماتی": 3114,
      "اطلاع‌رسانی": 3115,
      "راه‌اندازی": 3116,
      "عبارت": 3117,
      "متخصص": 3118,
      "می‌خواهد": 3119,
      "کلاس": 3120,
      "پیشین": 3121,
      "اهل‌بیت": 3122,
      "بیش‌ترین": 3123,
      "حاشیه": 3124,
      "تمرکز": 3125,
      "سور": 3126,
      "رفت.": 3127,
      "صو": 3128,
      "om": 3129,
      "sing": 3130,
      "درستی": 3131,
      "بگیرد.": 3132,
      "روزها": 3133,
      "تعهد": 3134,
      "جواد": 3135,
      "عید": 3136,
      "قاب": 3137,
      "فرزندان": 3138,
      "علاق": 3139,
      "تدا": 3140,
      "توافق": 3141,
      "ضربه": 3142,
      "مبلغ": 3143,
      "رمان": 3144,
      "حفاظ": 3145,
      "نوشته": 3146,
      "بازدید": 3147,
      "رتبه": 3148,
      "اجی": 3149,
      "می‌بر": 3150,
      "هوایی": 3151,
      "اسما": 3152,
      "تخت": 3153,
      "عبور": 3154,
      "باری": 3155,
      "برجام": 3156,
      "شده‌اند.": 3157,
      "ابراز": 3158,
      "گهر": 3159,
      "نه‌ای": 3160,
      "شعار": 3161,
      "ثبات": 3162,
      "مهند": 3163,
      "کتاب‌های": 3164,
      "دولت،": 3165,
      "جیب": 3166,
      "پشتی": 3167,
      "معنای": 3168,
      "نمی‌تواند": 3169,
      "نوروز": 3170,
      "فق": 3171,
      "درسی": 3172,
      "میرا": 3173,
      "پیر": 3174,
      "خس": 3175,
      "ایده": 3176,
      "حرم": 3177,
      "نهادهای": 3178,
      "می‌کردند": 3179,
      "دانشگاه‌ها": 3180,
      "رغم": 3181,
      "تماشاگر": 3182,
      "معنوی": 3183,
      "نکرده": 3184,
      "بارها": 3185,
      "ظرفیت‌های": 3186,
      "حدی": 3187,
      "وحی": 3188,
      "اتو": 3189,
      "تاز": 3190,
      "وحد": 3191,
      "ات،": 3192,
      "دستی": 3193,
      "رمضان": 3194,
      "شاگردان": 3195,
      "هزینه‌های": 3196,
      "آدم": 3197,
      "ت،": 3198,
      "چقدر": 3199,
      "ضروری": 3200,
      "خوشب": 3201,
      "رائ": 3202,
      "مختل": 3203,
      "گونه‌ای": 3204,
      "تحلیل": 3205,
      "لشکر": 3206,
      "اصفهان": 3207,
      "ارب": 3208,
      "نخب": 3209,
      "مطالعه": 3210,
      "تبیین": 3211,
      "صحی": 3212,
      "‌یافته": 3213,
      "ضعیف": 3214,
      "خوشبخت": 3215,
      "نه‌تنها": 3216,
      "تال": 3217,
      "دقت": 3218,
      "مقررات": 3219,
      "آلو": 3220,
      "عالم": 3221,
      "وظایف": 3222,
      "ژان": 3223,
      "کارت": 3224,
      "ضد": 3225,
      "تبریک": 3226,
      "همراهی": 3227,
      "درد": 3228,
      "انو": 3229,
      "اذ": 3230,
      "محکو": 3231,
      "نقاط": 3232,
      "مانع": 3233,
      "مجید": 3234,
      "متر": 3235,
      "باخت": 3236,
      "تاسیس": 3237,
      "سنگین": 3238,
      "فضایی": 3239,
      "تشریح": 3240,
      "خلق": 3241,
      "یزد": 3242,
      "جناب": 3243,
      "درک": 3244,
      "مبتلای": 3245,
      "ناش": 3246,
      "انگلیس": 3247,
      "نفس": 3248,
      "ابعاد": 3249,
      "مفهو": 3250,
      "شکار": 3251,
      "همکاران": 3252,
      "افظ": 3253,
      "شاء": 3254,
      "فو": 3255,
      "می‌گیر": 3256,
      "ترکیب": 3257,
      "دایی": 3258,
      "بروز": 3259,
      "خارجه": 3260,
      "آف": 3261,
      "رتبه‌": 3262,
      "خوشبختانه": 3263,
      "45": 3264,
      "نسخ": 3265,
      "ن،": 3266,
      "گاه‌های": 3267,
      ":30": 3268,
      "مظ": 3269,
      "خیابان": 3270,
      "زندان": 3271,
      "مراق": 3272,
      "il": 3273,
      "سوت": 3274,
      "اندو": 3275,
      "قالی": 3276,
      "مربیان": 3277,
      "راهبردی": 3278,
      "نساجی": 3279,
      "سه‌شنبه": 3280,
      "ماموریت": 3281,
      "ac": 3282,
      "آبی": 3283,
      "غول": 3284,
      "اندازه": 3285,
      "چندین": 3286,
      "دلایل": 3287,
      "تصاوی": 3288,
      "نبوده": 3289,
      "اردو": 3290,
      "آسیایی": 3291,
      "گل‌گهر": 3292,
      "el": 3293,
      "می‌گوید:": 3294,
      "اتفاقی": 3295,
      "ارتباطات": 3296,
      "محقق": 3297,
      "هوشمند": 3298,
      "آلومینی": 3299,
      "هسته‌ای": 3300,
      "اسماعی": 3301,
      "آنی": 3302,
      "ابزار": 3303,
      "مذه": 3304,
      "محروم": 3305,
      "ترجمه": 3306,
      "ازدو": 3307,
      "حکومت": 3308,
      "هادی": 3309,
      "منص": 3310,
      "صاحب": 3311,
      "درون": 3312,
      "مشاور": 3313,
      "لبنان": 3314,
      "بگذار": 3315,
      "می‌آید": 3316,
      "دشمنان": 3317,
      "یکشنبه": 3318,
      "کارکنان": 3319,
      "بگویم": 3320,
      "شیوه": 3321,
      "صداو": 3322,
      "رسانه‌ها": 3323,
      "مومن": 3324,
      "دسترسی": 3325,
      "ماجرای": 3326,
      "(س": 3327,
      "ازدواج": 3328,
      "حفاظت": 3329,
      "واب": 3330,
      "کریم": 3331,
      "بتوانند": 3332,
      "دیم.": 3333,
      "۲۱": 3334,
      "اینتر": 3335,
      "نامه‌ای": 3336,
      "۲۴": 3337,
      "سیزدهم": 3338,
      "سالن": 3339,
      "رتبه‌بندی": 3340,
      "تلف": 3341,
      "رساند": 3342,
      "مراجع": 3343,
      "مختلفی": 3344,
      "صداوسیما": 3345,
      "دهند": 3346,
      "خاط": 3347,
      "مالیات": 3348,
      "طلبان": 3349,
      "تمد": 3350,
      "یدی": 3351,
      "تکمیل": 3352,
      "می‌کنم.": 3353,
      "امداد": 3354,
      "مصاح": 3355,
      "دانشجویی": 3356,
      "چاق": 3357,
      "ولایت": 3358,
      "نداد": 3359,
      "چیست": 3360,
      "آلومینیوم": 3361,
      "شریف": 3362,
      "am": 3363,
      "گذاشته": 3364,
      "ه‌بندی": 3365,
      "‌شده‌است،": 3366,
      "ه‌اند،": 3367,
      "دروازه": 3368,
      "پنجشنبه": 3369,
      "برطرف": 3370,
      "نظیر": 3371,
      "ها،": 3372,
      "تهدید": 3373,
      "بستر": 3374,
      "داشتند.": 3375,
      "اغ": 3376,
      "سفی": 3377,
      "».": 3378,
      "خب": 3379,
      "حزب": 3380,
      "قالیباف": 3381,
      "بیه": 3382,
      "بابت": 3383,
      "نشد": 3384,
      "کردند،": 3385,
      "زیرساخت": 3386,
      "عقب": 3387,
      "مردان": 3388,
      "مراقبت": 3389,
      "‌که": 3390,
      "نرخ": 3391,
      "درصدی": 3392,
      "ناظر": 3393,
      "اخلاق": 3394,
      "گسترده": 3395,
      "تصمیم‌گیری": 3396,
      "مهاجم": 3397,
      "رسانه‌های": 3398,
      "وحدت": 3399,
      "همت": 3400,
      "بله": 3401,
      "طلب": 3402,
      "بلا": 3403,
      "ایم": 3404,
      "چهارشنبه": 3405,
      "صورتی": 3406,
      "صنعتی": 3407,
      "طار": 3408,
      "سایه": 3409,
      "2022": 3410,
      "چارچوب": 3411,
      "متناسب": 3412,
      "تقریبا": 3413,
      "ویق": 3414,
      "منفی": 3415,
      "رفتن": 3416,
      "انص": 3417,
      "راحت": 3418,
      "بیل": 3419,
      "محمود": 3420,
      "می‌گیرد.": 3421,
      "نگرانی": 3422,
      "کشف": 3423,
      "شده‌بود": 3424,
      "بستری": 3425,
      "دسته": 3426,
      "جریمه": 3427,
      "حیات": 3428,
      "پیشگیری": 3429,
      "عشق": 3430,
      "فاطمه": 3431,
      "98": 3432,
      "بشر": 3433,
      "طین": 3434,
      "مصط": 3435,
      "والی": 3436,
      "خالی": 3437,
      "ذوب": 3438,
      "وجه": 3439,
      "روف": 3440,
      "روای": 3441,
      "می‌دهند": 3442,
      "رقابت‌های": 3443,
      "خود،": 3444,
      "ندارند": 3445,
      "اتحادی": 3446,
      "خاطرات": 3447,
      "شدید": 3448,
      "ماسی": 3449,
      "خلاف": 3450,
      "لغو": 3451,
      "شماره": 3452,
      "مقرر": 3453,
      "ad": 3454,
      "گشایی": 3455,
      "نجی": 3456,
      "فرآیند": 3457,
      "سک": 3458,
      "شبکه‌های": 3459,
      "میراث": 3460,
      "شفا": 3461,
      "اخلاقی": 3462,
      "مقدم": 3463,
      "خطاب": 3464,
      "ششم": 3465,
      "دادیم": 3466,
      "ion": 3467,
      "خودر": 3468,
      "معلم": 3469,
      "صدای": 3470,
      "کرونا،": 3471,
      "گرایی": 3472,
      "کتب": 3473,
      "نداریم": 3474,
      "مقن": 3475,
      "آقا": 3476,
      "هرچه": 3477,
      "گوش": 3478,
      "جلوی": 3479,
      "استان‌ها": 3480,
      "دهنده": 3481,
      "ماجرا": 3482,
      "تفاوت": 3483,
      "قدس": 3484,
      "خصوصا": 3485,
      "تسهیلات": 3486,
      "درگیر": 3487,
      "لیلی": 3488,
      "دی،": 3489,
      "موشک": 3490,
      "نوروزی": 3491,
      "ارض": 3492,
      "کارها": 3493,
      "کرمان": 3494,
      "شهروندان": 3495,
      "ساماندهی": 3496,
      "یاتی": 3497,
      "اشتیم": 3498,
      "ریاست‌": 3499,
      "سراغ": 3500,
      "زرد": 3501,
      "پویا؛": 3502,
      "مسئولین": 3503,
      "موسسه": 3504,
      "ایثار": 3505,
      "مشغول": 3506,
      "ارتقا": 3507,
      "bum": 3508,
      "فرام": 3509,
      "35": 3510,
      "مگر": 3511,
      "جهش": 3512,
      "بالاتر": 3513,
      "مشکلی": 3514,
      "نخبگان": 3515,
      "پیشک": 3516,
      "سج": 3517,
      "لمین": 3518,
      "منتظر": 3519,
      "se": 3520,
      "‌الع": 3521,
      "ناشران": 3522,
      "فرمان": 3523,
      "رضایی": 3524,
      "راد": 3525,
      "سرباز": 3526,
      "فضا": 3527,
      "album": 3528,
      "مسا": 3529,
      "مراحل": 3530,
      "فاز": 3531,
      "پست": 3532,
      "شهردار": 3533,
      "گاز": 3534,
      "دانشگاهی": 3535,
      "نمی‌دان": 3536,
      "هوادار": 3537,
      "was": 3538,
      "عادی": 3539,
      "دهیم": 3540,
      "هرچند": 3541,
      "ارتقای": 3542,
      "خویش": 3543,
      "خامنه‌ای": 3544,
      "صحیح": 3545,
      "می‌خواست": 3546,
      "دیگران": 3547,
      "تهیه‌کننده": 3548,
      "سنتی": 3549,
      "محدودیت": 3550,
      "پسر": 3551,
      "مواردی": 3552,
      "نظرات": 3553,
      "درخصوص": 3554,
      "تصور": 3555,
      "زاد": 3556,
      "ایستاد": 3557,
      "وها": 3558,
      "عرضه": 3559,
      "رک": 3560,
      "یابی": 3561,
      "زدن": 3562,
      "ریاست‌جمهوری": 3563,
      "ازندر": 3564,
      "مازندر": 3565,
      "رده‌های": 3566,
      "قرن": 3567,
      "ساختمان": 3568,
      "فرینی": 3569,
      "شبان": 3570,
      "بیا": 3571,
      "مقننه": 3572,
      "ه‌ن": 3573,
      "برکت": 3574,
      "خروج": 3575,
      "مناسبت": 3576,
      "پیشکسوت": 3577,
      "واسطه": 3578,
      "۲۳": 3579,
      "امنیتی": 3580,
      "پنجم": 3581,
      "هاشمی": 3582,
      "ادع": 3583,
      "جوانی": 3584,
      "داشتم": 3585,
      "قدی": 3586,
      "می‌پرداز": 3587,
      "دیگر،": 3588,
      "ه‌هایی": 3589,
      "بالی": 3590,
      "مطالبات": 3591,
      "سات": 3592,
      "رافی": 3593,
      "ذهن": 3594,
      "‌ون": 3595,
      "احی": 3596,
      "هستم": 3597,
      "قرآنی": 3598,
      "پشتیبانی": 3599,
      "باشند،": 3600,
      "تض": 3601,
      "خطبه": 3602,
      "آرامش": 3603,
      "زیستی": 3604,
      "قم": 3605,
      "هویت": 3606,
      "گزینه": 3607,
      "شکایت": 3608,
      "ستگی": 3609,
      "مسجد": 3610,
      "مقط": 3611,
      "شویم": 3612,
      "می‌گذ": 3613,
      "بلو": 3614,
      "دادگاه": 3615,
      "سرود": 3616,
      "مطل": 3617,
      "صحن": 3618,
      "فلسطین": 3619,
      "باطی": 3620,
      "حقی": 3621,
      "دستورال": 3622,
      "گز": 3623,
      "آمدی": 3624,
      "توانایی": 3625,
      "تروری": 3626,
      "مربوطه": 3627,
      "اعد": 3628,
      "عربستان": 3629,
      "مجاه": 3630,
      "امارات": 3631,
      "طرح‌های": 3632,
      "بروی": 3633,
      "لیست": 3634,
      "موتور": 3635,
      "موافق": 3636,
      "مجیدی": 3637,
      "میزبان": 3638,
      "‌بودیم": 3639,
      "مطابق": 3640,
      "سریال‌های": 3641,
      "بهره": 3642,
      "کلان": 3643,
      "فرماندهی": 3644,
      "مشهد": 3645,
      "‌اف": 3646,
      "مذهبی": 3647,
      "ورا": 3648,
      "جواب": 3649,
      "آسیب‌": 3650,
      "تاج": 3651,
      "آشنا": 3652,
      "جهادی": 3653,
      "اوج": 3654,
      "1399": 3655,
      "rom": 3656,
      "می‌رود.": 3657,
      "برزی": 3658,
      "تقدیم": 3659,
      "بهره‌برداری": 3660,
      "دهیم.": 3661,
      "شبانه‌": 3662,
      "نجات": 3663,
      "دغدغه": 3664,
      "تقدیر": 3665,
      "پرداخته": 3666,
      "لیسی": 3667,
      "موج": 3668,
      "انید": 3669,
      "بورس": 3670,
      "وعده": 3671,
      "تراف": 3672,
      "تبری": 3673,
      "برتری": 3674,
      "خوشحال": 3675,
      "لک": 3676,
      "تساوی": 3677,
      "ندارد،": 3678,
      "انگیزه": 3679,
      "مبتنی": 3680,
      "معمو": 3681,
      "for": 3682,
      "مقد": 3683,
      "راه‌": 3684,
      "زندانی": 3685,
      "درج": 3686,
      "تدری": 3687,
      "مض": 3688,
      "شاعران": 3689,
      "دیپل": 3690,
      "می‌خواهیم": 3691,
      "اته": 3692,
      "افتاده": 3693,
      "منزل": 3694,
      "موقع": 3695,
      "he": 3696,
      "قز": 3697,
      "هشتم": 3698,
      "نرم": 3699,
      "موظ": 3700,
      "داد،": 3701,
      "تماس": 3702,
      "منتقل": 3703,
      "فعالان": 3704,
      "لد": 3705,
      "ذیل": 3706,
      "500": 3707,
      "نگاهی": 3708,
      "تصاویر": 3709,
      "این‌ها": 3710,
      "مصطفی": 3711,
      "راستا": 3712,
      "فرانسه": 3713,
      "طلا": 3714,
      "ارها": 3715,
      "ترکیه": 3716,
      "وام": 3717,
      "موظف": 3718,
      "آستانه": 3719,
      "تحری": 3720,
      "مبارک": 3721,
      "ظهور": 3722,
      "تیم‌ها": 3723,
      "آرمان": 3724,
      "دوی": 3725,
      "اقی": 3726,
      "کرونایی": 3727,
      "د:": 3728,
      "مسعود": 3729,
      "عظیم": 3730,
      "مومنین": 3731,
      "حوادث": 3732,
      "مقای": 3733,
      "(س)": 3734,
      "راتی": 3735,
      "پیکان": 3736,
      "کیلوگرم": 3737,
      "اخی": 3738,
      "می‌کرد.": 3739,
      "تعالی": 3740,
      "قاچاق": 3741,
      "حمل‌ون": 3742,
      "طولانی": 3743,
      "اتحادیه": 3744,
      "خواهد‌بود": 3745,
      "کلف": 3746,
      "الکترونیک": 3747,
      "قلم": 3748,
      "سومین": 3749,
      "شفافیت": 3750,
      "حمل‌ونقل": 3751,
      "بود؛": 3752,
      "رضایت": 3753,
      "اخر": 3754,
      "ادین": 3755,
      "بدهی": 3756,
      "نوجوانان": 3757,
      "جایگ": 3758,
      "et": 3759,
      "رییس": 3760,
      "عده‌ای": 3761,
      "اطلاعاتی": 3762,
      "پنالتی": 3763,
      "صال": 3764,
      "شینی": 3765,
      "سرخ": 3766,
      "مخالفت": 3767,
      "مباح": 3768,
      "بای": 3769,
      "اری،": 3770,
      "اموال": 3771,
      "آله": 3772,
      "مصوبات": 3773,
      "علاقه‌": 3774,
      "خانواد": 3775,
      "زنج": 3776,
      "حاکم": 3777,
      "ردی": 3778,
      "بیاور": 3779,
      "بیانیه": 3780,
      "مصاحبه": 3781,
      "سوء": 3782,
      "کنید.": 3783,
      "ند:": 3784,
      "تفحص": 3785,
      "مطالعات": 3786,
      "مئ": 3787,
      "متوسط": 3788,
      "سیل": 3789,
      "ه‌بودند": 3790,
      "مدیرکل": 3791,
      "باغ": 3792,
      "مشکلاتی": 3793,
      "دستورالعمل": 3794,
      "داو": 3795,
      "اکبر": 3796,
      "دارد؛": 3797,
      "شاءالله": 3798,
      "اسکو": 3799,
      "انیا": 3800,
      "سنگ": 3801,
      "هوای": 3802,
      "صادرات": 3803,
      "می‌کنی": 3804,
      "حمید": 3805,
      "؟!": 3806,
      "ثابت": 3807,
      "single": 3808,
      "----": 3809,
      "کمت": 3810,
      "معروف": 3811,
      "قلب": 3812,
      "راهن": 3813,
      "دفاتر": 3814,
      "انتخاباتی": 3815,
      "مذاکره": 3816,
      "چش": 3817,
      "وضع": 3818,
      "آلودگی": 3819,
      "حجم": 3820,
      "احکام": 3821,
      "چراکه": 3822,
      "شاعر": 3823,
      "قدم": 3824,
      "بازگشایی": 3825,
      "ژانس": 3826,
      "اطع": 3827,
      "تردد": 3828,
      "مصاف": 3829,
      "مطرح‌شده": 3830,
      "فوق‌الع": 3831,
      "طان": 3832,
      "صحبت‌های": 3833,
      "ه‌دار": 3834,
      "جنگی": 3835,
      "‌آوری": 3836,
      "خانواده‌ها": 3837,
      "می­": 3838,
      "مجبور": 3839,
      "بالایی": 3840,
      "می‌دانی": 3841,
      "موسوی": 3842,
      "ve": 3843,
      "ناصر": 3844,
      "بدن": 3845,
      "بدی": 3846,
      "لهی": 3847,
      "راند": 3848,
      "from": 3849,
      "دوشنبه": 3850,
      "ثمر": 3851,
      "عقل": 3852,
      "هرگونه": 3853,
      "علیهم": 3854,
      "والیبال": 3855,
      "فارس": 3856,
      "فهم": 3857,
      "نوبت": 3858,
      "مدیره": 3859,
      "138": 3860,
      "استعداد": 3861,
      "‌گیر": 3862,
      "ارهای": 3863,
      "عرف": 3864,
      "اساتی": 3865,
      "توصیه": 3866,
      "سبز": 3867,
      "مقایسه": 3868,
      "کلام": 3869,
      "تلفیق": 3870,
      "هنگام": 3871,
      "استی": 3872,
      "افتتا": 3873,
      "فیلمن": 3874,
      "لباس": 3875,
      "استاندار": 3876,
      "مکلف": 3877,
      "درجه": 3878,
      "نظرم": 3879,
      "حافظ": 3880,
      "خات": 3881,
      "مطمئ": 3882,
      "تصمیمات": 3883,
      "تخصی": 3884,
      "احت": 3885,
      "گزارشی": 3886,
      "نیم‌": 3887,
      "یک‌میلیون": 3888,
      "نیک": 3889,
      "آگاهی": 3890,
      "به‌ای": 3891,
      "مبنای": 3892,
      "عه‌": 3893,
      "قرارگاه": 3894,
      "نایب‌": 3895,
      "یازدهم": 3896,
      "مشابه": 3897,
      "de": 3898,
      "یه": 3899,
      "نیمه‌": 3900,
      "شد؛": 3901,
      "شرق": 3902,
      "می‌رو": 3903,
      "روان": 3904,
      "کنکور": 3905,
      "کمال": 3906,
      "نشانی": 3907,
      "بهتری": 3908,
      "استان‌های": 3909,
      "موانع": 3910,
      "حداکثر": 3911,
      "ش،": 3912,
      "عط": 3913,
      "اگرچه": 3914,
      "مدیریتی": 3915,
      "لحظه": 3916,
      "شفاف": 3917,
      "عمی": 3918,
      "م‌": 3919,
      "اسرا": 3920,
      "پیوست": 3921,
      "شدیم": 3922,
      "عمد": 3923,
      "ناس": 3924,
      "الف": 3925,
      "هواپی": 3926,
      "انواع": 3927,
      "بتی": 3928,
      "دی‌ماه": 3929,
      "‌آهن": 3930,
      "صلی‌الله": 3931,
      "هم‌اکنون": 3932,
      "عجیب": 3933,
      "پوش": 3934,
      "قص": 3935,
      "جنوب": 3936,
      "بین‌الملل": 3937,
      "سرزمین": 3938,
      "دستاور": 3939,
      "مشمول": 3940,
      "می‌شد.": 3941,
      "ذوب‌آهن": 3942,
      "واری": 3943,
      "دوربین": 3944,
      "حذفی": 3945,
      "وانی": 3946,
      "رونمایی": 3947,
      "تازه": 3948,
      "مانه": 3949,
      "معض": 3950,
      "روزه": 3951,
      "می‌بینیم": 3952,
      "فرار": 3953,
      "نوآوری": 3954,
      "تخصیص": 3955,
      "خواستار": 3956,
      "تخری": 3957,
      "ذه": 3958,
      "نکرد": 3959,
      "گرامی": 3960,
      "تسهیل": 3961,
      "پیچی": 3962,
      "نفو": 3963,
      "تاثیرگذار": 3964,
      "شکده": 3965,
      "آگاه": 3966,
      "‌ساز": 3967,
      "000": 3968,
      "‌افزار": 3969,
      "کجا": 3970,
      "ظرف": 3971,
      "اربعین": 3972,
      "اماتی": 3973,
      "نمی‌شود.": 3974,
      "ابتدایی": 3975,
      "برداشت": 3976,
      "خواب": 3977,
      "ظاهر": 3978,
      "برنده": 3979,
      "موضوعی": 3980,
      "اندیش": 3981,
      "ان‌شاءالله": 3982,
      "دربی": 3983,
      "65": 3984,
      "امری": 3985,
      "گرفتیم": 3986,
      "رزمند": 3987,
      "ملا": 3988,
      "مطلوب": 3989,
      "دشو": 3990,
      "قرار‌بود": 3991,
      "متعددی": 3992,
      "نگری": 3993,
      "rit": 3994,
      "ly": 3995,
      "تکو": 3996,
      "دامی": 3997,
      "واگذاری": 3998,
      "قصه": 3999,
      "تومانی": 4000,
      "سد": 4001,
      "اهم": 4002,
      "دستگاه‌ها": 4003,
      "زیارت": 4004,
      "معنا": 4005,
      "میلاد": 4006,
      "مفهوم": 4007,
      "فرهنگیان": 4008,
      "بپرداز": 4009,
      "منطقه‌ای": 4010,
      "متهم": 4011,
      "ویژگی‌های": 4012,
      "مناسبی": 4013,
      "تسنیم،": 4014,
      "زودی": 4015,
      "می‌افت": 4016,
      "نزد": 4017,
      "تمرینات": 4018,
      "حالت": 4019,
      "امون": 4020,
      "خورده": 4021,
      "امین": 4022,
      "امد": 4023,
      "بانکی": 4024,
      "آیه": 4025,
      "نگران": 4026,
      "رادیو": 4027,
      "درخ": 4028,
      "ماند.": 4029,
      "شیمی": 4030,
      "ریه": 4031,
      "‌نژاد": 4032,
      "مبتلایان": 4033,
      "ch": 4034,
      "چهره": 4035,
      "برگشت": 4036,
      "دادستان": 4037,
      "گزاری": 4038,
      "فراز": 4039,
      "ترجی": 4040,
      "75": 4041,
      "کارخانه": 4042,
      "شهرها": 4043,
      "31": 4044,
      "نفع": 4045,
      "بوس": 4046,
      "قائ": 4047,
      "قضاوت": 4048,
      "دیپلماسی": 4049,
      "شرط": 4050,
      "صفحه": 4051,
      "ریال": 4052,
      "مادری": 4053,
      "آمد.": 4054,
      "کشت": 4055,
      "اتخا": 4056,
      "زر": 4057,
      "‌دهنده": 4058,
      "ایه": 4059,
      "الات": 4060,
      "به‌ویژه": 4061,
      "جور": 4062,
      "فلسفه": 4063,
      "است!": 4064,
      "۲۵": 4065,
      "دارایی": 4066,
      "گوار": 4067,
      "مازندران": 4068,
      "اتاق": 4069,
      "یابد.": 4070,
      "واج": 4071,
      "برگرد": 4072,
      "داریم،": 4073,
      "سیاه": 4074,
      "کیفی": 4075,
      "برعهده": 4076,
      "فرایند": 4077,
      "پذیری": 4078,
      "آزمایش": 4079,
      "ویژه‌ای": 4080,
      "آورد.": 4081,
      "اتخاذ": 4082,
      "44": 4083,
      "فوری": 4084,
      "باقر": 4085,
      "واز": 4086,
      "غلام": 4087,
      "سوخت": 4088,
      "متعال": 4089,
      "متقاضی": 4090,
      "محتوای": 4091,
      "۳۰": 4092,
      "شانس": 4093,
      "پایتخت": 4094,
      "تعطیلی": 4095,
      "راضی": 4096,
      "دانشگاه‌های": 4097,
      "تجاری": 4098,
      "اهالی": 4099,
      "منتخب": 4100,
      "مالکی": 4101,
      "بهمن‌ماه": 4102,
      "متولی": 4103,
      "گرفته‌شده": 4104,
      "هنرمند": 4105,
      "آشن": 4106,
      "گاری": 4107,
      "برگزی": 4108,
      "روانی": 4109,
      "پرواز": 4110,
      "آبادی": 4111,
      "شویم.": 4112,
      "درگیری": 4113,
      "بومی": 4114,
      "یک‌بار": 4115,
      "متعدد": 4116,
      "اخیرا": 4117,
      "وقوع": 4118,
      "مباحث": 4119,
      "شیخ": 4120,
      "ملی‌": 4121,
      "ارزشمند": 4122,
      "فینال": 4123,
      "می‌خواهند": 4124,
      "محیطی": 4125,
      "غذا": 4126,
      "شناخته": 4127,
      "رزمندگان": 4128,
      "خانواده‌های": 4129,
      "حساس": 4130,
      "یارانه": 4131,
      "اساتید": 4132,
      "فروشی": 4133,
      "جذاب": 4134,
      "پایدار": 4135,
      "تخریب": 4136,
      "ig": 4137,
      "ایراد": 4138,
      "خدای": 4139,
      "ازه‌": 4140,
      "نامزد": 4141,
      "نهم": 4142,
      "محاسبات": 4143,
      "تماشاگران": 4144,
      "33": 4145,
      "مامور": 4146,
      "الگوی": 4147,
      "فرود": 4148,
      "دادگست": 4149,
      "ابهام": 4150,
      "خلی": 4151,
      "چندان": 4152,
      "می‌گویم": 4153,
      "مجدد": 4154,
      "له‌": 4155,
      "امیرال": 4156,
      "تمدن": 4157,
      "برنامه‌ها": 4158,
      "گناه": 4159,
      "حاجی": 4160,
      "خال": 4161,
      "قین": 4162,
      "رفاه": 4163,
      "تعطیل": 4164,
      "نظارتی": 4165,
      "اظهارات": 4166,
      "برزیل": 4167,
      "ماس": 4168,
      "زودتر": 4169,
      "اندا": 4170,
      "پرده": 4171,
      "قوا": 4172,
      "دروغ": 4173,
      "نقشه": 4174,
      "تفکر": 4175,
      "نبود.": 4176,
      "هشد": 4177,
      "میزبانی": 4178,
      "1.": 4179,
      "افکار": 4180,
      "مرغ": 4181,
      "سرنوشت": 4182,
      "ئیل": 4183,
      "صهیونیستی": 4184,
      "گیران": 4185,
      "لحظ": 4186,
      "کردیم،": 4187,
      "کالا": 4188,
      "بش": 4189,
      "مور": 4190,
      "رفسن": 4191,
      "فیلمس": 4192,
      "امیرالمومنین": 4193,
      "اژ": 4194,
      "متوقف": 4195,
      "ویه": 4196,
      "کیه": 4197,
      "مستقل": 4198,
      "واکسن‌های": 4199,
      "پژوهشی": 4200,
      "قابل‌توجهی": 4201,
      "اراده": 4202,
      "سهمیه": 4203,
      "ورزشکاران": 4204,
      "زا": 4205,
      "قرائ": 4206,
      "ستاره": 4207,
      "جرم": 4208,
      "مسج": 4209,
      "پروانه": 4210,
      "فارغ": 4211,
      "راز": 4212,
      "سلاح": 4213,
      "نک": 4214,
      "کالاهای": 4215,
      "سنجش": 4216,
      "علامه": 4217,
      "چیچ": 4218,
      "ولوژی": 4219,
      "97": 4220,
      "تکواندو": 4221,
      "ارشد": 4222,
      "ترافیک": 4223,
      "حات": 4224,
      "عدد": 4225,
      "الیا": 4226,
      "ایمنی": 4227,
      "عادل": 4228,
      "ژیک": 4229,
      "مقامات": 4230,
      "یافت.": 4231,
      "آمریکایی‌ها": 4232,
      "ol": 4233,
      "آرای": 4234,
      "جایگزین": 4235,
      "فرانس": 4236,
      "نماید.": 4237,
      "چه‌": 4238,
      "راجع": 4239,
      "توانسته": 4240,
      "عام": 4241,
      "قلی": 4242,
      "مایل": 4243,
      "زح": 4244,
      "می‌خواهم": 4245,
      "بیفت": 4246,
      "اسکوچیچ": 4247,
      "دیدگاه": 4248,
      "اصلاح‌": 4249,
      "بها": 4250,
      "شایسته": 4251,
      "انتشارات": 4252,
      "تجارت": 4253,
      "'s": 4254,
      "مکان": 4255,
      "احمدی": 4256,
      "موسسات": 4257,
      "فره": 4258,
      "انگلیسی": 4259,
      "زائ": 4260,
      "مجتبی": 4261,
      "رب": 4262,
      "نکات": 4263,
      "ارجاع": 4264,
      "گرفتند": 4265,
      "ستان،": 4266,
      "۲۸": 4267,
      "مدل": 4268,
      "تفسیر": 4269,
      "بهداشت،": 4270,
      "واحدهای": 4271,
      "تار": 4272,
      "گره": 4273,
      "کلیه": 4274,
      "مرتضی": 4275,
      "انگیز": 4276,
      "روحیه": 4277,
      "وی،": 4278,
      "مناظ": 4279,
      "طرفی": 4280,
      "مسلمین": 4281,
      "افل": 4282,
      "مرجع": 4283,
      "برسد.": 4284,
      "مدتی": 4285,
      "گرفت،": 4286,
      "چرخه": 4287,
      "امع": 4288,
      "پیروز": 4289,
      "به‌دلیل": 4290,
      "دیدم": 4291,
      "زیبا": 4292,
      "تمند": 4293,
      "دریا": 4294,
      "بازرسی": 4295,
      "باشید": 4296,
      "فوتسال": 4297,
      "آق": 4298,
      "فقر": 4299,
      "ادف": 4300,
      "به‌روز": 4301,
      "فوق‌العاده": 4302,
      "درآمده": 4303,
      "بیند": 4304,
      "نفرات": 4305,
      "قدیمی": 4306,
      "مقطع": 4307,
      "راحتی": 4308,
      "تولیدی": 4309,
      "تروی": 4310,
      "باقری": 4311,
      "می‌کردند.": 4312,
      "پروتکل‌های": 4313,
      "راک": 4314,
      "جاده": 4315,
      "ه‌ترین": 4316,
      "فتح": 4317,
      "منتق": 4318,
      "داشتند،": 4319,
      "پیرامون": 4320,
      "پیوند": 4321,
      "کشید": 4322,
      "آبادان": 4323,
      "استرات": 4324,
      "خواسته": 4325,
      "عمده": 4326,
      "نسخه": 4327,
      "نشین": 4328,
      "شدم": 4329,
      "رصد": 4330,
      "فیز": 4331,
      "نهاده": 4332,
      "بزرگترین": 4333,
      "مکتب": 4334,
      "اصلاحات": 4335,
      "محدودی": 4336,
      "حکمر": 4337,
      "تجربی": 4338,
      "نگهداری": 4339,
      "دادگستری": 4340,
      "راج": 4341,
      "معارف": 4342,
      "غیرد": 4343,
      "روسای": 4344,
      "اروپایی": 4345,
      "نیم‌فصل": 4346,
      "تعلی": 4347,
      "مردم،": 4348,
      "برنامه‌ای": 4349,
      "دانیم": 4350,
      "زم": 4351,
      "بازنشستگان": 4352,
      "دنیای": 4353,
      "برقرار": 4354,
      "عض": 4355,
      "ندارند.": 4356,
      "قابلیت": 4357,
      "نر": 4358,
      "مره": 4359,
      "فیلم‌ها": 4360,
      "سار": 4361,
      "‌ام": 4362,
      "اراک": 4363,
      "پزشکان": 4364,
      "34": 4365,
      "لی،": 4366,
      "دسلی": 4367,
      "بساز": 4368,
      "دیه": 4369,
      "‌نشده‌است.": 4370,
      ".»": 4371,
      "96": 4372,
      "می‌ز": 4373,
      "حیه": 4374,
      "ساع": 4375,
      "ریشه": 4376,
      "شیراز": 4377,
      "بایی": 4378,
      "leas": 4379,
      "فراموش": 4380,
      "قیب": 4381,
      "اردوی": 4382,
      "بچه‌های": 4383,
      "مسجدسلی": 4384,
      "ک‌های": 4385,
      "می‌شود؛": 4386,
      "سالانه": 4387,
      "اقتصادی،": 4388,
      "مسلمانان": 4389,
      "‌گرفته": 4390,
      "احدا": 4391,
      "عوار": 4392,
      "بازیگران:": 4393,
      "حقیقی": 4394,
      "خاد": 4395,
      "ی،": 4396,
      "مدنظر": 4397,
      "ایتالیا": 4398,
      "چطور": 4399,
      "یو": 4400,
      "جس": 4401,
      "کردم.": 4402,
      "ابن": 4403,
      "خانه‌های": 4404,
      "ترس": 4405,
      "نیازهای": 4406,
      "نوشت:": 4407,
      "مسجدسلیمان": 4408,
      "برده": 4409,
      "دائ": 4410,
      "فیفا": 4411,
      "تعهدات": 4412,
      "ow": 4413,
      "ستر": 4414,
      "کارنامه": 4415,
      "سخنرانی": 4416,
      "نفوذ": 4417,
      "مولف": 4418,
      "جانبه": 4419,
      "احتی": 4420,
      "معاصر": 4421,
      "برسد": 4422,
      "فیلمنامه": 4423,
      "57": 4424,
      "سالم": 4425,
      "آرا": 4426,
      "صالح": 4427,
      "تعبیر": 4428,
      "مجازات": 4429,
      "باد": 4430,
      "می‌دهند.": 4431,
      "۰۷": 4432,
      "اوتی": 4433,
      "سقف": 4434,
      "پیمان": 4435,
      "پذیرفت": 4436,
      "تخلفات": 4437,
      "کرده‌ایم": 4438,
      "دعا": 4439,
      "راها": 4440,
      "کنونی": 4441,
      "‌بودم": 4442,
      "عربی": 4443,
      "مری": 4444,
      "نداشتیم": 4445,
      "ماشین": 4446,
      "محمدحسین": 4447,
      "مالک": 4448,
      "releas": 4449,
      "یزدانی": 4450,
      "نمایشی": 4451,
      "راهور": 4452,
      "جزء": 4453,
      "جست": 4454,
      "کرده،": 4455,
      "مشرو": 4456,
      "نایب‌رئیس": 4457,
      "فهر": 4458,
      "اتمام": 4459,
      "اطمین": 4460,
      "پداف": 4461,
      "نمی‌توانیم": 4462,
      "بشری": 4463,
      "ائمه": 4464,
      "لاین": 4465,
      "مساله": 4466,
      "‌کنندگان": 4467,
      "‌برداری": 4468,
      "رونق": 4469,
      "توانمندی": 4470,
      "گونا": 4471,
      "فش": 4472,
      "فقیه": 4473,
      "شمال": 4474,
      "تبریز": 4475,
      "داده‌شده": 4476,
      "محو": 4477,
      "عرص": 4478,
      "هیئت‌مدیره": 4479,
      "سوره": 4480,
      "صبر": 4481,
      "غری": 4482,
      "نشود": 4483,
      "هرگز": 4484,
      "فراوان": 4485,
      "سع": 4486,
      "احداث": 4487,
      "بیاید": 4488,
      "محکوم": 4489,
      "شبانه‌روز": 4490,
      "ظلم": 4491,
      "op": 4492,
      "کاتی": 4493,
      "تولیدات": 4494,
      "ممنوع": 4495,
      "2.": 4496,
      "ببینیم": 4497,
      "یابد": 4498,
      "نی،": 4499,
      "37": 4500,
      "انیمی": 4501,
      "می‌گذار": 4502,
      "غلط": 4503,
      "۰۳": 4504,
      "الرح": 4505,
      "ملک": 4506,
      "­های": 4507,
      "زایی": 4508,
      "نیستند": 4509,
      "وکالت": 4510,
      "بهار": 4511,
      "می‌دانست": 4512,
      "غیردول": 4513,
      "سیک": 4514,
      "دست‌": 4515,
      "‌شده‌که": 4516,
      "us": 4517,
      "شیدی": 4518,
      "تقسیم": 4519,
      "اطلاعی": 4520,
      "فیلمی": 4521,
      "میهمان": 4522,
      "امتح": 4523,
      "حکمرانی": 4524,
      "۲۹": 4525,
      "افتتاح": 4526,
      "ژا": 4527,
      "۰۲": 4528,
      "اقتدار": 4529,
      "معمولا": 4530,
      "ثرو": 4531,
      "می‌داد": 4532,
      "هندبال": 4533,
      "درخت": 4534,
      "ونا": 4535,
      "برز": 4536,
      "ترور": 4537,
      "سوالات": 4538,
      "بالغ": 4539,
      "امضا": 4540,
      "الیف": 4541,
      "لطف": 4542,
      "فرماندهان": 4543,
      "95": 4544,
      "بالات": 4545,
      "اعم": 4546,
      "جانباز": 4547,
      "مهندسی": 4548,
      "قاس": 4549,
      "ترویج": 4550,
      "فرماید": 4551,
      "ببین": 4552,
      "مفاه": 4553,
      "۲۶": 4554,
      "۲۷": 4555,
      "سنت": 4556,
      "مطلب": 4557,
      "واژ": 4558,
      "حقوق‌": 4559,
      "عزیزان": 4560,
      "مصلح": 4561,
      "art": 4562,
      "عوارض": 4563,
      "ادار": 4564,
      "علاقه": 4565,
      "قتل": 4566,
      "عمیق": 4567,
      "یور": 4568,
      "سهام": 4569,
      "علی‌رغم": 4570,
      "گفتگو": 4571,
      "لومتر": 4572,
      "ent": 4573,
      "دز": 4574,
      "باشگاه‌های": 4575,
      "فضل": 4576,
      "تداوم": 4577,
      "کارهایی": 4578,
      "اساسنامه": 4579,
      "الگو": 4580,
      "کیلومتر": 4581,
      "عزیزی": 4582,
      "im": 4583,
      "قبلا": 4584,
      "دروازه‌": 4585,
      "38": 4586,
      "بایج": 4587,
      "مهارت": 4588,
      "فرهاد": 4589,
      "یوس": 4590,
      "شهرسازی": 4591,
      "جهان،": 4592,
      "پرتاب": 4593,
      "معیشت": 4594,
      "عاشورا": 4595,
      "رنج": 4596,
      "نمی‌کند": 4597,
      "پلت": 4598,
      "فهرست": 4599,
      "مکر": 4600,
      "پاسداران": 4601,
      "تصویری": 4602,
      "متی": 4603,
      "انیمیشن": 4604,
      "آلمان": 4605,
      "جلب": 4606,
      "ساده": 4607,
      "زحمت": 4608,
      "آذربایج": 4609,
      "همانند": 4610,
      "بگوییم": 4611,
      "48": 4612,
      "ut": 4613,
      "اکثر": 4614,
      "حداکثری": 4615,
      "یاری": 4616,
      "روبه‌": 4617,
      "وابسته": 4618,
      "لیه": 4619,
      "دارم.": 4620,
      "کما": 4621,
      "نیا": 4622,
      "تاخیر": 4623,
      "36": 4624,
      "دلی": 4625,
      "مرزی": 4626,
      "آرز": 4627,
      "‌هاست": 4628,
      "شود؛": 4629,
      "جانب": 4630,
      "عراقی": 4631,
      "تهیه‌کنند": 4632,
      "قرائت": 4633,
      "ژاپن": 4634,
      "تلاش‌های": 4635,
      "چیست؟": 4636,
      "ay": 4637,
      "بقیه": 4638,
      "‌داده": 4639,
      "آسیب‌های": 4640,
      "رویه": 4641,
      "ماهی": 4642,
      "کربلا": 4643,
      "ظمی": 4644,
      "مصدو": 4645,
      "ه‌نشده‌": 4646,
      "روزنامه": 4647,
      "صلح": 4648,
      "موضع": 4649,
      "رفسنجان": 4650,
      "جلال": 4651,
      "۰۴": 4652,
      "‌دستی": 4653,
      "ریز": 4654,
      "موک": 4655,
      "دوره‌های": 4656,
      "رزمایش": 4657,
      "آسمان": 4658,
      "هشدار": 4659,
      "ur": 4660,
      "درگذشت": 4661,
      "بودیم.": 4662,
      "مفاهیم": 4663,
      "تجدید": 4664,
      "دانش‌آموز": 4665,
      "عموم": 4666,
      "توانستیم": 4667,
      "تورم": 4668,
      "این،": 4669,
      "گردی": 4670,
      "بزرگوار": 4671,
      "تشویق": 4672,
      "واگذار": 4673,
      "امیرحسین": 4674,
      "300": 4675,
      "‌دار": 4676,
      "می‌فرماید": 4677,
      "فراوانی": 4678,
      "ارائه‌شده": 4679,
      "اطمینان": 4680,
      "وکی": 4681,
      "رسال": 4682,
      "پناه": 4683,
      "پرچ": 4684,
      "بدهد": 4685,
      "گل‌محمدی": 4686,
      "نشد.": 4687,
      "۰۵": 4688,
      "مجلس،": 4689,
      "مسافر": 4690,
      "released": 4691,
      "جانی": 4692,
      "۰۶": 4693,
      "ه‌تر": 4694,
      "136": 4695,
      "نصب": 4696,
      "اسامی": 4697,
      "اولوی": 4698,
      "راس": 4699,
      "ضرر": 4700,
      "شمرد": 4701,
      "ائتلا": 4702,
      "عملا": 4703,
      "عص": 4704,
      "مسکو": 4705,
      "هفتم": 4706,
      "بازیگری": 4707,
      "جمع‌آوری": 4708,
      "گسترد": 4709,
      "پژوهشگر": 4710,
      "روبرو": 4711,
      "ابوال": 4712,
      "اقدامی": 4713,
      "علیها": 4714,
      "بازی‌ها": 4715,
      "آقایان": 4716,
      "داوطلبان": 4717,
      "وزرای": 4718,
      "دستاوردهای": 4719,
      "نوین": 4720,
      "پیکر": 4721,
      "مسیحی": 4722,
      "جنبه": 4723,
      "''.": 4724,
      "تفک": 4725,
      "توفیق": 4726,
      "داشتیم.": 4727,
      "نویسندگان": 4728,
      "بخواهیم": 4729,
      "وانه": 4730,
      "می‌رفت": 4731,
      "ناو": 4732,
      "غیردولتی": 4733,
      "تحریم‌های": 4734,
      "پروژه‌های": 4735,
      "بدین": 4736,
      "تاکتی": 4737,
      "روزانه": 4738,
      "پنه": 4739,
      "تی‌ها": 4740,
      "کرد؛": 4741,
      "باشگاه‌ها": 4742,
      "آشنایی": 4743,
      "وج": 4744,
      "اوکر": 4745,
      "آمدن": 4746,
      "ایرانیان": 4747,
      "مطالبه": 4748,
      "رقابت‌ها": 4749,
      "طبا": 4750,
      "قوت": 4751,
      "سوالی": 4752,
      "لیم": 4753,
      "می‌گفت": 4754,
      "تیپ": 4755,
      "کارگیری": 4756,
      "انقلاب،": 4757,
      "نشود.": 4758,
      "تیراند": 4759,
      "منتظ": 4760,
      "متذکر": 4761,
      "مالکیت": 4762,
      "بارسل": 4763,
      "بینید": 4764,
      "حاکمیت": 4765,
      "حقوق‌بشر": 4766,
      "هستی": 4767,
      "اتوبوس": 4768,
      "writ": 4769,
      "‌تری": 4770,
      "77": 4771,
      "هلال": 4772,
      "شیعه": 4773,
      "تقاض": 4774,
      "کشیده": 4775,
      "دیدارهای": 4776,
      "un": 4777,
      "غیبت": 4778,
      "زدایی": 4779,
      "جنایت": 4780,
      "احتمالا": 4781,
      "wh": 4782,
      "برون": 4783,
      "کاندیدای": 4784,
      "انداخت": 4785,
      "طال": 4786,
      "هری": 4787,
      "دیروز": 4788,
      "الهلال": 4789,
      "امتحان": 4790,
      "ظهر": 4791,
      "غف": 4792,
      "توانید": 4793,
      "حماس": 4794,
      "ونت": 4795,
      "متعل": 4796,
      "دروازه‌بان": 4797,
      "استناد": 4798,
      "دوازدهم": 4799,
      "نهض": 4800,
      "ردیف": 4801,
      "اء": 4802,
      "عاشق": 4803,
      "وکل": 4804,
      "‌گویی": 4805,
      "محبت": 4806,
      "کرده‌اند،": 4807,
      "آشکار": 4808,
      "بهانه": 4809,
      "تفاهم": 4810,
      "چالش‌های": 4811,
      "الکترونیکی": 4812,
      "شیعی": 4813,
      "احسان": 4814,
      "اعتبارات": 4815,
      "ترو": 4816,
      "می‌ساز": 4817,
      "نمایندگی": 4818,
      "نامز": 4819,
      "جعفر": 4820,
      "توقف": 4821,
      "می‌دهد،": 4822,
      "خراسان": 4823,
      "سازمان‌های": 4824,
      "ضیه": 4825,
      "92": 4826,
      "سقو": 4827,
      "داعش": 4828,
      "بازسازی": 4829,
      "ناف": 4830,
      "می‌دانند": 4831,
      "وحید": 4832,
      "ten": 4833,
      "بوی": 4834,
      "انض": 4835,
      "زیبایی": 4836,
      "تحولات": 4837,
      "مجاهد": 4838,
      "یگان": 4839,
      "ائتلاف": 4840,
      "اشخاص": 4841,
      "آزمای": 4842,
      "موزه": 4843,
      "تحمل": 4844,
      "باشد؛": 4845,
      "نع": 4846,
      "به‌ه": 4847,
      "شکل‌گیری": 4848,
      "منظر": 4849,
      "زدهمین": 4850,
      "فیلمساز": 4851,
      "سقوط": 4852,
      "ما،": 4853,
      "آیات": 4854,
      "مطهر": 4855,
      "اسرائیل": 4856,
      "‌هایش": 4857,
      "گفتمان": 4858,
      "رفتیم": 4859,
      "2021": 4860,
      "کاس": 4861,
      "کاش": 4862,
      "ممنو": 4863,
      "مرور": 4864,
      "شبه": 4865,
      "مالیاتی": 4866,
      "نداشت.": 4867,
      "رشته‌های": 4868,
      "ج‌": 4869,
      "می‌شد،": 4870,
      "شیو": 4871,
      "منطقی": 4872,
      "کد": 4873,
      "اقد": 4874,
      "انداز": 4875,
      "امیری": 4876,
      "محتوا": 4877,
      "بردن": 4878,
      "ئین": 4879,
      "استعاره": 4880,
      "شوراهای": 4881,
      "ادعای": 4882,
      "احیای": 4883,
      "شوند،": 4884,
      "جشن": 4885,
      "قید": 4886,
      "con": 4887,
      "‌مانده": 4888,
      "الزام": 4889,
      "ناز": 4890,
      "‌فر": 4891,
      "می‌بین": 4892,
      "فرنگی": 4893,
      "تلخ": 4894,
      "32": 4895,
      "رست": 4896,
      "حساسی": 4897,
      "میرز": 4898,
      "امن": 4899,
      "مدارک": 4900,
      "ایستگاه": 4901,
      "تهیه‌کنندگی": 4902,
      "پرت": 4903,
      "55": 4904,
      "ادعا": 4905,
      "tr": 4906,
      "آتی": 4907,
      "لان": 4908,
      "نبرد": 4909,
      "قائل": 4910,
      "تصادف": 4911,
      "بدهیم": 4912,
      "سفرهای": 4913,
      "هیئت‌علمی": 4914,
      "نارنجی": 4915,
      "برجسته": 4916,
      "di": 4917,
      "اساسا": 4918,
      "متعلق": 4919,
      "متح": 4920,
      "دسترس": 4921,
      "‌شناسی": 4922,
      "ادا": 4923,
      "صنفی": 4924,
      "آفرین": 4925,
      "بخواهد": 4926,
      "قیام": 4927,
      "رئ": 4928,
      "برخلاف": 4929,
      "وکلای": 4930,
      "ادب": 4931,
      "معیشتی": 4932,
      "سرلشکر": 4933,
      "سوزی": 4934,
      "مجددا": 4935,
      "امشب": 4936,
      "عوض": 4937,
      "تون": 4938,
      "سوابق": 4939,
      "تعا": 4940,
      "1)": 4941,
      "ver": 4942,
      "نصی": 4943,
      "نداریم.": 4944,
      "می‌داند": 4945,
      "مواجهه": 4946,
      "صنایع‌دستی": 4947,
      "بگیریم": 4948,
      "تشکل": 4949,
      "شفاهی": 4950,
      "be": 4951,
      "میث": 4952,
      "مهدوی": 4953,
      "اضع": 4954,
      "عضویت": 4955,
      "اسفندماه": 4956,
      "ژن": 4957,
      "کسیون": 4958,
      "نه،": 4959,
      "خبرگزاری": 4960,
      "غنی": 4961,
      "درضا": 4962,
      "تمدید": 4963,
      "اسماعیلی": 4964,
      "بارسلونا": 4965,
      "پال": 4966,
      "دوش": 4967,
      "هستیم،": 4968,
      "بیری": 4969,
      "فاقد": 4970,
      "تکن": 4971,
      "شبیه": 4972,
      "می‌برد": 4973,
      "پان": 4974,
      "معلوم": 4975,
      "مترو": 4976,
      "تک‌": 4977,
      "اینترنت": 4978,
      "85": 4979,
      "خطی": 4980,
      "نباشد": 4981,
      "ot": 4982,
      "داستانی": 4983,
      "اسد": 4984,
      "دوستی": 4985,
      "گا": 4986,
      "ون،": 4987,
      "اواخر": 4988,
      "‌پیام": 4989,
      "انتهای‌پیام": 4990,
      "نژاد": 4991,
      "می‌دانیم": 4992,
      "اثبات": 4993,
      "صاب": 4994,
      "ارتقاء": 4995,
      "ماهه": 4996,
      "‌شده‌در": 4997,
      "ord": 4998,
      "باشی": 4999,
      "تربی": 5000,
      "باشیم،": 5001,
      "فراکسیون": 5002,
      "بعضا": 5003,
      "توصیف": 5004,
      "هان": 5005,
      "سالروز": 5006,
      "اقت": 5007,
      "اعلام‌شده": 5008,
      "روبه‌رو": 5009,
      "FC": 5010,
      "خند": 5011,
      "هرانی": 5012,
      "جلسه‌ای": 5013,
      "قابل‌توجه": 5014,
      "(خ": 5015,
      "حین": 5016,
      "سامانه‌های": 5017,
      "دند": 5018,
      "کوچ": 5019,
      "فهمی": 5020,
      "می‌شوند،": 5021,
      "آهنگ": 5022,
      "مستقر": 5023,
      "ماموری": 5024,
      "می‌گردد.": 5025,
      "زنجیر": 5026,
      "جزی": 5027,
      "اوض": 5028,
      "پرداخت.": 5029,
      "بعث": 5030,
      "می‌رسد.": 5031,
      "خورد.": 5032,
      "کوتاهی": 5033,
      "پژوهش‌های": 5034,
      "می‌گردد": 5035,
      "خودروی": 5036,
      "تکیه": 5037,
      "سیرجان": 5038,
      "اسپانیا": 5039,
      "چر": 5040,
      "فاع": 5041,
      "تسلیت": 5042,
      "سرانجام": 5043,
      "کمترین": 5044,
      "نویسی": 5045,
      "زاک": 5046,
      "داتی": 5047,
      "ارزش‌های": 5048,
      "حدیث": 5049,
      "مصلحت": 5050,
      "استقرار": 5051,
      "مقدار": 5052,
      "واریز": 5053,
      "کتا": 5054,
      "احمر": 5055,
      "می‌کنیم،": 5056,
      "بگیرند": 5057,
      "تقاضای": 5058,
      "ber": 5059,
      "معنی": 5060,
      "سفار": 5061,
      "طنز": 5062,
      "کارآمد": 5063,
      "رایگان": 5064,
      "وسیله": 5065,
      "باسی": 5066,
      "تعرف": 5067,
      "می‌دهیم": 5068,
      "آذربایجان": 5069,
      "فای": 5070,
      "شرکت‌ها": 5071,
      "نیت": 5072,
      "مطالب": 5073,
      "جویی": 5074,
      "مفی": 5075,
      "کار،": 5076,
      "روستایی": 5077,
      "مهاجرت": 5078,
      "اوکراین": 5079,
      "گلزنی": 5080,
      "روایتی": 5081,
      "استک": 5082,
      "مشا": 5083,
      "سلام‌الله": 5084,
      "کریمی": 5085,
      "جه‌ای": 5086,
      "طاه": 5087,
      "دهد،": 5088,
      "مستمر": 5089,
      "جنگل": 5090,
      "ایفا": 5091,
      "تین": 5092,
      "ویض": 5093,
      "پرهی": 5094,
      "ندارم": 5095,
      "یاران": 5096,
      "انح": 5097,
      "سخنانی": 5098,
      "‌عالی": 5099,
      "معل": 5100,
      "اصغر": 5101,
      "شهیدان": 5102,
      "سلط": 5103,
      "بلاف": 5104,
      "صیانت": 5105,
      "mer": 5106,
      "‌پذیر": 5107,
      "اوایل": 5108,
      "پنجره": 5109,
      "نموده": 5110,
      "بگیرند.": 5111,
      "لوی": 5112,
      "معاد": 5113,
      "نشانه": 5114,
      "آمدند": 5115,
      "عرصه‌های": 5116,
      "آنلاین": 5117,
      "اقشار": 5118,
      "حجاب": 5119,
      "بگیریم.": 5120,
      "تنوع": 5121,
      "ملی،": 5122,
      "سنگی": 5123,
      "قدردانی": 5124,
      "بلافاصله": 5125,
      "67": 5126,
      "می‌گفتند": 5127,
      "مقت": 5128,
      "rec": 5129,
      "AFC": 5130,
      "‌احمر": 5131,
      "منح": 5132,
      "بدنه": 5133,
      "معتقدم": 5134,
      "هلال‌احمر": 5135,
      "اقداماتی": 5136,
      "خشک": 5137,
      "می‌دهم": 5138,
      "بازگرد": 5139,
      "رخ‌داده": 5140,
      "زخ": 5141,
      "راق": 5142,
      "کردی": 5143,
      "کارگروه": 5144,
      "محوریت": 5145,
      "دیدن": 5146,
      "ائلی": 5147,
      "خاطره": 5148,
      "88": 5149,
      "دانشکده": 5150,
      "اشغال": 5151,
      "بص": 5152,
      "می‏": 5153,
      "الس": 5154,
      "علو": 5155,
      "توجی": 5156,
      "فدا": 5157,
      "استاندارد": 5158,
      "3.": 5159,
      "همایش": 5160,
      "برود.": 5161,
      "محلی": 5162,
      "دلس": 5163,
      "محرم": 5164,
      "شرقی": 5165,
      "یون": 5166,
      "بی،": 5167,
      "پیامی": 5168,
      "اعضا": 5169,
      "گزی": 5170,
      "کاربران": 5171,
      "خواهید": 5172,
      "تعل": 5173,
      "منصوب": 5174,
      "تعارض": 5175,
      "باقی‌مانده": 5176,
      "آفرینی": 5177,
      "حریم": 5178,
      "شغل": 5179,
      "چمر": 5180,
      "تی‌": 5181,
      "شیرین": 5182,
      "معصو": 5183,
      "روستا": 5184,
      "زیرساخت‌های": 5185,
      "صالحی": 5186,
      "بایست": 5187,
      "اصط": 5188,
      "سیستان": 5189,
      "ماندگار": 5190,
      "پلتفرم": 5191,
      "آرزوی": 5192,
      "ul": 5193,
      "هاف": 5194,
      "شناخ": 5195,
      "مرزهای": 5196,
      "42": 5197,
      "داده‌اند": 5198,
      "محوری": 5199,
      "معتبر": 5200,
      "معرض": 5201,
      "سازو": 5202,
      "نیست؛": 5203,
      "کرونای": 5204,
      "گوناگون": 5205,
      "متری": 5206,
      "فرمود:": 5207,
      "خسارت": 5208,
      "لر": 5209,
      "اهواز": 5210,
      "مناظره": 5211,
      "پدافند": 5212,
      "فعلا": 5213,
      "نمی‌توانند": 5214,
      "مدافعان": 5215,
      "نمی‌دانم": 5216,
      "زور": 5217,
      "هزین": 5218,
      "یافتگان": 5219,
      "رحمت": 5220,
      "ماسک": 5221,
      "ضبط": 5222,
      "بهشتی": 5223,
      "بازداشت": 5224,
      "توانمند": 5225,
      "عمران": 5226,
      "The": 5227,
      "مادی": 5228,
      "نوری": 5229,
      "اشار": 5230,
      "نهضت": 5231,
      "ثال": 5232,
      "اده‌ای": 5233,
      "لین": 5234,
      "پذیرد": 5235,
      "محوطه": 5236,
      "سینماه": 5237,
      "نادی": 5238,
      "وای": 5239,
      "حیدری": 5240,
      "خطرناک": 5241,
      "اضا": 5242,
      "عان": 5243,
      "فتی": 5244,
      "منز": 5245,
      "سالگرد": 5246,
      "سراسری": 5247,
      "قربانی": 5248,
      "‌نشده": 5249,
      "روش‌های": 5250,
      "طارمی": 5251,
      "غافل": 5252,
      "بازر": 5253,
      "هماهنگ": 5254,
      "ج)": 5255,
      "حامد": 5256,
      "کلا": 5257,
      "همسایه": 5258,
      "مردی": 5259,
      "جانشین": 5260,
      "یادداشت": 5261,
      "کشتی‌گیر": 5262,
      "امتیازی": 5263,
      "می‌دانم": 5264,
      "اوضاع": 5265,
      "نگرفته": 5266,
      "چهل": 5267,
      "اطراف": 5268,
      "الآن": 5269,
      "احتمالی": 5270,
      "صمی": 5271,
      "آمریکا،": 5272,
      "اشکال": 5273,
      "مطمئن": 5274,
      "تذ": 5275,
      "داوط": 5276,
      "آیی": 5277,
      "هافبک": 5278,
      "46": 5279,
      "ith": 5280,
      "پترو": 5281,
      "توق": 5282,
      "دانشمندان": 5283,
      "سویه": 5284,
      "خادم": 5285,
      "نامی": 5286,
      "‌شده‌بود": 5287,
      "ه‌ام.": 5288,
      "داوطلب": 5289,
      "الا": 5290,
      "کمیت": 5291,
      "سیاست‌گذاری": 5292,
      "می‌آید.": 5293,
      "مکانی": 5294,
      "محبو": 5295,
      "آن‌که": 5296,
      "لند": 5297,
      "انتری": 5298,
      "مخدر": 5299,
      "طبیع": 5300,
      "معادل": 5301,
      "مایه": 5302,
      "نحوی": 5303,
      "بدانند": 5304,
      "کمر": 5305,
      "اهدا": 5306,
      "اسر": 5307,
      "زمینه‌های": 5308,
      "58": 5309,
      "بگذ": 5310,
      "پاری": 5311,
      "بزن": 5312,
      "تاثی": 5313,
      "زیست‌": 5314,
      "رزم": 5315,
      "افزوده": 5316,
      "طبیعت": 5317,
      "نعمت": 5318,
      "آد": 5319,
      "انف": 5320,
      "سریالی": 5321,
      "زاکانی": 5322,
      "نقدی": 5323,
      "امروزه": 5324,
      "علاقه‌مندان": 5325,
      "رداد": 5326,
      "موقت": 5327,
      "تعزی": 5328,
      "بوم": 5329,
      "اختیارات": 5330,
      "بزرگسال": 5331,
      "والدین": 5332,
      "ه‌شده‌است.": 5333,
      "ایفای": 5334,
      "تسریع": 5335,
      "معدن": 5336,
      "ماه‌های": 5337,
      "تازگی": 5338,
      "دشوار": 5339,
      "ظریف": 5340,
      "یل": 5341,
      "اول،": 5342,
      "اراضی": 5343,
      "دانشجو": 5344,
      "شام": 5345,
      "دارویی": 5346,
      "آموزی": 5347,
      "جعفری": 5348,
      "فن": 5349,
      "نبود،": 5350,
      "ارتباطی": 5351,
      "ساخته‌شده": 5352,
      "طبیعتا": 5353,
      ".000": 5354,
      "اپی": 5355,
      "مسائلی": 5356,
      "جدایی": 5357,
      "47": 5358,
      "کاراک": 5359,
      "تلقی": 5360,
      "ممنوعیت": 5361,
      "چمران": 5362,
      "قایق": 5363,
      "جغ": 5364,
      "سف": 5365,
      "پلی": 5366,
      "می‌زن": 5367,
      "سرقت": 5368,
      "شوراها": 5369,
      "اخراج": 5370,
      "بدهند": 5371,
      "حوا": 5372,
      "فراتر": 5373,
      "بدهد.": 5374,
      "مجوزهای": 5375,
      "عزت": 5376,
      "ترسیم": 5377,
      "مهار": 5378,
      "راهکار": 5379,
      "وله": 5380,
      "شدند،": 5381,
      "همکاری‌های": 5382,
      "بلوچ": 5383,
      "مدد": 5384,
      "آزمایی": 5385,
      "خودروهای": 5386,
      "ج‌فارس": 5387,
      "پرهیز": 5388,
      "te": 5389,
      "زندانیان": 5390,
      "قادر": 5391,
      "تولیدکنندگان": 5392,
      "حمایتی": 5393,
      "تضمین": 5394,
      "خلیج‌فارس": 5395,
      "رسالت": 5396,
      "هتل": 5397,
      "مشهر": 5398,
      "‌شده،": 5399,
      "پنهان": 5400,
      "ce": 5401,
      "جنس": 5402,
      "حبی": 5403,
      "عمق": 5404,
      "منع": 5405,
      "نیمکت": 5406,
      "صدام": 5407,
      "قسم": 5408,
      "باطل": 5409,
      "اندیشی": 5410,
      "داشتیم،": 5411,
      "اصرار": 5412,
      "پرچم": 5413,
      "تدبیر": 5414,
      "39": 5415,
      "برسی": 5416,
      "دغدغه‌های": 5417,
      "ب،": 5418,
      "عس": 5419,
      "محسنی": 5420,
      "تحمیل": 5421,
      "طبقه": 5422,
      "چهره‌های": 5423,
      "رکورد": 5424,
      "درخشان": 5425,
      "ap": 5426,
      "اکرم": 5427,
      "عمدتا": 5428,
      "طوف": 5429,
      "نیمه‌نهایی": 5430,
      "اوقات": 5431,
      "۱۰:": 5432,
      "تردید": 5433,
      "مراتب": 5434,
      "آخرت": 5435,
      "مشاغل": 5436,
      "کند؛": 5437,
      "پارک": 5438,
      "رضوی": 5439,
      "تحمیلی": 5440,
      "پردازی": 5441,
      "غذایی": 5442,
      "ملاح": 5443,
      "مبارز": 5444,
      "تدریس": 5445,
      "مادرید": 5446,
      "فرست": 5447,
      "برایم": 5448,
      "پاسخ‌گویی": 5449,
      "پرونده‌های": 5450,
      "تمایل": 5451,
      "راهکارهای": 5452,
      "ملت‌های": 5453,
      "کاراکتر": 5454,
      "جنا": 5455,
      "اتفاقا": 5456,
      "این‌طور": 5457,
      "شخصیت‌های": 5458,
      "هفته‌های": 5459,
      "می‌گیرند": 5460,
      "صمت": 5461,
      "برداشته": 5462,
      "فیف": 5463,
      "سالگی": 5464,
      "می‌کرد،": 5465,
      "ناگ": 5466,
      "ناشر": 5467,
      "ملکی": 5468,
      "شمالی": 5469,
      "بهبودیافتگان": 5470,
      "یورو": 5471,
      "عال": 5472,
      "مسلم": 5473,
      "د؟": 5474,
      "گرای": 5475,
      "دادیم.": 5476,
      "منصوری": 5477,
      "قزاق": 5478,
      "فیزیکی": 5479,
      "ئو": 5480,
      "زلز": 5481,
      "غدیر": 5482,
      "میتی": 5483,
      "یادآوری": 5484,
      "written": 5485,
      "تامل": 5486,
      "سکوت": 5487,
      "مهی": 5488,
      "انه‌ای": 5489,
      "رده‌بندی": 5490,
      "اهتمام": 5491,
      "سرای": 5492,
      "اژه‌ای": 5493,
      "وکیل": 5494,
      "درحالی": 5495,
      "مهلت": 5496,
      "گرفتند.": 5497,
      "بزرگان": 5498,
      "زامی": 5499,
      "بره": 5500,
      "سواد": 5501,
      "شدی": 5502,
      "رانندگی": 5503,
      "طلایی": 5504,
      "محدودیت‌های": 5505,
      "جغرافی": 5506,
      "«»": 5507,
      "نگذ": 5508,
      "سرت": 5509,
      "غیرقانونی": 5510,
      "فرمودند": 5511,
      "سفارش": 5512,
      "سکان": 5513,
      "می‌شناس": 5514,
      "ورودی": 5515,
      "دبیرکل": 5516,
      "2)": 5517,
      "زارع": 5518,
      "اشتباهات": 5519,
      "نامزدهای": 5520,
      "چگون": 5521,
      "‌فقیه": 5522,
      "اعط": 5523,
      "لاغه": 5524,
      "عذر": 5525,
      "ار،": 5526,
      "دختران": 5527,
      "اصطلاح": 5528,
      "هستم.": 5529,
      "کاظمی": 5530,
      "بستگی": 5531,
      "ابو": 5532,
      "دانشگاه،": 5533,
      "هم‌چنین": 5534,
      "فرصتی": 5535,
      "خروجی": 5536,
      "دون": 5537,
      "استکبار": 5538,
      "وصول": 5539,
      "فیلم‌هایی": 5540,
      "بانک‌ها": 5541,
      "بالاترین": 5542,
      "ter": 5543,
      "تشی": 5544,
      "نفره": 5545,
      "جاه": 5546,
      "پرسید": 5547,
      "چگونگی": 5548,
      "(یکشنبه": 5549,
      "ایای": 5550,
      "سوژ": 5551,
      "جمع‌بندی": 5552,
      "چنانچه": 5553,
      "ازای": 5554,
      "پسند": 5555,
      "خواندن": 5556,
      "آن‌قدر": 5557,
      "زحم": 5558,
      "لیک": 5559,
      "فعل": 5560,
      "امیدواری": 5561,
      "کارگزار": 5562,
      "بررسی‌های": 5563,
      "اتفاقاتی": 5564,
      "شاخص‌های": 5565,
      "به‌دنبال": 5566,
      "کمدی": 5567,
      "یکسری": 5568,
      "ماهیت": 5569,
      "فیلم‌برداری": 5570,
      "حامی": 5571,
      "است.»": 5572,
      "نامه‌های": 5573,
      "مردم‌": 5574,
      "گمان": 5575,
      "شتاب": 5576,
      "قشر": 5577,
      "مشور": 5578,
      "کلم": 5579,
      "ضوابط": 5580,
      "‌الدین": 5581,
      "‌آباد": 5582,
      "زوج": 5583,
      "عادلانه": 5584,
      "تنگ": 5585,
      "‌گری": 5586,
      "نیازی": 5587,
      "گفت.": 5588,
      "دارد؟": 5589,
      "بازیکنی": 5590,
      "میانگین": 5591,
      "مجموعه‌های": 5592,
      "الحاق": 5593,
      "حان": 5594,
      "شجاع": 5595,
      "دهمین": 5596,
      "خطا": 5597,
      "پدید": 5598,
      "بازنگری": 5599,
      "مفید": 5600,
      "اوز": 5601,
      "معرفت": 5602,
      "احیا": 5603,
      "ماری": 5604,
      "شیطان": 5605,
      "دبیرخانه": 5606,
      "الو": 5607,
      "فاض": 5608,
      "قاطع": 5609,
      "همسای": 5610,
      "اسماعیل": 5611,
      "مزی": 5612,
      "گرانی": 5613,
      "گفتن": 5614,
      "مظلوم": 5615,
      "ack": 5616,
      "فان": 5617,
      "ican": 5618,
      "وکلا": 5619,
      "مومنان": 5620,
      "حاب": 5621,
      "نشی": 5622,
      "سال،": 5623,
      "کشورهایی": 5624,
      "زای": 5625,
      "‌آف": 5626,
      "دخالت": 5627,
      "پهلوی": 5628,
      "تروریستی": 5629,
      "تنی": 5630,
      "شده‌اند،": 5631,
      "کلمه": 5632,
      "ish": 5633,
      "دانست.": 5634,
      "‌آفرینی": 5635,
      "56": 5636,
      "عنا": 5637,
      "پری": 5638,
      "دربار": 5639,
      "رسید،": 5640,
      "باران": 5641,
      "نماد": 5642,
      "صادقی": 5643,
      "عباسی": 5644,
      "بهزیستی": 5645,
      "می‌خو": 5646,
      "دیجی": 5647,
      "خواهان": 5648,
      "قام": 5649,
      "‌نا": 5650,
      "میانه": 5651,
      "آنقدر": 5652,
      "گذر": 5653,
      "سازنده": 5654,
      "تخصص": 5655,
      "حکمت": 5656,
      "حواشی": 5657,
      "اث": 5658,
      "صا": 5659,
      "موشکی": 5660,
      "گرفتار": 5661,
      "تعویض": 5662,
      "(سه‌شنبه": 5663,
      "گم": 5664,
      "رافت": 5665,
      "محله": 5666,
      "واحده": 5667,
      "آتش‌سوزی": 5668,
      "شناختی": 5669,
      "400": 5670,
      "متولد": 5671,
      "تعطیلات": 5672,
      "مبانی": 5673,
      "سیزدهمین": 5674,
      "نگارش": 5675,
      "کلاه": 5676,
      "کلانتری": 5677,
      "خانه‌ها": 5678,
      "دوستانه": 5679,
      "ئه": 5680,
      "راه‌های": 5681,
      "صلاح": 5682,
      "نایی": 5683,
      "کارآمدی": 5684,
      "سالاری": 5685,
      "محض": 5686,
      "نگاری": 5687,
      "نقض": 5688,
      "(ع)،": 5689,
      "کلاس‌های": 5690,
      "کیو": 5691,
      "می‌کند؛": 5692,
      "Amer": 5693,
      "اشی": 5694,
      "ارگان": 5695,
      "ملاقات": 5696,
      "قبیل": 5697,
      "استخ": 5698,
      "کارکرد": 5699,
      "ist": 5700,
      "اغلب": 5701,
      "استث": 5702,
      "می‌کردیم": 5703,
      "می‌آورد": 5704,
      "منچ": 5705,
      "ماهواره": 5706,
      "مدرک": 5707,
      "عیتی": 5708,
      "کلیات": 5709,
      "می‌گذرد": 5710,
      "ماموران": 5711,
      "\".": 5712,
      "گرفته‌اند.": 5713,
      "اورژانس": 5714,
      "۱۱:": 5715,
      "مادران": 5716,
      "باختگان": 5717,
      "تجمع": 5718,
      "حاد": 5719,
      "فرق": 5720,
      "دولت‌ها": 5721,
      "شخصیتی": 5722,
      "انضباطی": 5723,
      "خانی": 5724,
      "یکپار": 5725,
      "آتش‌نشانی": 5726,
      "تحریر": 5727,
      "جنین": 5728,
      "نرو": 5729,
      "مصباح": 5730,
      "۱۰:۴": 5731,
      "خوانده": 5732,
      "آژانس": 5733,
      "مهندس": 5734,
      "ژانر": 5735,
      "زائران": 5736,
      "94": 5737,
      "نظم": 5738,
      "سنجی": 5739,
      "اختصاصی": 5740,
      "بازنشستگی": 5741,
      "87": 5742,
      "دقیقا": 5743,
      "باشم": 5744,
      "راه‌حل": 5745,
      "(عج)": 5746,
      "نوشته‌شده": 5747,
      "قضاییه": 5748,
      "اتهام": 5749,
      "مزد": 5750,
      "راستی": 5751,
      "یادگیری": 5752,
      "انسان‌ها": 5753,
      "تعیین‌شده": 5754,
      "سجاد": 5755,
      "تکنولوژی": 5756,
      "لوله": 5757,
      "نمایند.": 5758,
      "بگیرد،": 5759,
      "ولا": 5760,
      "متعهد": 5761,
      "نقشی": 5762,
      "بوده،": 5763,
      "مدرس": 5764,
      "سفیر": 5765,
      "سروی": 5766,
      "پژوهشگاه": 5767,
      "with": 5768,
      "ک،": 5769,
      "روزگار": 5770,
      "رئال": 5771,
      "بلیت": 5772,
      "پهپاد": 5773,
      "86": 5774,
      "وسایل": 5775,
      "خن": 5776,
      "قانون،": 5777,
      "محمدباقر": 5778,
      "ربط": 5779,
      "فرستاد": 5780,
      "137": 5781,
      "تورن": 5782,
      "دستیابی": 5783,
      "سطوح": 5784,
      "نداده": 5785,
      "فیه": 5786,
      "شکلی": 5787,
      "رفتند": 5788,
      "کشاورز": 5789,
      "رحم": 5790,
      "مهران": 5791,
      "املاک": 5792,
      "بودم.": 5793,
      "محرومیت": 5794,
      "اکت": 5795,
      "همتی": 5796,
      "متمرکز": 5797,
      "قلبی": 5798,
      "سازان": 5799,
      "چراغ": 5800,
      "می‌کردم": 5801,
      "خانوادگی": 5802,
      "اوست": 5803,
      "اشع": 5804,
      "علمیه": 5805,
      "طلبی": 5806,
      "خلف": 5807,
      "سون": 5808,
      "کوه": 5809,
      "بود:": 5810,
      "نماید": 5811,
      "معیارهای": 5812,
      "زحمات": 5813,
      "آث": 5814,
      "آش": 5815,
      "می‌توانید": 5816,
      "طرحی": 5817,
      "برانگی": 5818,
      "محاسبه": 5819,
      "سیکلت": 5820,
      "کشته": 5821,
      "توضیحات": 5822,
      "اردیبهشت‌ماه": 5823,
      "خلاقی": 5824,
      "اینست": 5825,
      "فتنه": 5826,
      "قیر": 5827,
      "دولت‌های": 5828,
      "تربیتی": 5829,
      "ثانی": 5830,
      "کنم،": 5831,
      "تعویق": 5832,
      "بزنیم": 5833,
      "نفتی": 5834,
      "دیدیم": 5835,
      "منبع": 5836,
      "اجل": 5837,
      "طیف": 5838,
      "قاره": 5839,
      "سربازی": 5840,
      "سلامتی": 5841,
      "پیش‌بینی‌شده": 5842,
      "طباطب": 5843,
      "id": 5844,
      "ماندن": 5845,
      "کاروان": 5846,
      "اصحاب": 5847,
      "بلی": 5848,
      "عقی": 5849,
      "منصور": 5850,
      "پیاده": 5851,
      "مقصد": 5852,
      "اخره": 5853,
      "خطوط": 5854,
      "مسکونی": 5855,
      "ماست": 5856,
      "قراری": 5857,
      "علیزاده": 5858,
      "فرمودند:": 5859,
      "دارنده": 5860,
      "ارزشی": 5861,
      "تالاب": 5862,
      "حائ": 5863,
      "نمی‌کند.": 5864,
      "درآمدی": 5865,
      "ریاضی": 5866,
      "اولا": 5867,
      "شناور": 5868,
      "تعلیم": 5869,
      "مصدومیت": 5870,
      "American": 5871,
      "اتوری": 5872,
      "رای‌گیری": 5873,
      "نویسند": 5874,
      "ملی‌پوش": 5875,
      "چپ": 5876,
      "درخش": 5877,
      "ریش": 5878,
      "ریان": 5879,
      "نشان‌دهنده": 5880,
      "پاداش": 5881,
      "مصر": 5882,
      "نظریه": 5883,
      "برایش": 5884,
      "مصدا": 5885,
      "نهایتا": 5886,
      "تیراندازی": 5887,
      "امضای": 5888,
      "گلستان": 5889,
      "مهرماه": 5890,
      "ساح": 5891,
      "مشت": 5892,
      "مریم": 5893,
      "دادرسی": 5894,
      "ترجیح": 5895,
      "بالاخره": 5896,
      "احراز": 5897,
      "می‌دهد:": 5898,
      "خرمشهر": 5899,
      "4.": 5900,
      "ak": 5901,
      "«در": 5902,
      "نود": 5903,
      "پلاک": 5904,
      "اخترا": 5905,
      "2020": 5906,
      "طلای": 5907,
      "الن": 5908,
      "قدرتمند": 5909,
      "۱۱:۲": 5910,
      "ششمین": 5911,
      "**": 5912,
      "com": 5913,
      "کنند؛": 5914,
      "بیانات": 5915,
      "صیاد": 5916,
      "تبعی": 5917,
      "بدهیم.": 5918,
      "زینب": 5919,
      "رقیب": 5920,
      "تماشا": 5921,
      "۱۰:۲": 5922,
      "۱۱:۳": 5923,
      "ناراحت": 5924,
      "ذری": 5925,
      "عناصر": 5926,
      "انحص": 5927,
      "شرف": 5928,
      "کانال": 5929,
      "موضوعاتی": 5930,
      "جدید،": 5931,
      "عنایت": 5932,
      "تاجیک": 5933,
      "ناحیه": 5934,
      "تقاضا": 5935,
      "سرخپوشان": 5936,
      "ستری": 5937,
      "مواضع": 5938,
      "تماشای": 5939,
      "گفت‌وگوی": 5940,
      "غفلت": 5941,
      "ld": 5942,
      "گفتیم": 5943,
      "هموط": 5944,
      "بدهند.": 5945,
      "بالینی": 5946,
      "قضیه": 5947,
      "حیث": 5948,
      "استخدام": 5949,
      "59": 5950,
      "خسته": 5951,
      "یمن": 5952,
      "تفکیک": 5953,
      "می‌خورد": 5954,
      "انها": 5955,
      "حمایت‌های": 5956,
      "آفت": 5957,
      "برد.": 5958,
      "اینطور": 5959,
      "به‌خاطر": 5960,
      "کرامت": 5961,
      "اظهارنظر": 5962,
      "تختی": 5963,
      "راسی": 5964,
      "ترخیص": 5965,
      "ملل": 5966,
      "۱۰:۵": 5967,
      "--------": 5968,
      "نون": 5969,
      "تصدی": 5970,
      "موتورسیکلت": 5971,
      "تجربیات": 5972,
      "برون‌": 5973,
      "لاری": 5974,
      "بهم": 5975,
      "برنز": 5976,
      "1398": 5977,
      "غلی": 5978,
      "ن‌": 5979,
      "می‌آور": 5980,
      "شورای‌عالی": 5981,
      "رمز": 5982,
      "سرویس": 5983,
      "پروی": 5984,
      "کتابی": 5985,
      "فیروز": 5986,
      "مرتک": 5987,
      "بخش‌هایی": 5988,
      "بازیکنانی": 5989,
      "گذاشت.": 5990,
      "راوی": 5991,
      "ذی‌": 5992,
      "خز": 5993,
      "ربی": 5994,
      "همگی": 5995,
      "آرزو": 5996,
      "بیماری‌های": 5997,
      "غلبه": 5998,
      "سفید": 5999,
      "زد.": 6000,
      "فرض": 6001,
      "سجادی": 6002,
      "آهن": 6003,
      "زنگ": 6004,
      "امان": 6005,
      "ادارات": 6006,
      "نیفت": 6007,
      "برگزیده": 6008,
      "هوی": 6009,
      "ه‌گذاری": 6010,
      "کوپ": 6011,
      "تبادل": 6012,
      "سردفت": 6013,
      "فرزندآوری": 6014,
      "آوردن": 6015,
      "صهیونیست‌ها": 6016,
      "انا": 6017,
      "کودکی": 6018,
      "‌گرایی": 6019,
      "داغ": 6020,
      "هین": 6021,
      "افزایی": 6022,
      "کتاب،": 6023,
      "مغایر": 6024,
      "اثری": 6025,
      "پایش": 6026,
      "بدانیم": 6027,
      "مهمان": 6028,
      "حرف‌های": 6029,
      "‌نشده‌است": 6030,
      "نهادها": 6031,
      "عذرخواهی": 6032,
      "شلیک": 6033,
      "فقه": 6034,
      "فرسود": 6035,
      "فراگیر": 6036,
      "دنیا،": 6037,
      "خوش‌": 6038,
      "بسکت": 6039,
      "ill": 6040,
      "نرم‌افزار": 6041,
      "حساسیت": 6042,
      "آثاری": 6043,
      "خانه‌ای": 6044,
      "معضل": 6045,
      "شج": 6046,
      "نواز": 6047,
      "فروردین‌ماه": 6048,
      "بگوید": 6049,
      "روسیه،": 6050,
      "بسکتبال": 6051,
      "خبرگان": 6052,
      "بنی‌": 6053,
      "توانستند": 6054,
      "آموزه‌های": 6055,
      "محدوده": 6056,
      "شیرازی": 6057,
      "علی‌اکبر": 6058,
      "ساری": 6059,
      "مقوله": 6060,
      "معتقدند": 6061,
      "ارکان": 6062,
      "نجف": 6063,
      "جان‌": 6064,
      "۱۲:": 6065,
      "تیرماه": 6066,
      "طالب": 6067,
      "ارج": 6068,
      "تراز": 6069,
      "یزدی": 6070,
      "شدیم.": 6071,
      "بهای": 6072,
      "گفته‌بود": 6073,
      "گویا": 6074,
      "ورزشکار": 6075,
      "عارف": 6076,
      "وشی": 6077,
      "اکبری": 6078,
      "گفت‌وگویی": 6079,
      "جانبازان": 6080,
      "له‌ای": 6081,
      "تحولی": 6082,
      "۱۱:۰": 6083,
      "شیعیان": 6084,
      "آئین": 6085,
      "همدلی": 6086,
      "ارتفاع": 6087,
      "لذت": 6088,
      "خرج": 6089,
      "قاسمی": 6090,
      "بغ": 6091,
      "سمی": 6092,
      "ملاک": 6093,
      "کینگ": 6094,
      "رسیدیم": 6095,
      "آسان": 6096,
      "برشمرد": 6097,
      "بلوچستان": 6098,
      "گنج": 6099,
      "درگاه": 6100,
      "رالی": 6101,
      "ریخت": 6102,
      "چشمه": 6103,
      "اصلاح‌طلبان": 6104,
      "گفتنی": 6105,
      "چندی": 6106,
      "می‌گوییم": 6107,
      "سلبری": 6108,
      "متقاضیان": 6109,
      "یوسف": 6110,
      "record": 6111,
      "جاعی": 6112,
      "بیت‌ال": 6113,
      "تبدیل‌شده": 6114,
      "اذعان": 6115,
      "ab": 6116,
      "تمهی": 6117,
      "سپری": 6118,
      "ستانها": 6119,
      "ثروت": 6120,
      "نقر": 6121,
      "حق‌ال": 6122,
      "فوتبال،": 6123,
      "می‌باشد.": 6124,
      "نادر": 6125,
      "انگار": 6126,
      "الحاقی": 6127,
      "بهره‌گیری": 6128,
      "ایثارگران": 6129,
      "عاتی": 6130,
      "ده‌ها": 6131,
      "محمو": 6132,
      "اختلال": 6133,
      "جویان": 6134,
      "تالیف": 6135,
      "جاس": 6136,
      "150": 6137,
      "۱۰:۳": 6138,
      "پتروشیمی": 6139,
      "آمیز": 6140,
      "کاظم": 6141,
      "تهاج": 6142,
      "متفاوتی": 6143,
      "دفاعی،": 6144,
      "حیوان": 6145,
      "بنیادین": 6146,
      "می‌برد.": 6147,
      "درآمدهای": 6148,
      "درکاران": 6149,
      "ابتی": 6150,
      "کارگران": 6151,
      "ه‌ایم،": 6152,
      "کمپ": 6153,
      "کمک‌های": 6154,
      "خوردن": 6155,
      "فرودگاه": 6156,
      "fir": 6157,
      "شکل‌گرفته": 6158,
      "خیر،": 6159,
      "جار": 6160,
      "رینی": 6161,
      "تولد": 6162,
      "مساج": 6163,
      "انه،": 6164,
      "گذاران": 6165,
      "دوره‌ای": 6166,
      "کلید": 6167,
      "آرژان": 6168,
      "افتاد.": 6169,
      "سنگینی": 6170,
      "تغذ": 6171,
      "حبس": 6172,
      "نخواهیم": 6173,
      "ازبک": 6174,
      "افتی": 6175,
      "اند،": 6176,
      "تقابل": 6177,
      "طالبان": 6178,
      "وینی": 6179,
      "ابلا": 6180,
      "‌انداز": 6181,
      "می‌توانستیم": 6182,
      "منتظری": 6183,
      "بشود": 6184,
      "شاخ": 6185,
      "می‌زند": 6186,
      "آنها،": 6187,
      "اماکن": 6188,
      "نقش‌آفرینی": 6189,
      "عبدالله": 6190,
      "بوکس": 6191,
      "رحیم": 6192,
      "fe": 6193,
      "کامی": 6194,
      "برند": 6195,
      "برقراری": 6196,
      "راهنمایی": 6197,
      "84": 6198,
      "فاطمی": 6199,
      "دیجیتال": 6200,
      "رج": 6201,
      "کران": 6202,
      "گرفتم": 6203,
      "شوم": 6204,
      "توضیحاتی": 6205,
      "تابستان": 6206,
      "می‌افتد": 6207,
      "ابلاغی": 6208,
      "پلم": 6209,
      "به‌ترتیب": 6210,
      "کلیدی": 6211,
      "جلد": 6212,
      "wor": 6213,
      "دکت": 6214,
      "ناه": 6215,
      "املی": 6216,
      "می‌گیرد،": 6217,
      "می‌شویم": 6218,
      "بانوی": 6219,
      "نیستند.": 6220,
      "ماع": 6221,
      "پیاد": 6222,
      "قطعه": 6223,
      "چینی": 6224,
      "کمیسیون‌های": 6225,
      "بیای": 6226,
      "سوار": 6227,
      "راهبرد": 6228,
      "مقدس،": 6229,
      "نزدیکی": 6230,
      "ich": 6231,
      "خلاصه": 6232,
      "our": 6233,
      "پیچید": 6234,
      "بصیر": 6235,
      "‌طلب": 6236,
      "خدایی": 6237,
      "۱۰:۰": 6238,
      "تث": 6239,
      "نشود،": 6240,
      "نکاتی": 6241,
      "پیگیر": 6242,
      "گان،": 6243,
      "شهر،": 6244,
      "سریال‌ها": 6245,
      "پیشرفته": 6246,
      "بازرگانی": 6247,
      "per": 6248,
      "کارش": 6249,
      "خواهش": 6250,
      "امامت": 6251,
      "بندر": 6252,
      "فس": 6253,
      "خودداری": 6254,
      "خیره": 6255,
      "دلال": 6256,
      "صاحبان": 6257,
      "تلفن": 6258,
      "first": 6259,
      "محکم": 6260,
      "معت": 6261,
      "‌شده‌بود.": 6262,
      "شوخی": 6263,
      "قبولی": 6264,
      "اولویت‌های": 6265,
      "مرتکب": 6266,
      "استخدا": 6267,
      "اریان": 6268,
      "تولید،": 6269,
      "۱۱:۵": 6270,
      "(چهارشنبه": 6271,
      "66": 6272,
      "لسی": 6273,
      "فرمای": 6274,
      "اوش": 6275,
      "عرب": 6276,
      "حماسه": 6277,
      "آزمایشگاه": 6278,
      "بافت": 6279,
      "رساند.": 6280,
      "خیلی‌ها": 6281,
      "تنهایی": 6282,
      "برویم": 6283,
      "زنجیره": 6284,
      "نادیده": 6285,
      "سقط": 6286,
      "سلمان": 6287,
      "صریح": 6288,
      "می‌گیری": 6289,
      "منش": 6290,
      "متنوع": 6291,
      "بختی": 6292,
      "‌شده‌بود،": 6293,
      "ag": 6294,
      "تکنی": 6295,
      "فوتبالی": 6296,
      "فناور": 6297,
      "oun": 6298,
      "مظلو": 6299,
      "جلیلی": 6300,
      "مکات": 6301,
      "علیرغم": 6302,
      "band": 6303,
      "os": 6304,
      "جاست": 6305,
      "داشته‌اند": 6306,
      "۱۴:": 6307,
      "بهره‌مند": 6308,
      "کرمانشاه": 6309,
      "علوم،": 6310,
      "‌ک": 6311,
      "پاسخگو": 6312,
      "کنید،": 6313,
      "تزریق‌شده": 6314,
      "رحی": 6315,
      "گواهی": 6316,
      "مجموعه‌ای": 6317,
      "عق": 6318,
      "ماز": 6319,
      "مخصوصا": 6320,
      "خیز": 6321,
      "ایستادگی": 6322,
      "حائز": 6323,
      "3)": 6324,
      "ck": 6325,
      "ذات": 6326,
      "فرمایش": 6327,
      "خیال": 6328,
      "ظاهرا": 6329,
      "توجیه": 6330,
      "تبعیض": 6331,
      "تای": 6332,
      "مختلف،": 6333,
      "صوتی": 6334,
      "استراتژیک": 6335,
      "هموطنان": 6336,
      "41": 6337,
      "ep": 6338,
      "ایز": 6339,
      "رسنجی": 6340,
      "پذیرفته": 6341,
      "۱۱:۴": 6342,
      "خواننده": 6343,
      "فقدان": 6344,
      "بزرگسالان": 6345,
      "قاع": 6346,
      "ه‌برداری": 6347,
      "اقلام": 6348,
      "واقعه": 6349,
      "پوشی": 6350,
      "مورخ": 6351,
      "/؛": 6352,
      "توهین": 6353,
      "رایزنی": 6354,
      "خلاق": 6355,
      "تعلق": 6356,
      "کرده‌ایم.": 6357,
      "بازه": 6358,
      "برادران": 6359,
      "عقلانی": 6360,
      "۰۹:۴": 6361,
      "شادی": 6362,
      "ه‌کننده": 6363,
      "دادم": 6364,
      "قیمت‌ها": 6365,
      "مشهور": 6366,
      "روایات": 6367,
      "his": 6368,
      "یحی": 6369,
      "‌آور": 6370,
      "پیچیده": 6371,
      "آحاد": 6372,
      "کنفرانس": 6373,
      "پیگیری‌های": 6374,
      "شناخته‌شده": 6375,
      "محورهای": 6376,
      "استرالی": 6377,
      "ه‌اید": 6378,
      "بودیم،": 6379,
      "جوامع": 6380,
      "مصادی": 6381,
      "وقتی‌که": 6382,
      "بسم": 6383,
      "سپرد": 6384,
      "کنفدراسیون": 6385,
      "اکثری": 6386,
      "نقط": 6387,
      "تشدید": 6388,
      "بگویند": 6389,
      "ابوالفضل": 6390,
      "نوسازی": 6391,
      "همین‌": 6392,
      "ساختاری": 6393,
      "صندوق‌های": 6394,
      "طباطبایی": 6395,
      "تثبیت": 6396,
      "but": 6397,
      "ثیر": 6398,
      "نشدن": 6399,
      "استادی": 6400,
      "انتصاب": 6401,
      "نظرسنجی": 6402,
      "مکرر": 6403,
      "‌بخش": 6404,
      "سطحی": 6405,
      "ation": 6406,
      "نحو": 6407,
      "۰۹:۵": 6408,
      "داروهای": 6409,
      "حمیدرضا": 6410,
      "تاسف": 6411,
      "توحی": 6412,
      "اوراق": 6413,
      "کیمی": 6414,
      "پرستی": 6415,
      "کاپی": 6416,
      "نقل‌و": 6417,
      "خاموش": 6418,
      "هجو": 6419,
      "می‌روند": 6420,
      "نشاط": 6421,
      "ندارند،": 6422,
      "وزیران": 6423,
      "ian": 6424,
      "قزاقستان": 6425,
      "البرز": 6426,
      "یادداشتی": 6427,
      "فناوری‌های": 6428,
      "صاحب‌": 6429,
      "هکت": 6430,
      "منشا": 6431,
      "مطلع": 6432,
      "استخدامی": 6433,
      "عاب": 6434,
      "کشان": 6435,
      "مطبو": 6436,
      "پرداختن": 6437,
      "می‌فرماید:": 6438,
      "1،": 6439,
      "ie": 6440,
      "دوری": 6441,
      "خیصی": 6442,
      "بسیجی": 6443,
      "نسب": 6444,
      "نمکی": 6445,
      "این‌بند": 6446,
      "بیمارستانها": 6447,
      "تبلیغاتی": 6448,
      "همه‌جانبه": 6449,
      "کردم،": 6450,
      "راننده": 6451,
      "‌شده‌تا": 6452,
      "برسیم.": 6453,
      "خنثی": 6454,
      "مصداق": 6455,
      "بدر": 6456,
      "گرایش": 6457,
      "حملات": 6458,
      "مراقبت‌های": 6459,
      "مضاع": 6460,
      "زاوی": 6461,
      "اسیر": 6462,
      "تعجب": 6463,
      "صحت": 6464,
      "تشخیصی": 6465,
      "ترکیبی": 6466,
      "‌نشده‌و": 6467,
      "د؛": 6468,
      "گلی": 6469,
      "ویژه‌": 6470,
      "توانسته‌اند": 6471,
      "تصویربرداری": 6472,
      "حکیم": 6473,
      "بول": 6474,
      "متا": 6475,
      "کانی": 6476,
      "توط": 6477,
      "باشم.": 6478,
      "تدابیر": 6479,
      "معضلات": 6480,
      "43": 6481,
      "گند": 6482,
      "محمدمهدی": 6483,
      "مدرن": 6484,
      "آذرماه": 6485,
      "پهلو": 6486,
      "سربازان": 6487,
      "باند": 6488,
      "ه‌گیری": 6489,
      "پیغم": 6490,
      "ساعات": 6491,
      "شدم.": 6492,
      "کیشن": 6493,
      "به‌نظر": 6494,
      "سن‌": 6495,
      "گریه": 6496,
      "اجرائی": 6497,
      "پیشنهادات": 6498,
      "ماموریت‌های": 6499,
      "جزیره": 6500,
      "شکن": 6501,
      "توکیو": 6502,
      "برایشان": 6503,
      "رام": 6504,
      "هالی": 6505,
      "هستند؛": 6506,
      "سرانه": 6507,
      "آسمانی": 6508,
      "کابی": 6509,
      "هنرهای": 6510,
      "نداشتن": 6511,
      "استعلام": 6512,
      "بابایی": 6513,
      "Ch": 6514,
      "سازمانی": 6515,
      "پاسدار": 6516,
      "پویش": 6517,
      "۲۰۲۲": 6518,
      "ذب": 6519,
      "عف": 6520,
      "کاد": 6521,
      "ریسک": 6522,
      "هزاران": 6523,
      "می‌توانم": 6524,
      "صنعت،": 6525,
      "می‌کردند،": 6526,
      "تغییراتی": 6527,
      "قاضی‌زاده": 6528,
      "اکثریت": 6529,
      "شغلی": 6530,
      "می‎": 6531,
      "ابراهی": 6532,
      "بوده‌اند": 6533,
      "گزارش‌های": 6534,
      "جدیت": 6535,
      "حسینی،": 6536,
      "جمعیتی": 6537,
      "cond": 6538,
      "ساو": 6539,
      "به‌جای": 6540,
      "مثابه": 6541,
      "کرده‌بودند": 6542,
      "متخصصان": 6543,
      "همگان": 6544,
      "بی‌توجهی": 6545,
      "قال": 6546,
      "مونی": 6547,
      "خیل": 6548,
      "اعتراف": 6549,
      "تقوی": 6550,
      "کتاب‌ها": 6551,
      "قدری": 6552,
      "آتش‌نشان": 6553,
      "خاتمه": 6554,
      "تهرانی": 6555,
      "ژو": 6556,
      "ایق": 6557,
      "ارم": 6558,
      "دست‌ان": 6559,
      "آزادسازی": 6560,
      "قابل‌قبول": 6561,
      "فلان": 6562,
      "دشت": 6563,
      "لاز": 6564,
      "نخواهند": 6565,
      "محمدعلی": 6566,
      "دریای": 6567,
      "their": 6568,
      "تجلیل": 6569,
      "تاثیرگذاری": 6570,
      "شایست": 6571,
      "جعلی": 6572,
      "قامت": 6573,
      "‌گو": 6574,
      "بیایند": 6575,
      "مندرج": 6576,
      "۱۲:۰": 6577,
      "بیانیه‌ای": 6578,
      "2،": 6579,
      "اقبال": 6580,
      "انسجام": 6581,
      "گیرد،": 6582,
      "چهارمین": 6583,
      "نداشتند": 6584,
      "عمرانی": 6585,
      "مقدماتی": 6586,
      "الرحمن": 6587,
      "110": 6588,
      "نرسیده": 6589,
      "ناقض": 6590,
      "نهجالب": 6591,
      "بدهم": 6592,
      "امکان‌پذیر": 6593,
      "متنع": 6594,
      "آماده‌سازی": 6595,
      "هیچ‌کس": 6596,
      "یحیی": 6597,
      "گیاه": 6598,
      "تقوا": 6599,
      "ابتلای": 6600,
      "خریداری": 6601,
      "نابودی": 6602,
      "کاندیداهای": 6603,
      "نکند": 6604,
      "استمر": 6605,
      "کاربردی": 6606,
      "بیننده": 6607,
      "۰۹:۳": 6608,
      "ترجیحی": 6609,
      "تاکتیکی": 6610,
      "وات": 6611,
      "ایمن": 6612,
      "ه‌ساز": 6613,
      "مطهری": 6614,
      "فرصت‌های": 6615,
      "مسافران": 6616,
      "گرمی": 6617,
      "اندن": 6618,
      "غربال": 6619,
      "ارومیه": 6620,
      "جما": 6621,
      "عده": 6622,
      "ممتنع": 6623,
      "انبیا": 6624,
      "سی‌": 6625,
      "روال": 6626,
      "بلای": 6627,
      "مصنوعی": 6628,
      "all": 6629,
      "حبیب": 6630,
      "سانس": 6631,
      "محق": 6632,
      "عزاداری": 6633,
      "محموله": 6634,
      "«من": 6635,
      "پتان": 6636,
      "علوی": 6637,
      "اصلی‌ترین": 6638,
      "قرآن،": 6639,
      "شایستگی": 6640,
      "منحصر": 6641,
      "امی‌": 6642,
      "دات": 6643,
      "کنگره": 6644,
      "شنیده": 6645,
      "معادن": 6646,
      "اشاره‌شده": 6647,
      "آیینی": 6648,
      "هرمز": 6649,
      "شیط": 6650,
      "تصرف": 6651,
      "حسب": 6652,
      "وحشت": 6653,
      "غلامرضا": 6654,
      "نروژ": 6655,
      "استمرار": 6656,
      "رانت": 6657,
      "فاصل": 6658,
      "ل،": 6659,
      "‌اند.": 6660,
      "کاراته": 6661,
      "عیسی": 6662,
      "شرعی": 6663,
      "‌آمیز": 6664,
      "پشتوانه": 6665,
      "رفتارهای": 6666,
      "سلطه": 6667,
      "عزم": 6668,
      "عناوین": 6669,
      "مصادیق": 6670,
      "هالیو": 6671,
      "دلیلی": 6672,
      "هدیه": 6673,
      "موثری": 6674,
      "پردیس": 6675,
      "افغانستانی": 6676,
      "توقع": 6677,
      "شجاعت": 6678,
      "ضه": 6679,
      "آنجایی": 6680,
      "فی،": 6681,
      "ایلی": 6682,
      "میم": 6683,
      "مصدوم": 6684,
      "دریافتی": 6685,
      "انتقادات": 6686,
      "ترامپ": 6687,
      "تمع": 6688,
      "‌گیران": 6689,
      "انش": 6690,
      "بالاد": 6691,
      "سپه": 6692,
      "سپاسی": 6693,
      "شنید": 6694,
      "بایستی": 6695,
      "استراتژی": 6696,
      "600": 6697,
      "میوه": 6698,
      "که:": 6699,
      "نقص": 6700,
      "سلول": 6701,
      "نکته‌ای": 6702,
      "خورشید": 6703,
      "الهام": 6704,
      "خوشحالم": 6705,
      "udi": 6706,
      "حرفی": 6707,
      "رنگی": 6708,
      "رجایی": 6709,
      "صب": 6710,
      "قله": 6711,
      "نبودن": 6712,
      "کبیر": 6713,
      "مواق": 6714,
      "مواج": 6715,
      "اندک": 6716,
      "می‌شود؟": 6717,
      "گردن": 6718,
      "آموخت": 6719,
      "بدل": 6720,
      "مراقب": 6721,
      "تخفیف": 6722,
      "می‌گیرند.": 6723,
      "متحده": 6724,
      "بارز": 6725,
      "....": 6726,
      "یافتن": 6727,
      "بیست‌": 6728,
      "second": 6729,
      "شبی": 6730,
      "هل": 6731,
      "زیان": 6732,
      "تحریف": 6733,
      "آموزش‌های": 6734,
      "استقلال،": 6735,
      "۱۳:": 6736,
      "مستندات": 6737,
      "موقعیت‌های": 6738,
      "مساجد": 6739,
      "گمرک": 6740,
      "پرداختی": 6741,
      "‌زاده،": 6742,
      "خراج": 6743,
      "76": 6744,
      "ببینید": 6745,
      "تقی": 6746,
      "شجاعی": 6747,
      "ضمان": 6748,
      "الع": 6749,
      "علمی،": 6750,
      "والمسلمین": 6751,
      "اخیر،": 6752,
      "سیره": 6753,
      "انیم.": 6754,
      "مهرداد": 6755,
      "ht": 6756,
      "پاست": 6757,
      "نیام": 6758,
      "پوست": 6759,
      "زیست‌محیطی": 6760,
      "برمی‌": 6761,
      "ه‌داری": 6762,
      "دوم،": 6763,
      "او،": 6764,
      "کادرفنی": 6765,
      "نمی‌توانم": 6766,
      "علاقه‌مند": 6767,
      "‌ناپذیر": 6768,
      "روانه": 6769,
      "لها": 6770,
      "حال،": 6771,
      "شعبه": 6772,
      "رویدادهای": 6773,
      "تدارک": 6774,
      "خالص": 6775,
      "نانی": 6776,
      "‌اللهی": 6777,
      "شنوی": 6778,
      "برنامه‌هایی": 6779,
      "امتیازات": 6780,
      "همه‌گیری": 6781,
      "ذهنی": 6782,
      "خودی": 6783,
      "پررنگ": 6784,
      "بدنی": 6785,
      "بسم‌الله": 6786,
      "پیغمبر": 6787,
      "بام": 6788,
      "جرائ": 6789,
      "ذوال": 6790,
      "بورسی": 6791,
      "ard": 6792,
      "اشعار": 6793,
      "her": 6794,
      "‌ها»": 6795,
      "نادرست": 6796,
      "اقامت": 6797,
      "اشتبا": 6798,
      "1400،": 6799,
      "حکایت": 6800,
      "پیوسته": 6801,
      "کمتری": 6802,
      "یمی": 6803,
      "حضورش": 6804,
      "ذیب": 6805,
      "۰۹:۲": 6806,
      "معیار": 6807,
      "نگرش": 6808,
      "‌گذار": 6809,
      "نمایند": 6810,
      "غربالگری": 6811,
      "4200": 6812,
      "می‌خوانی": 6813,
      "کوچه": 6814,
      "منتهی": 6815,
      "بزرگ‌ترین": 6816,
      "اسلام،": 6817,
      "جنسی": 6818,
      "سعادت": 6819,
      "(1)": 6820,
      "اصولی": 6821,
      "زدند": 6822,
      "علائ": 6823,
      "موافق،": 6824,
      "مشورت": 6825,
      "قاعده": 6826,
      "سوز": 6827,
      "ویچ": 6828,
      "دادی": 6829,
      "همینطور": 6830,
      "دائمی": 6831,
      "سعود": 6832,
      "همهی": 6833,
      "من،": 6834,
      "مراد": 6835,
      "مختص": 6836,
      "حکومتی": 6837,
      "پیشکسوتان": 6838,
      "می‌گذارد": 6839,
      "ملی‌پوشان": 6840,
      "شهاب": 6841,
      "ایرادات": 6842,
      "وجوه": 6843,
      "دلسوز": 6844,
      "تشک": 6845,
      "ذخیره": 6846,
      "مجامع": 6847,
      "مجتمع": 6848,
      "that": 6849,
      "پیش‌رو": 6850,
      "ظرفیت‌ها": 6851,
      "قرنطی": 6852,
      "کرده‌ام": 6853,
      "کیفری": 6854,
      "مرادی": 6855,
      "ه‌شده‌و": 6856,
      "زاب": 6857,
      "نائ": 6858,
      "غیرقابل": 6859,
      "تصمیمی": 6860,
      "خدماتی": 6861,
      "هیچ‌گاه": 6862,
      "عنصر": 6863,
      "عاط": 6864,
      "۱۴:۳": 6865,
      "اعتباری": 6866,
      "تمام‌شده": 6867,
      "دستورکار": 6868,
      "سریع‌تر": 6869,
      "49": 6870,
      "پایداری": 6871,
      "هیئت‌های": 6872,
      "رمضانی": 6873,
      "رسول‌الله": 6874,
      "تشکل‌های": 6875,
      "پتانسیل": 6876,
      "نباشد،": 6877,
      "میکرون": 6878,
      "استخراج": 6879,
      "گرفته‌اند": 6880,
      "تولیدکننده": 6881,
      "شاغل": 6882,
      "گروه‌ها": 6883,
      "امتحانات": 6884,
      "وده": 6885,
      "بودم،": 6886,
      "اجتماع": 6887,
      "انتقالات": 6888,
      "مبتلایان،": 6889,
      "فارغ‌ال": 6890,
      "کاپیتان": 6891,
      "خراب": 6892,
      "گذران": 6893,
      "امیدی": 6894,
      "نابار": 6895,
      "مسیری": 6896,
      "انگلیس،": 6897,
      "رساندن": 6898,
      "آرمان‌های": 6899,
      "تغذیه": 6900,
      "AR": 6901,
      "ive": 6902,
      "pop": 6903,
      "درام": 6904,
      "دستا": 6905,
      "دارید": 6906,
      "آمد،": 6907,
      "گذاشتن": 6908,
      "ظاهری": 6909,
      "قریب": 6910,
      "می‌پردازد.": 6911,
      "می‌کنید": 6912,
      "جناح": 6913,
      "pe": 6914,
      "ابیت": 6915,
      "نفی": 6916,
      "اتباع": 6917,
      "منه": 6918,
      "وزرا": 6919,
      "بخور": 6920,
      "قطار": 6921,
      "بزرگداشت": 6922,
      "تسلیم": 6923,
      "غیرمجاز": 6924,
      "مخاطبین": 6925,
      "اتحاد": 6926,
      "میثم": 6927,
      "اعطای": 6928,
      "می‌خوانیم": 6929,
      "(دوشنبه": 6930,
      "نداری": 6931,
      "بود؟": 6932,
      "دستگیر": 6933,
      "مقداری": 6934,
      "تبعات": 6935,
      "استفاد": 6936,
      "one": 6937,
      "۱۲:۵": 6938,
      "کانون‌های": 6939,
      "ne": 6940,
      "بنگاه": 6941,
      "عاق": 6942,
      "کنیم؛": 6943,
      "مدت‌ها": 6944,
      "بنزین": 6945,
      "نیروها": 6946,
      "دعای": 6947,
      "رسانده": 6948,
      "زنیت": 6949,
      "اینترنتی": 6950,
      "تعرفه": 6951,
      "up": 6952,
      "بامداد": 6953,
      "نبی": 6954,
      "چو": 6955,
      "کاربرد": 6956,
      "خاکی": 6957,
      "احزاب": 6958,
      "نمی‌کنند": 6959,
      "سازمان‌ها": 6960,
      "بخشنامه": 6961,
      "جایگاهی": 6962,
      "رییس‌": 6963,
      "عرفان": 6964,
      "89": 6965,
      "بون": 6966,
      "برسان": 6967,
      "استراحت": 6968,
      "به‌گونه‌ای": 6969,
      "لوبی": 6970,
      "رفتم": 6971,
      "نوشتن": 6972,
      "نتوانستند": 6973,
      "خلاقیت": 6974,
      "udio": 6975,
      "جرا": 6976,
      "سگ": 6977,
      "غام": 6978,
      "مشخصی": 6979,
      "بحرانی": 6980,
      "محتوایی": 6981,
      "ق،": 6982,
      "کردید": 6983,
      "هرکدام": 6984,
      "نامزده": 6985,
      "اندیشمندان": 6986,
      "کابینه": 6987,
      "ove": 6988,
      "مشتری": 6989,
      "وران": 6990,
      "ایتد": 6991,
      "سخت‌تر": 6992,
      "جنابعالی": 6993,
      "پرتغال": 6994,
      "سحر": 6995,
      "ارک": 6996,
      "گاه‌ها": 6997,
      "سالهای": 6998,
      "لوازم": 6999,
      "نقلیه": 7000,
      "پنجمین": 7001,
      "جذابیت": 7002,
      "فرانسوی": 7003,
      "جمل": 7004,
      "‌گر": 7005,
      "ولان": 7006,
      "طرح‌ها": 7007,
      "علل": 7008,
      "گلایه": 7009,
      "حجازی": 7010,
      "فاضل": 7011,
      "امثال": 7012,
      "توقی": 7013,
      "تشکیلات": 7014,
      "عراق،": 7015,
      "آزار": 7016,
      "کسری": 7017,
      "نیستیم": 7018,
      "خشونت": 7019,
      "پزشکی،": 7020,
      "خورشیدی": 7021,
      "پارلمانی": 7022,
      "نمونه‌های": 7023,
      "usic": 7024,
      "تورنمنت": 7025,
      "بالادستی": 7026,
      "سنو": 7027,
      "می‌یابد.": 7028,
      "کردستان": 7029,
      "اصیل": 7030,
      "نیستم": 7031,
      "هوشی": 7032,
      "کسب‌و": 7033,
      "جلوه": 7034,
      "حزب‌الله": 7035,
      "برگزید": 7036,
      "۳۱": 7037,
      "ه‌ای،": 7038,
      "studio": 7039,
      "بیمارستان‌ها": 7040,
      "مرتبه": 7041,
      "اختراع": 7042,
      "جاب": 7043,
      "اقوام": 7044,
      "مهاجر": 7045,
      "سوپر": 7046,
      "مثبتی": 7047,
      "دشواری": 7048,
      "تفاهم‌نامه": 7049,
      ".000.000": 7050,
      "انحصار": 7051,
      "ربیعی": 7052,
      "فخری": 7053,
      "می‌گویم.": 7054,
      "۱۲:۲": 7055,
      "۱۲:۴": 7056,
      "۰۹:": 7057,
      "نقره": 7058,
      "فاج": 7059,
      "ایالات": 7060,
      "استوار": 7061,
      "می‌یابد": 7062,
      "سرطان": 7063,
      "به‌سمت": 7064,
      "۱۴:۲": 7065,
      "افزون": 7066,
      "برابری": 7067,
      "باشگاهی": 7068,
      "تجاوز": 7069,
      "مقدمه": 7070,
      "بیفتد": 7071,
      "5.": 7072,
      "صوت": 7073,
      "صراحت": 7074,
      "پارلمان": 7075,
      "پارالمپیک": 7076,
      "جشنواره‌های": 7077,
      "پیش‌برد": 7078,
      "سلیمانی،": 7079,
      "استانداردهای": 7080,
      "دست‌اندرکاران": 7081,
      "ain": 7082,
      "ظال": 7083,
      "مجه": 7084,
      "ومه": 7085,
      "تاکسی": 7086,
      "اشراف": 7087,
      "مختار": 7088,
      "گرفته،": 7089,
      "نتیج": 7090,
      "قوای": 7091,
      "هزینه‌ها": 7092,
      "اختلافات": 7093,
      "سفارت": 7094,
      "قرنطینه": 7095,
      "تلس": 7096,
      "شمس": 7097,
      "نفری": 7098,
      "غیب": 7099,
      "سخنران": 7100,
      "پرستاری": 7101,
      "اعتقادی": 7102,
      "اقیان": 7103,
      "انحراف": 7104,
      "زلزله": 7105,
      "ذا": 7106,
      "بیکاری": 7107,
      "ه‌شان": 7108,
      "دامن": 7109,
      "تشکیل‌شده": 7110,
      "پروتکل‌ها": 7111,
      "واژه": 7112,
      "گفتند:": 7113,
      "یکپارچه": 7114,
      "تنش": 7115,
      "کاربری": 7116,
      "مدام": 7117,
      "ساختن": 7118,
      "هکتار": 7119,
      "زمست": 7120,
      "نمون": 7121,
      "گفتی": 7122,
      "اگرام": 7123,
      "نوشت‌افزار": 7124,
      "متوالی": 7125,
      "همسرش": 7126,
      "محبوب": 7127,
      "جرائم": 7128,
      "آنهایی": 7129,
      "داده‌بود": 7130,
      "محضر": 7131,
      "قرعه‌": 7132,
      "می‌شود:": 7133,
      "شهرداری‌ها": 7134,
      "اینستاگرام": 7135,
      "آتش‌نشانان": 7136,
      "توی": 7137,
      "‌نظر": 7138,
      "معرف": 7139,
      "سرهنگ": 7140,
      "کالای": 7141,
      "می‌آیند": 7142,
      "s.": 7143,
      "قاعد": 7144,
      "انبار": 7145,
      "نمی‌آی": 7146,
      "افزایش‌یافته": 7147,
      "پرداختند.": 7148,
      "بنیادی": 7149,
      "مفاد": 7150,
      "پدرم": 7151,
      "دستاورد": 7152,
      "قرعه‌کشی": 7153,
      "63": 7154,
      "نباشد.": 7155,
      "در‌بند": 7156,
      "مقاله": 7157,
      "تسلی": 7158,
      "صدرنشین": 7159,
      "سکو": 7160,
      "شوت": 7161,
      "دیوار": 7162,
      "شکوه": 7163,
      "دستمزد": 7164,
      "oo": 7165,
      "«و": 7166,
      "نجو": 7167,
      "باتوجه": 7168,
      "منکر": 7169,
      "میلادی": 7170,
      "فوتی‌ها": 7171,
      "گاو": 7172,
      "دهند،": 7173,
      "دادند،": 7174,
      "۱۴:۴": 7175,
      "ماهوار": 7176,
      "فریاد": 7177,
      "دستورات": 7178,
      "می‌باشد": 7179,
      "نشریه": 7180,
      "ندارم.": 7181,
      "مدعیان": 7182,
      "ثبت‌شده": 7183,
      "قراردادی": 7184,
      "ابزارهای": 7185,
      "دریاچه": 7186,
      "سپهبد": 7187,
      "غای": 7188,
      "غبار": 7189,
      "می‌دهیم.": 7190,
      "حرام": 7191,
      "۱۳:۵": 7192,
      "نابود": 7193,
      "جراحی": 7194,
      "ایالات‌": 7195,
      "س،": 7196,
      "شکوف": 7197,
      "پویا،": 7198,
      "700": 7199,
      "شکسته": 7200,
      "قیامت": 7201,
      "گونی": 7202,
      "دارند؛": 7203,
      "کشاورزی،": 7204,
      "تلسکوپ": 7205,
      "ایالات‌متحده": 7206,
      "عقد": 7207,
      "کارمندان": 7208,
      "مرج": 7209,
      "سرتیپ": 7210,
      "کین": 7211,
      "به‌عهده": 7212,
      "شعب": 7213,
      "اسپان": 7214,
      "آفریق": 7215,
      "الرحیم": 7216,
      "فیلمسازان": 7217,
      "ذی‌ربط": 7218,
      "سپرده": 7219,
      "گمن": 7220,
      "گفت‌و‌گو": 7221,
      "پژمان": 7222,
      "حاکی": 7223,
      "بله،": 7224,
      "ازبکستان": 7225,
      "«به": 7226,
      "حیاتی": 7227,
      "زاه": 7228,
      "غالی": 7229,
      "لور": 7230,
      "معین": 7231,
      "پرسی": 7232,
      "گذاشتیم": 7233,
      "مستضعف": 7234,
      "وارداتی": 7235,
      "۱۲:۳": 7236,
      "تصادفات": 7237,
      "یکم": 7238,
      "نمی‌رس": 7239,
      "می‌دهند،": 7240,
      "خدمت‌رسانی": 7241,
      "فرانسه،": 7242,
      "منتقد": 7243,
      "فارغ‌التحصیل": 7244,
      "فایل": 7245,
      "نمره": 7246,
      "نیکو": 7247,
      "کیان": 7248,
      "سنگر": 7249,
      "خاندان": 7250,
      "تحقیقاتی": 7251,
      "عمار": 7252,
      "اثرات": 7253,
      "پرویز": 7254,
      "استرالیا": 7255,
      "جنج": 7256,
      "می‌خواند": 7257,
      "ه‌بر": 7258,
      "اومیکرون": 7259,
      "کی،": 7260,
      "نشسته": 7261,
      "سلیمی": 7262,
      "خشم": 7263,
      "استدلال": 7264,
      "معماری": 7265,
      "به‌منظور": 7266,
      "هزینه‌ای": 7267,
      "تعزیرات": 7268,
      "250": 7269,
      "جنای": 7270,
      "دما": 7271,
      "لل": 7272,
      "را،": 7273,
      "بردهای": 7274,
      "ریل": 7275,
      "می‌گرفت": 7276,
      "ولی‌فقیه": 7277,
      "بلد": 7278,
      "غیره": 7279,
      "مناسبات": 7280,
      "رادیویی": 7281,
      "سالیان": 7282,
      "ابهامات": 7283,
      "مقتدر": 7284,
      "ذین": 7285,
      "شد؟": 7286,
      "عدال": 7287,
      "نانو": 7288,
      "بزرگراه": 7289,
      "واکسینه": 7290,
      "اسبق": 7291,
      "پاکستان": 7292,
      "متوسطه": 7293,
      "\"در": 7294,
      "فطر": 7295,
      "مخبر": 7296,
      "پاش": 7297,
      "ارزان": 7298,
      "برترین": 7299,
      "می‌بود": 7300,
      "دیم،": 7301,
      "اجباری": 7302,
      "سازندگی": 7303,
      "مردادماه": 7304,
      "تویی": 7305,
      "داود": 7306,
      "هست.": 7307,
      "عظمت": 7308,
      "کاندیداتوری": 7309,
      "مفهومی": 7310,
      "اینجانب": 7311,
      "کتبی": 7312,
      "گردد.": 7313,
      "گردشگران": 7314,
      "عظیمی": 7315,
      "آفری": 7316,
      "می‌نویس": 7317,
      "موز": 7318,
      "مساعد": 7319,
      "دانسته": 7320,
      "موضوع،": 7321,
      "کتابخانه": 7322,
      "چندانی": 7323,
      "سویی": 7324,
      "شعری": 7325,
      "نتوانستیم": 7326,
      "تمجید": 7327,
      "سول": 7328,
      "شاک": 7329,
      "سیمرغ": 7330,
      "مغلوب": 7331,
      "تاجیکستان": 7332,
      "sh": 7333,
      "آستان": 7334,
      "نمی‌شود،": 7335,
      "میزی": 7336,
      "بیرو": 7337,
      "شکنی": 7338,
      "مقص": 7339,
      "دروس": 7340,
      "پژوهشگران": 7341,
      "هیچ‌یک": 7342,
      "هیچ‌گونه": 7343,
      "فضاهای": 7344,
      "استعدادهای": 7345,
      "which": 7346,
      "علائم": 7347,
      "الدو": 7348,
      "الشهدا": 7349,
      "برسیم": 7350,
      "اسازی": 7351,
      "ناامید": 7352,
      "اصالت": 7353,
      "۱۴:۰": 7354,
      "حوزه‌ها": 7355,
      "مبدا": 7356,
      "تلفنی": 7357,
      "گرامیداشت": 7358,
      "عمان": 7359,
      "قش": 7360,
      "انکار": 7361,
      "گیل": 7362,
      "قیاس": 7363,
      "جهانی،": 7364,
      "میان‌": 7365,
      "حلقه": 7366,
      "بعدها": 7367,
      "نخبه": 7368,
      "روستاها": 7369,
      "منچستری": 7370,
      "VAR": 7371,
      "uc": 7372,
      "تطبی": 7373,
      "دموک": 7374,
      "سواری": 7375,
      "فعالیت‌ها": 7376,
      "ه‌شده‌است": 7377,
      "شنیدن": 7378,
      "singer": 7379,
      "قائم‌": 7380,
      "واجب": 7381,
      "قسمتی": 7382,
      "بخواهند": 7383,
      "ایده‌": 7384,
      "تعقیب": 7385,
      "نجفی": 7386,
      "تعداد،": 7387,
      "نخست‌و": 7388,
      "شهریورماه": 7389,
      "کاندیداها": 7390,
      "قضات": 7391,
      "کارگزاران": 7392,
      "خیم": 7393,
      "اره‌ای": 7394,
      "دیپلم": 7395,
      "بیگانه": 7396,
      "دستورالعمل‌های": 7397,
      "سکانس": 7398,
      "مواقع": 7399,
      "800": 7400,
      "بمان": 7401,
      "کیم": 7402,
      "آنالی": 7403,
      "۱۴:۵": 7404,
      "مسئله‌ای": 7405,
      "قواعد": 7406,
      "موشک‌های": 7407,
      "سینماها": 7408,
      "120": 7409,
      "­ها": 7410,
      "بوه": 7411,
      "شنو": 7412,
      "ونه": 7413,
      "خوار": 7414,
      "وقایع": 7415,
      "‌شده‌است؛": 7416,
      "بهره‌مندی": 7417,
      "وحش": 7418,
      "مکتو": 7419,
      "واجد": 7420,
      "لحظات": 7421,
      "آبی‌": 7422,
      "بایر": 7423,
      "مات": 7424,
      "وصی": 7425,
      "منستان": 7426,
      "اصناف": 7427,
      "2019": 7428,
      "بازیکنانم": 7429,
      "اثرگذار": 7430,
      "کماکان": 7431,
      "عتر": 7432,
      "نرسید": 7433,
      "داشت؛": 7434,
      "تکمیلی": 7435,
      "ame": 7436,
      "به‌هم": 7437,
      "شیوه‌": 7438,
      "سبد": 7439,
      "شفی": 7440,
      "69": 7441,
      "نهج": 7442,
      "رسما": 7443,
      "گونه‌های": 7444,
      "تناسب": 7445,
      "پورتو": 7446,
      "تدریج": 7447,
      "ویژه‌برنامه": 7448,
      "رییس‌جمهور": 7449,
      "pro": 7450,
      "چال": 7451,
      "ولادت": 7452,
      "130": 7453,
      "جامعه،": 7454,
      "تناب": 7455,
      "بحث‌های": 7456,
      "برساند.": 7457,
      "فرموده": 7458,
      "وسیع": 7459,
      "دکتری": 7460,
      "(5": 7461,
      "em": 7462,
      "دفع": 7463,
      "مسال": 7464,
      "نماه": 7465,
      "‌هاست.": 7466,
      "دیداری": 7467,
      "توئی": 7468,
      "داشته‌اند.": 7469,
      "روشنی": 7470,
      "پایین‌تر": 7471,
      "عقیده": 7472,
      "دشم": 7473,
      "ازل": 7474,
      "باروری": 7475,
      "روح‌الله": 7476,
      "گزینه‌های": 7477,
      "شیمیایی": 7478,
      "world": 7479,
      "زمستانی": 7480,
      "حامل": 7481,
      "سلس": 7482,
      "گی،": 7483,
      "محاک": 7484,
      "گوشی": 7485,
      "آب‌های": 7486,
      "سایبری": 7487,
      "مهیا": 7488,
      "می‌دادند": 7489,
      "شکو": 7490,
      "هنگامی‌": 7491,
      "عتبات": 7492,
      "پاشی": 7493,
      "ارزشمندی": 7494,
      "۱۵:": 7495,
      "واض": 7496,
      "بهروز": 7497,
      "سیاستگذاری": 7498,
      "توقیف": 7499,
      "تابع": 7500,
      "صدها": 7501,
      "ظی": 7502,
      "وو": 7503,
      "بروند": 7504,
      "اعظم": 7505,
      "چیان": 7506,
      "گل‌های": 7507,
      "انتقام": 7508,
      "می‌کنند؛": 7509,
      "مخفی": 7510,
      "منافقین": 7511,
      "باقیمانده": 7512,
      "زخم": 7513,
      "هنگامی‌که": 7514,
      "دقایق": 7515,
      "ذیر": 7516,
      "رهن": 7517,
      "سرو": 7518,
      "پرا": 7519,
      "میادین": 7520,
      "العالی": 7521,
      "احادی": 7522,
      "زنده‌": 7523,
      "نسبی": 7524,
      "تشریف": 7525,
      "الزامات": 7526,
      "نهجالبلاغه": 7527,
      "صوم": 7528,
      "اتکا": 7529,
      "پید": 7530,
      "مجروح": 7531,
      "قطعات": 7532,
      "مربیگری": 7533,
      "فروشگاه": 7534,
      "عمومی،": 7535,
      "سینما،": 7536,
      "عاملی": 7537,
      "سازوکار": 7538,
      "رحیمی": 7539,
      "جرای": 7540,
      "چمن": 7541,
      "مهد": 7542,
      "تیم‌هایی": 7543,
      "گسترده‌ای": 7544,
      "نامزدها": 7545,
      "«...": 7546,
      "نعم": 7547,
      "بودجه‌ای": 7548,
      "کرج": 7549,
      "فیلم،": 7550,
      "منچستریون": 7551,
      "4)": 7552,
      "Be": 7553,
      "بزند": 7554,
      "قن": 7555,
      "نشینی": 7556,
      "معتر": 7557,
      "طرفین": 7558,
      "‌شده‌از": 7559,
      "فدراسیون‌ها": 7560,
      "بازارهای": 7561,
      "همیش": 7562,
      "خودروها": 7563,
      "محسنی‌": 7564,
      "برانگیز": 7565,
      "درنظر": 7566,
      "کارگر": 7567,
      "اساس،": 7568,
      "۱۳:۰": 7569,
      "مخالفان": 7570,
      "دشمنی": 7571,
      "دارا": 7572,
      "دارم،": 7573,
      "معام": 7574,
      "بارگذاری": 7575,
      "کتابفروشی": 7576,
      "فریب": 7577,
      "دقیقی": 7578,
      "آلوده": 7579,
      "فرسوده": 7580,
      "68": 7581,
      "می‌بایست": 7582,
      "هستید": 7583,
      "رقابتی": 7584,
      "اطلاعیه": 7585,
      "جغرافیایی": 7586,
      "72": 7587,
      "ri": 7588,
      "بویژه": 7589,
      "غالب": 7590,
      "اجاره": 7591,
      "مقدمات": 7592,
      "نمی‌دهد": 7593,
      "شبانه": 7594,
      "رفتاری": 7595,
      "ایشان،": 7596,
      "نشست‌های": 7597,
      "پرورش،": 7598,
      "عبدی": 7599,
      "محسنی‌اژه‌ای": 7600,
      "6.": 7601,
      "عادت": 7602,
      "دراز": 7603,
      "مساوی": 7604,
      "لمانی": 7605,
      "بازی،": 7606,
      "می‌روند.": 7607,
      "برآورد": 7608,
      "دید.": 7609,
      "دستگیری": 7610,
      "نامه‌": 7611,
      "صحنه‌های": 7612,
      "آفتاب": 7613,
      "آرژانتین": 7614,
      "آبی‌پوشان": 7615,
      "ماست.": 7616,
      "کرد؟": 7617,
      "متخلف": 7618,
      "مدنی": 7619,
      "مقصر": 7620,
      "بلندی": 7621,
      "اضطر": 7622,
      "ت‌نامه": 7623,
      "ضرب": 7624,
      "اسپانی": 7625,
      "اشکالات": 7626,
      "شبانه‌روزی": 7627,
      "مشروط": 7628,
      "عاشقانه": 7629,
      "(در": 7630,
      "St": 7631,
      "music": 7632,
      "»؛": 7633,
      "نکنند": 7634,
      "‌داری": 7635,
      "می‌بینید": 7636,
      "بوده‌اند.": 7637,
      "معصوم": 7638,
      "تیم،": 7639,
      "خیانت": 7640,
      "شمشیر": 7641,
      "داریوش": 7642,
      "زاده،": 7643,
      "حدودی": 7644,
      "مطلق": 7645,
      "زاویه": 7646,
      "جماعت": 7647,
      "نهی": 7648,
      "وسط": 7649,
      "کای": 7650,
      "کاست": 7651,
      "‌زده": 7652,
      "اتمی": 7653,
      "منس": 7654,
      "فراخوان": 7655,
      "خیر.": 7656,
      "طرفدار": 7657,
      "بگذارد": 7658,
      "می‌ماند": 7659,
      "عموما": 7660,
      "کشتی‌گیران": 7661,
      "مهربان": 7662,
      "سفره": 7663,
      "بیماران،": 7664,
      "کالاها": 7665,
      "جامعه‌": 7666,
      "شفاف‌سازی": 7667,
      "‌هایشان": 7668,
      "الیست": 7669,
      "ادها": 7670,
      "می‌کند:": 7671,
      "غرور": 7672,
      "هفتاد": 7673,
      "بیفتد.": 7674,
      "بخوانی": 7675,
      "حکمی": 7676,
      "ادوار": 7677,
      "دیدگاه‌های": 7678,
      "نمی‌کنم": 7679,
      "ther": 7680,
      "چاه": 7681,
      "سیاوش": 7682,
      "می‌شدند": 7683,
      "مافی": 7684,
      "متهمان": 7685,
      "لوای": 7686,
      "ابتکار": 7687,
      "یادگار": 7688,
      "تکالیف": 7689,
      "ناراحتی": 7690,
      "رشید": 7691,
      "بندهای": 7692,
      "تفری": 7693,
      "سلامت،": 7694,
      "خصوصی‌سازی": 7695,
      "چشم‌انداز": 7696,
      "غریب": 7697,
      "پلی‌آف": 7698,
      "توری": 7699,
      "کرات": 7700,
      "به‌کار": 7701,
      "به‌خوبی": 7702,
      "می‌کنم،": 7703,
      "اثربخشی": 7704,
      "مزایای": 7705,
      "مذاکر": 7706,
      "ناوگان": 7707,
      "ابراهیمی": 7708,
      "زبال": 7709,
      "سانی": 7710,
      "ند؟": 7711,
      "برت": 7712,
      "اهدای": 7713,
      "معطوف": 7714,
      "کربلای": 7715,
      "بدانید": 7716,
      "رودخانه": 7717,
      "برسد،": 7718,
      "وابستگی": 7719,
      "79": 7720,
      "بماند": 7721,
      "جعل": 7722,
      "پیرو": 7723,
      "مجازی،": 7724,
      "آداب": 7725,
      "مضاعف": 7726,
      "ببینی": 7727,
      "جال": 7728,
      "شگفت": 7729,
      "فال": 7730,
      "کپی": 7731,
      "داروی": 7732,
      "یکسان": 7733,
      "معمول": 7734,
      "داشتم.": 7735,
      "شکای": 7736,
      "ally": 7737,
      "علی‌اصغر": 7738,
      "مجاهدت": 7739,
      "تعاون،": 7740,
      "شکوفایی": 7741,
      "همدان": 7742,
      "همدیگر": 7743,
      "وقف": 7744,
      "بزرگتر": 7745,
      "سبح": 7746,
      "کاب": 7747,
      "از،": 7748,
      "ونام": 7749,
      "اعلامی": 7750,
      "بزند.": 7751,
      "پرسن": 7752,
      "پاسخگوی": 7753,
      "فداکاری": 7754,
      "سوق": 7755,
      "قوم": 7756,
      "نکردند": 7757,
      "وگر": 7758,
      "‎های": 7759,
      "‏های": 7760,
      "ختم": 7761,
      "معامل": 7762,
      "احوال": 7763,
      "رایج": 7764,
      "eter": 7765,
      "سوژه": 7766,
      "همیشگی": 7767,
      "61": 7768,
      "بنای": 7769,
      "تمای": 7770,
      "غزل": 7771,
      "پرف": 7772,
      "چلسی": 7773,
      "‌زهرا": 7774,
      "رابی": 7775,
      "تسلط": 7776,
      "بینداز": 7777,
      "تشییع": 7778,
      "رخت": 7779,
      "رزمی": 7780,
      "ملو": 7781,
      "برپایی": 7782,
      "نمی‌گوی": 7783,
      "مضمون": 7784,
      "معصومه": 7785,
      "منزلت": 7786,
      "گمنام": 7787,
      "سمن": 7788,
      "انبوه": 7789,
      "اللهی": 7790,
      "یکبار": 7791,
      "وری،": 7792,
      "رفت،": 7793,
      "انتخابات،": 7794,
      "تحصیلات": 7795,
      "نکونام": 7796,
      "سعودی": 7797,
      "52": 7798,
      "شست": 7799,
      "هال": 7800,
      "سینا": 7801,
      "به‌وسیله": 7802,
      "دانشمند": 7803,
      "کند؟": 7804,
      "خانوار": 7805,
      "فروشان": 7806,
      "چیزهایی": 7807,
      "انصراف": 7808,
      "معمولی": 7809,
      "طاهری": 7810,
      "منچستریونایتد": 7811,
      "تام": 7812,
      "خلو": 7813,
      "مبالغ": 7814,
      "بلات": 7815,
      "بی‌نظیر": 7816,
      "خطای": 7817,
      "بداند": 7818,
      "تهدیدات": 7819,
      "تروریسم": 7820,
      "54": 7821,
      "78": 7822,
      "In": 7823,
      "دبی": 7824,
      "شلو": 7825,
      "ندان": 7826,
      "۱۳:۳": 7827,
      "مطالبه‌": 7828,
      "اسفند)": 7829,
      "پور،": 7830,
      "تازه‌ای": 7831,
      "شاگردانش": 7832,
      "تاثیری": 7833,
      "عسکری": 7834,
      "الد": 7835,
      "طراحی‌شده": 7836,
      "حاکمیتی": 7837,
      "زمستان": 7838,
      "مددجویان": 7839,
      "آکاد": 7840,
      "بدو": 7841,
      "دمی": 7842,
      "کرسی": 7843,
      "‌بار": 7844,
      "ریالی": 7845,
      "شوری": 7846,
      "اعزامی": 7847,
      "اختتا": 7848,
      "شهرک": 7849,
      "حقایق": 7850,
      "ت‌تر": 7851,
      "تکذیب": 7852,
      "بهرام": 7853,
      "می‌رود،": 7854,
      "منصوریان": 7855,
      "‌السلام": 7856,
      "برنامه،": 7857,
      "مستقی": 7858,
      "خداحافظ": 7859,
      "سرمایه‌های": 7860,
      "وزنه‌برداری": 7861,
      "محققان": 7862,
      "اسپانسر": 7863,
      "عترت": 7864,
      "oc": 7865,
      "آگ": 7866,
      "ئون": 7867,
      "تضعیف": 7868,
      "عج": 7869,
      "نتوانسته": 7870,
      "۵۰": 7871,
      "گرچه": 7872,
      "دیده‌شده": 7873,
      "اخبار": 7874,
      "رمزار": 7875,
      "حریفان": 7876,
      "قرمز،": 7877,
      "مازاد": 7878,
      "«از": 7879,
      "دلم": 7880,
      "فوریت": 7881,
      "ایران‌": 7882,
      "مهم‌تر": 7883,
      "جهانگیری": 7884,
      "ایرانی،": 7885,
      "دینی،": 7886,
      "خاتم": 7887,
      "اجلاس": 7888,
      "عروس": 7889,
      "ناتو": 7890,
      "درا": 7891,
      "آنه": 7892,
      "نقدین": 7893,
      "دلاری": 7894,
      "شاهین": 7895,
      "ساکن": 7896,
      "ies": 7897,
      "سلامی": 7898,
      "ناسب": 7899,
      "استرس": 7900,
      "ه‌زنی": 7901,
      "اسکار": 7902,
      "کلان‌": 7903,
      "دلایلی": 7904,
      "بعثی": 7905,
      "نیرو‌های": 7906,
      "125": 7907,
      "res": 7908,
      "خسارات": 7909,
      "کوچکی": 7910,
      "ub": 7911,
      "مخصوص": 7912,
      "الغ": 7913,
      "تیک": 7914,
      "منوط": 7915,
      "پیراهن": 7916,
      "نامناسب": 7917,
      "پرورد": 7918,
      "شب‌های": 7919,
      "۱۳:۴": 7920,
      "مداحان": 7921,
      "(شنبه": 7922,
      "ماد": 7923,
      "درواقع": 7924,
      "ه‌کل": 7925,
      "معاو": 7926,
      "جوایز": 7927,
      "امروز،": 7928,
      "بیمارستانی": 7929,
      "دقیقه‌ای": 7930,
      "تدارکاتی": 7931,
      "‌پور،": 7932,
      "از:": 7933,
      "بیاید.": 7934,
      "عینی": 7935,
      "محافظ": 7936,
      "تقلی": 7937,
      "رفیعی": 7938,
      "‌نشینی": 7939,
      "ایستاده": 7940,
      "می‌دانید": 7941,
      "pl": 7942,
      "اکی": 7943,
      "حراست": 7944,
      "نط": 7945,
      "کاو": 7946,
      "وردی": 7947,
      "دیدند": 7948,
      "بخش‌ها": 7949,
      "آینده،": 7950,
      "فلسطی": 7951,
      "قائم‌مقام": 7952,
      "ذیربط": 7953,
      "خرس": 7954,
      "زبانی": 7955,
      "بابک": 7956,
      "لیبرا": 7957,
      "ناظ": 7958,
      "خیرین": 7959,
      "ولای": 7960,
      "خاور": 7961,
      "تفاوتی": 7962,
      "جسمی": 7963,
      "لاریجانی": 7964,
      "خستگی": 7965,
      "ساختمانی": 7966,
      "ت‌گذاری": 7967,
      "پنجاه": 7968,
      "وسعت": 7969,
      "ویدئ": 7970,
      "انفجار": 7971,
      "عدالت‌": 7972,
      "واضح": 7973,
      "آکادمی": 7974,
      "رمزارز": 7975,
      "«ال": 7976,
      "صلو": 7977,
      "فاخر": 7978,
      "متقابل": 7979,
      "مقاطع": 7980,
      "زیرزمینی": 7981,
      "جلساتی": 7982,
      "آب،": 7983,
      "نوید": 7984,
      "پنج‌": 7985,
      "انتظارات": 7986,
      "هواپیما": 7987,
      "‌بر": 7988,
      "ندید": 7989,
      "اهایی": 7990,
      "خودتان": 7991,
      "الیه": 7992,
      "مصی": 7993,
      "معابر": 7994,
      "معافیت": 7995,
      "بهبودیافته": 7996,
      "انصاف": 7997,
      "debut": 7998,
      "recorded": 7999,
      "می‌سازی": 8000,
      "دهیم،": 8001,
      "به‌خصوص": 8002,
      "مصالح": 8003,
      "نتیجه‌ای": 8004,
      "حرکتی": 8005,
      "جنبش": 8006,
      "استعفا": 8007,
      "می‌آید،": 8008,
      "نخست‌وزیر": 8009,
      "3،": 8010,
      "ia": 8011,
      "مکم": 8012,
      "مواز": 8013,
      "فرز": 8014,
      "قانع": 8015,
      "کوو": 8016,
      "بکش": 8017,
      "نداشت،": 8018,
      "فلسفی": 8019,
      "ell": 8020,
      "بشریت": 8021,
      "کشاورزان": 8022,
      "نیمی": 8023,
      "انی‌ها": 8024,
      "فرهادی": 8025,
      "بازاری": 8026,
      "سلیقه": 8027,
      "صداقت": 8028,
      "انصاری": 8029,
      "یوون": 8030,
      "آگهی": 8031,
      "7.": 8032,
      "المسلمین": 8033,
      "استیک": 8034,
      "پیروی": 8035,
      "گذشته)": 8036,
      "بحرین": 8037,
      "عزل": 8038,
      "برخورداری": 8039,
      "قزوین": 8040,
      "میرزایی": 8041,
      "احادیث": 8042,
      "منسجم": 8043,
      "خوراک": 8044,
      "بانان": 8045,
      "شواه": 8046,
      "رسیدند": 8047,
      "تجارب": 8048,
      "آمارهای": 8049,
      "نارضای": 8050,
      "می‌خواستند": 8051,
      "بدیهی": 8052,
      "کج": 8053,
      "‌کاری": 8054,
      "ادغام": 8055,
      "ترانه": 8056,
      "ادیان": 8057,
      "1360": 8058,
      "ه‌بودیم": 8059,
      "۱۳:۲": 8060,
      "als": 8061,
      "می‌داند.": 8062,
      "اصلاح‌طلب": 8063,
      "دست‌کم": 8064,
      "جرایم": 8065,
      "نکرد.": 8066,
      "درونی": 8067,
      "ناع": 8068,
      "سناری": 8069,
      "گرفتاری": 8070,
      "مدینه": 8071,
      "بسا": 8072,
      "گزینش": 8073,
      "av": 8074,
      "آذری": 8075,
      "تند": 8076,
      "رشت": 8077,
      "عجی": 8078,
      "سیری": 8079,
      "رانندگان": 8080,
      "چهلمین": 8081,
      "راهبری": 8082,
      "توسعه‌": 8083,
      "گوشت": 8084,
      "کمک‌": 8085,
      "جذابی": 8086,
      "فقهی": 8087,
      "بیاورد": 8088,
      "می‌افتد.": 8089,
      "نداشتیم.": 8090,
      "ملاحظ": 8091,
      "ثانیه": 8092,
      "بیت‌المال": 8093,
      "بلاتکلی": 8094,
      "آلای": 8095,
      "کسر": 8096,
      "ریب": 8097,
      "دهید": 8098,
      "سیاست‌ها": 8099,
      "...»": 8100,
      "می‌زند.": 8101,
      "تشخیصی،": 8102,
      "ضمانت": 8103,
      "(2)": 8104,
      "ذلک": 8105,
      "عذ": 8106,
      "‌زبان": 8107,
      "ادان": 8108,
      "ه‌جویی": 8109,
      "توانی": 8110,
      "داده‌های": 8111,
      "متشکل": 8112,
      "نمایان": 8113,
      "جابه‌": 8114,
      "ملت‌ها": 8115,
      "۱۵:۰": 8116,
      "مجهز": 8117,
      "فلسطینی": 8118,
      "می‌فرمای": 8119,
      "اخلال": 8120,
      "واکسن‌ها": 8121,
      "رئیس‌جمهوری": 8122,
      "انگاری": 8123,
      "ماندگاری": 8124,
      "خردادماه": 8125,
      "ملاحظه": 8126,
      "معاونین": 8127,
      "\"world": 8128,
      "man": 8129,
      "هندی": 8130,
      "می‌انداز": 8131,
      "همگانی": 8132,
      "سالمندان": 8133,
      "اندکی": 8134,
      "معاونان": 8135,
      "فرونشست": 8136,
      "کشیدن": 8137,
      "محدودیت‌ها": 8138,
      "مقطعی": 8139,
      "تعاون": 8140,
      "جاسوسی": 8141,
      "تطبیق": 8142,
      "(مربوط": 8143,
      "اذی": 8144,
      "خم": 8145,
      "هجمه": 8146,
      "و،": 8147,
      "صنف": 8148,
      "زندگی،": 8149,
      "دایره": 8150,
      "چرایی": 8151,
      "اختتامیه": 8152,
      "الدنیا": 8153,
      "دستان": 8154,
      "بالگرد": 8155,
      "نورانی": 8156,
      "هم‌افزایی": 8157,
      "روستای": 8158,
      "ometer": 8159,
      "رمانه": 8160,
      "معنویت": 8161,
      "پاریس": 8162,
      "درحالی‌که": 8163,
      "رگ": 8164,
      "م؛": 8165,
      "نسیم": 8166,
      "می‌آمد": 8167,
      "ابقی": 8168,
      "شکاف": 8169,
      "نویی": 8170,
      "ضربات": 8171,
      "حلال": 8172,
      "بعدا": 8173,
      "ستیزی": 8174,
      "سیدالشهدا": 8175,
      "ببریم": 8176,
      "ناکامی": 8177,
      "ارقام": 8178,
      "اسارت": 8179,
      "داشتم،": 8180,
      "مسدود": 8181,
      "سازماندهی": 8182,
      "اخطار": 8183,
      "تکریم": 8184,
      "بهشت‌زهرا": 8185,
      "گذاشتند": 8186,
      "بهره‌وری": 8187,
      "توانمندی‌های": 8188,
      "معترض": 8189,
      "نقدینگی": 8190,
      "مکمل": 8191,
      "\"worldometer": 8192,
      "(به": 8193,
      "(مد": 8194,
      "82": 8195,
      "بخوان": 8196,
      "سهمی": 8197,
      "آراء": 8198,
      "پالای": 8199,
      "یوونتوس": 8200,
      "عه‌ای": 8201,
      "قاط": 8202,
      "چادر": 8203,
      "ستون": 8204,
      "برقی": 8205,
      "بازتاب": 8206,
      "سالار": 8207,
      "کرم": 8208,
      "بزرگ،": 8209,
      "صربستان": 8210,
      "بانک‌های": 8211,
      "بتوانم": 8212,
      "ببرد.": 8213,
      "محکومیت": 8214,
      "سلو": 8215,
      "گس": 8216,
      "به‌شد": 8217,
      "اینجاست": 8218,
      "پیمایی": 8219,
      "مجالس": 8220,
      "خیریه": 8221,
      "قراردادهای": 8222,
      "مولفه‌های": 8223,
      "if": 8224,
      "ده‌": 8225,
      "قاف": 8226,
      "نینی": 8227,
      "مشروح": 8228,
      "داشته،": 8229,
      "حرمت": 8230,
      "باعث‌شده‌است": 8231,
      "پیش‌آمده": 8232,
      "نبودند": 8233,
      "همه‌چیز": 8234,
      "بله.": 8235,
      "وعده‌های": 8236,
      "علیهم‌السلام": 8237,
      "امریکا": 8238,
      "نارضایتی": 8239,
      "\"worldometer\"": 8240,
      "به‌شدت": 8241,
      "ust": 8242,
      "وضو": 8243,
      "ارویی": 8244,
      "ه‌گر": 8245,
      "سال‌هاست": 8246,
      "کی‌": 8247,
      "thir": 8248,
      "نداریم،": 8249,
      "نداشتند.": 8250,
      "ناباروری": 8251,
      "عجیبی": 8252,
      "آدرس": 8253,
      "کمان": 8254,
      "الر": 8255,
      "می‌داد.": 8256,
      "کارم": 8257,
      "ادیب": 8258,
      "جوع": 8259,
      "حالیکه": 8260,
      "پرستاران": 8261,
      "تعلیق": 8262,
      "می‌زنند": 8263,
      "معامله": 8264,
      "53": 8265,
      "مداخ": 8266,
      "‌زدایی": 8267,
      "نده‌ای": 8268,
      "الق": 8269,
      "شان،": 8270,
      "متولیان": 8271,
      "کلاسیک": 8272,
      "به‌همراه": 8273,
      "خلیل": 8274,
      "ده،": 8275,
      "می‌کش": 8276,
      "حیدر": 8277,
      "قیمت‌گذاری": 8278,
      "۱۵:۳": 8279,
      "سادات": 8280,
      "تاسیسات": 8281,
      "نارنجی،": 8282,
      "همسایگان": 8283,
      "همین‌طور": 8284,
      "ومی": 8285,
      "گلوله": 8286,
      "ادای": 8287,
      "مسلط": 8288,
      "تحسین": 8289,
      "عملیات‌های": 8290,
      "مذکور،": 8291,
      "کفایی": 8292,
      "فاضلاب": 8293,
      "غامی": 8294,
      "‌خانگی": 8295,
      "نظران": 8296,
      "کرنر": 8297,
      "باتجر": 8298,
      "مهمتر": 8299,
      "rock": 8300,
      "مجریه": 8301,
      "می‌توانستند": 8302,
      "دردسر": 8303,
      "تک‌تک": 8304,
      "Al": 8305,
      "خشن": 8306,
      "سم،": 8307,
      "یقین": 8308,
      "شدگان": 8309,
      "کاخ": 8310,
      "صندلی": 8311,
      "غربی‌ها": 8312,
      "تعاملات": 8313,
      "تاثیرات": 8314,
      "مطبوعات": 8315,
      "آجور": 8316,
      "ایران|": 8317,
      "علما": 8318,
      "حسنی": 8319,
      "بصیرت": 8320,
      "فرمایشات": 8321,
      "آجورلو": 8322,
      "74": 8323,
      "بشود.": 8324,
      "عامه": 8325,
      "فرج": 8326,
      "مسل": 8327,
      "به‌زودی": 8328,
      "جاذ": 8329,
      "شاهی": 8330,
      "آرش": 8331,
      "صادقانه": 8332,
      "وحیدی": 8333,
      "تمهیدات": 8334,
      "برگزیدگان": 8335,
      "ضل": 8336,
      "غز": 8337,
      "‌دهی": 8338,
      "کهن": 8339,
      "منظم": 8340,
      "پایه‌های": 8341,
      "شهرام": 8342,
      "جمال": 8343,
      "تلخی": 8344,
      "مشخص‌شده": 8345,
      "گام‌های": 8346,
      "انتخابیه": 8347,
      "ماتیک": 8348,
      "ببینند": 8349,
      "برکات": 8350,
      "کنسرت": 8351,
      "خیبر": 8352,
      "رسمیت": 8353,
      "هست،": 8354,
      "آماری": 8355,
      "نمی‌کنند.": 8356,
      "کردند:": 8357,
      "رحلت": 8358,
      "گنجی": 8359,
      "نصرال": 8360,
      "وگرنه": 8361,
      "شوق": 8362,
      "نگرفت": 8363,
      "‌زاد": 8364,
      "اسطور": 8365,
      "گفته‌شده": 8366,
      "تیمم": 8367,
      "مستمری": 8368,
      "شرکت‌کنندگان": 8369,
      "نویدک": 8370,
      "آمریکای": 8371,
      "تهیه‌کنندگان": 8372,
      "کم‌کم": 8373,
      "آدم‌های": 8374,
      "سلبریتی": 8375,
      "نویدکیا": 8376,
      "You": 8377,
      "افی": 8378,
      "نکنیم": 8379,
      "یام": 8380,
      "یزی": 8381,
      "میع": 8382,
      "رادار": 8383,
      "اسدی": 8384,
      "داروها": 8385,
      "اجتناب": 8386,
      "میلیاردی": 8387,
      "سلیمان": 8388,
      "بنایی": 8389,
      "رهبری،": 8390,
      "می‌دانند.": 8391,
      "فیزیک": 8392,
      "ov": 8393,
      "بماند.": 8394,
      "دگر": 8395,
      "بیدار": 8396,
      "زمان،": 8397,
      "بن‌": 8398,
      "دولتی،": 8399,
      "جنایات": 8400,
      "زنده‌یاد": 8401,
      "لیون": 8402,
      "روغ": 8403,
      "سازندگان": 8404,
      "رویارویی": 8405,
      "ه‌بودم": 8406,
      "ببریم.": 8407,
      "خسرو": 8408,
      "اردوهای": 8409,
      "سوءاستفاده": 8410,
      "هالیوود": 8411,
      "نماهنگ": 8412,
      "خض": 8413,
      "یاس": 8414,
      "بی‌ه": 8415,
      "شدنی": 8416,
      "دستیار": 8417,
      "به‌کارگیری": 8418,
      "آی‌": 8419,
      "جوادی": 8420,
      "شوهر": 8421,
      "ابطال": 8422,
      "برنامه‌سازی": 8423,
      "چشم‌": 8424,
      "شویم،": 8425,
      "اخلاص": 8426,
      "زندان‌ها": 8427,
      "عصبانی": 8428,
      "پالایشگاه": 8429,
      "ایلام": 8430,
      "مناق": 8431,
      "منطبق": 8432,
      "سریال،": 8433,
      "پرسپولیس،": 8434,
      "رئیس‌کل": 8435,
      "یک‌سو": 8436,
      "صادره": 8437,
      "می‌رسد،": 8438,
      "مرزها": 8439,
      "دارایی‌های": 8440,
      "منتقدان": 8441,
      "مکتوب": 8442,
      "جیم": 8443,
      "پات": 8444,
      "فرهی": 8445,
      "پرشور": 8446,
      "کانادا": 8447,
      "محمدجواد": 8448,
      "کردند؛": 8449,
      "مطالبی": 8450,
      "شهرستان‌ها": 8451,
      "ساکت": 8452,
      "بگذاریم": 8453,
      "ight": 8454,
      "ه‌نشده‌است.": 8455,
      "اولویت‌": 8456,
      "نسبتا": 8457,
      "8.": 8458,
      "نکردن": 8459,
      "اتصال": 8460,
      "خوابی": 8461,
      "راهپیمایی": 8462,
      "ضامین": 8463,
      "کتابخوانی": 8464,
      "مبارکه": 8465,
      "نمایش‌خانگی": 8466,
      "اساسی،": 8467,
      "جلالی": 8468,
      "شریعتی": 8469,
      "عقب‌": 8470,
      "تروریست": 8471,
      "متاثر": 8472,
      "64": 8473,
      "93": 8474,
      "زهر": 8475,
      "عنای": 8476,
      "ممت": 8477,
      "‌پذیری": 8478,
      "برف": 8479,
      "گفتار": 8480,
      "متج": 8481,
      "علمی؛": 8482,
      "آسیا،": 8483,
      "ary": 8484,
      "گفتم:": 8485,
      "مشاوره": 8486,
      "برویم.": 8487,
      "آزمایشی": 8488,
      "ode": 8489,
      "آواز": 8490,
      "حاوی": 8491,
      "خرم": 8492,
      "رقب": 8493,
      "می‌خور": 8494,
      "دامنه": 8495,
      "رفتند.": 8496,
      "بوشهر": 8497,
      "حرف‌ها": 8498,
      "خصوصیات": 8499,
      "ژر": 8500,
      "معن": 8501,
      "معلو": 8502,
      "اشتراک": 8503,
      "ندارد؛": 8504,
      "مسئولیت‌های": 8505,
      "می‌کردیم.": 8506,
      "ببرند.": 8507,
      "پذیرد.": 8508,
      "دربارهی": 8509,
      "گشود": 8510,
      "برمی‌گردد": 8511,
      "کمکی": 8512,
      "نیستند،": 8513,
      "بدهید": 8514,
      "هدفمند": 8515,
      "پروژه‌ها": 8516,
      "انجمن‌های": 8517,
      "‌کیا": 8518,
      "نکردیم": 8519,
      "متحد": 8520,
      "سرچشمه": 8521,
      "کیش": 8522,
      "هستم،": 8523,
      "باردار": 8524,
      "‌الب": 8525,
      "ملزم": 8526,
      "قایقی": 8527,
      "داستان‌های": 8528,
      "پدرش": 8529,
      "موفقیت‌های": 8530,
      "توصیه‌های": 8531,
      "افتاد،": 8532,
      "کیلومتری": 8533,
      "مارک": 8534,
      "تهاجم": 8535,
      "آشتی": 8536,
      "دق": 8537,
      "رجوع": 8538,
      "الزامی": 8539,
      "سیدن": 8540,
      "بیگان": 8541,
      "مجله": 8542,
      "متصل": 8543,
      "مردمان": 8544,
      "جاود": 8545,
      "خانواده،": 8546,
      "پژو": 8547,
      "فارابی": 8548,
      "خارجی،": 8549,
      "برجست": 8550,
      "آسیب‌شناسی": 8551,
      "چه‌بسا": 8552,
      "باشید.": 8553,
      "کلمات": 8554,
      "جرد": 8555,
      "فضی": 8556,
      "قانی": 8557,
      "ایان": 8558,
      "اسکان": 8559,
      "ایدئ": 8560,
      "تحکیم": 8561,
      "‌شده‌به": 8562,
      "وزارتخانه‌های": 8563,
      "احمدی‌نژاد": 8564,
      "تجدیدنظر": 8565,
      "سینماهای": 8566,
      "تذکرات": 8567,
      "؟»": 8568,
      "آپ": 8569,
      "بچ": 8570,
      "ببرد": 8571,
      "میهن": 8572,
      "فیلس": 8573,
      "ناقص": 8574,
      "اوزان": 8575,
      "گوشه": 8576,
      "شهریاری": 8577,
      "لزم": 8578,
      "نویسندگی": 8579,
      "مستضعفان": 8580,
      "خداحافظی": 8581,
      "(20": 8582,
      "ئن": 8583,
      "استار": 8584,
      "سینه": 8585,
      "شماری": 8586,
      "آموزش،": 8587,
      "ong": 8588,
      "زیرساخت‌ها": 8589,
      "آسیب‌دیده": 8590,
      "لوایح": 8591,
      "تجوی": 8592,
      "حوض": 8593,
      "ه»": 8594,
      "همسان": 8595,
      "فی‌": 8596,
      "ناسی": 8597,
      "قربان": 8598,
      "شنام": 8599,
      "بدتر": 8600,
      "شمسی": 8601,
      "شاه‌": 8602,
      "آخرال": 8603,
      "رئیس‌جمهور،": 8604,
      "وطن": 8605,
      "انبیاء": 8606,
      "معرفتی": 8607,
      "کون": 8608,
      "ریزش": 8609,
      "می‌آورد.": 8610,
      "محلات": 8611,
      "بارش": 8612,
      "بدترین": 8613,
      "بازیگرانی": 8614,
      "ظالمانه": 8615,
      "دقایقی": 8616,
      "بهی": 8617,
      "فرقه": 8618,
      "خودکفایی": 8619,
      "مردانه": 8620,
      "وقفه": 8621,
      "استانداران": 8622,
      "خیر؟": 8623,
      "مالی،": 8624,
      "بنشی": 8625,
      "پرونده‌ها": 8626,
      "استعفای": 8627,
      "مداح": 8628,
      "خوشحالی": 8629,
      "رزمنده": 8630,
      "گرایان": 8631,
      "پرسنل": 8632,
      "Ne": 8633,
      "ممل": 8634,
      "نکند.": 8635,
      "رامین": 8636,
      "بازماند": 8637,
      "معاین": 8638,
      "انسانی،": 8639,
      "دریغ": 8640,
      "رئیسی،": 8641,
      "اندیشه‌های": 8642,
      "مطلبی": 8643,
      "بنی‌صدر": 8644,
      "باوری": 8645,
      "بیرونی": 8646,
      "تمندی": 8647,
      "کره‌": 8648,
      "بیانگر": 8649,
      "گودر": 8650,
      "علمای": 8651,
      "‌و‌": 8652,
      "بستانی": 8653,
      "دندان": 8654,
      "جاذبه": 8655,
      "num": 8656,
      "si": 8657,
      "«ما": 8658,
      "رهایی": 8659,
      "وصف": 8660,
      "پاره": 8661,
      "رو،": 8662,
      "اسلو": 8663,
      "معدود": 8664,
      "سرپرستی": 8665,
      "تجلی": 8666,
      "مباد": 8667,
      "تکراری": 8668,
      "لحظه‌ای": 8669,
      "جنبه‌های": 8670,
      "هجوم": 8671,
      "ذوالفق": 8672,
      "آنالیز": 8673,
      "حش": 8674,
      "رکن": 8675,
      "سهی": 8676,
      "کوی": 8677,
      "مربع": 8678,
      "مستلزم": 8679,
      "برنامه‌ریزی‌های": 8680,
      "۰۹:۰": 8681,
      "خانم‌ها": 8682,
      "قدیم": 8683,
      "امانت": 8684,
      "سیست": 8685,
      "منصف": 8686,
      "افش": 8687,
      "قلعه‌": 8688,
      "پیامک": 8689,
      "نمی‌خواهم": 8690,
      "صحبتی": 8691,
      "بورگ": 8692,
      "ترابی": 8693,
      "شعبان": 8694,
      "مشکوک": 8695,
      "مطمئنا": 8696,
      "گرفتیم.": 8697,
      "تنیس": 8698,
      "سن‌ژر": 8699,
      "کره‌جنوبی": 8700,
      "91": 8701,
      "ساحت": 8702,
      "صاف": 8703,
      "ژنتی": 8704,
      "درویش": 8705,
      "است»": 8706,
      "تعادل": 8707,
      "نمی‌شد": 8708,
      "سعیدی": 8709,
      "یابد،": 8710,
      "وظیف": 8711,
      "بلندمدت": 8712,
      "پاری‌": 8713,
      "بیست‌وی": 8714,
      "پروردگار": 8715,
      "فیلسوف": 8716,
      "ue": 8717,
      "ثانیا": 8718,
      "حول": 8719,
      "ضار": 8720,
      "غرف": 8721,
      "فسخ": 8722,
      "ستارگان": 8723,
      "می‌بیند": 8724,
      "زینی": 8725,
      "اصره": 8726,
      "سوئی": 8727,
      "تلاوت": 8728,
      "مداحی": 8729,
      "هواپیمای": 8730,
      "سلسله": 8731,
      "iv": 8732,
      "میکرو": 8733,
      "دیدی": 8734,
      "پرتو": 8735,
      "تبع": 8736,
      "چنان‌که": 8737,
      "پشت‌": 8738,
      "قسمت‌های": 8739,
      "تعریف‌شده": 8740,
      "پاری‌سن‌ژر": 8741,
      "تناقض": 8742,
      "ظله‌": 8743,
      "علام": 8744,
      "عقلی": 8745,
      "مشی": 8746,
      "مابقی": 8747,
      "محاصره": 8748,
      "اقلیم": 8749,
      "طرح،": 8750,
      "شرکتهای": 8751,
      "جنگ،": 8752,
      "۱۶:": 8753,
      "یهودی": 8754,
      "دائم": 8755,
      "موکول": 8756,
      "مردم‌سالاری": 8757,
      "حیوانات": 8758,
      "ظله‌العالی": 8759,
      "51": 8760,
      "آوینی": 8761,
      "شباه": 8762,
      "صبا": 8763,
      "منی": 8764,
      "اونی": 8765,
      "به‌دست": 8766,
      "جدیدترین": 8767,
      "وضعیتی": 8768,
      "ایرانی‌ها": 8769,
      "منتشر‌شده‌است.": 8770,
      "طراح": 8771,
      "اصفهان،": 8772,
      "تاکتیک": 8773,
      "ge": 8774,
      "بخت": 8775,
      "بادی": 8776,
      "ذاتی": 8777,
      "میانی": 8778,
      "ازجمله": 8779,
      "پینگ": 8780,
      "کارمان": 8781,
      "ضرغامی": 8782,
      "هفته‌ای": 8783,
      "آموزشی،": 8784,
      "هاشم": 8785,
      "شیوه‌های": 8786,
      "تلفات": 8787,
      "تبریزی": 8788,
      "خندوانه": 8789,
      "مقتضی": 8790,
      "بگو": 8791,
      "ضریب": 8792,
      "یخ": 8793,
      "الامام": 8794,
      "می‌زد": 8795,
      "می‌رسید": 8796,
      "بیعت": 8797,
      "منعکس": 8798,
      "دهقان": 8799,
      "شرع": 8800,
      "افزودند:": 8801,
      "این‌چنین": 8802,
      "سیاست‌": 8803,
      "فرموده‌اند": 8804,
      "هوشمندانه": 8805,
      "own": 8806,
      "لازمه": 8807,
      "شفیعی": 8808,
      "رجب": 8809,
      "قه‌ای": 8810,
      "اطهار": 8811,
      "میلیونی": 8812,
      "نقش‌های": 8813,
      "فرهنگ،": 8814,
      "بدهد،": 8815,
      "۱۵:۲": 8816,
      "رتبه‌های": 8817,
      "ایده‌های": 8818,
      "feat": 8819,
      "cl": 8820,
      "کثی": 8821,
      "یوم": 8822,
      "دادیم،": 8823,
      "قرض": 8824,
      "دستش": 8825,
      "ندیده": 8826,
      "احساسات": 8827,
      "افتخارات": 8828,
      "نصیب": 8829,
      "سردفتران": 8830,
      "فاجعه": 8831,
      "«این": 8832,
      "شوید": 8833,
      "‌خوانی": 8834,
      "زیران": 8835,
      "کارآزمایی": 8836,
      "منطقه،": 8837,
      "مزیت": 8838,
      "epis": 8839,
      "گراف": 8840,
      "دهه‌های": 8841,
      "کارشان": 8842,
      "یادم": 8843,
      "بودجه،": 8844,
      "نفت،": 8845,
      "جلوتر": 8846,
      "فناوری،": 8847,
      "صرفه‌جویی": 8848,
      "فوتی": 8849,
      "توانمندسازی": 8850,
      "third": 8851,
      "ra": 8852,
      "تندی": 8853,
      "طو": 8854,
      "کع": 8855,
      "ور،": 8856,
      "اعدام": 8857,
      "معطل": 8858,
      "متکی": 8859,
      "متبو": 8860,
      "اصولا": 8861,
      "نفر،": 8862,
      "تلاش‌ها": 8863,
      "استقلالی": 8864,
      "19)": 8865,
      "سه‌گانه": 8866,
      "عبارتی": 8867,
      "ساختارهای": 8868,
      "زنجان": 8869,
      "استیناف": 8870,
      "سعدی": 8871,
      "یوسفی": 8872,
      "مملکت": 8873,
      "نکنید": 8874,
      "سردر": 8875,
      "رقمی": 8876,
      "پارکینگ": 8877,
      "معتقدیم": 8878,
      "ه‌شده‌بود": 8879,
      "روحانیت": 8880,
      "چالش‌ها": 8881,
      "آسیب‌دید": 8882,
      "number": 8883,
      "آری": 8884,
      "قمی": 8885,
      "می‌خواهید": 8886,
      "لوا": 8887,
      "گلای": 8888,
      "فردای": 8889,
      "منظومه": 8890,
      "می‌رساند": 8891,
      "تمدنی": 8892,
      "خشکسالی": 8893,
      "En": 8894,
      "هانی": 8895,
      "راحل": 8896,
      "داده،": 8897,
      "پرورشی": 8898,
      "بسته‌های": 8899,
      "قضائی،": 8900,
      "کاملی": 8901,
      "آلبوم": 8902,
      "کفایت": 8903,
      "تذکری": 8904,
      "اذیت": 8905,
      "lish": 8906,
      "حکیمی": 8907,
      "قبر": 8908,
      "۲۰۰": 8909,
      "‌شناس": 8910,
      "می‌خورد.": 8911,
      "هرکسی": 8912,
      "‌وزیران": 8913,
      "دورهمی": 8914,
      "les": 8915,
      "رونالدو": 8916,
      "اصلاحی": 8917,
      "سالیانه": 8918,
      "جهش‌یافته": 8919,
      "ساحلی": 8920,
      "استفاده‌شده": 8921,
      "دراگان": 8922,
      "ز،": 8923,
      "پله": 8924,
      "کوین": 8925,
      "می‌خواه": 8926,
      "اقصی": 8927,
      "اجماع": 8928,
      "لوکیشن": 8929,
      "شرکت‌کننده": 8930,
      "خواسته‌های": 8931,
      "یادمان": 8932,
      "هیئت‌وزیران": 8933,
      "راه‌آهن": 8934,
      "پیوستن": 8935,
      "تکنیک": 8936,
      "نجومی": 8937,
      "4،": 8938,
      "bo": 8939,
      "ug": 8940,
      "سنین": 8941,
      "فج": 8942,
      "ممان": 8943,
      "سیلی": 8944,
      "روا": 8945,
      "ه‌نویسی": 8946,
      "دهایی": 8947,
      "بانو": 8948,
      "تعمی": 8949,
      "کاندی": 8950,
      "تلاشی": 8951,
      "رسیدند.": 8952,
      "مسیح": 8953,
      "Me": 8954,
      "ابی‌": 8955,
      "جاده‌ای": 8956,
      "مفت": 8957,
      "نتوان": 8958,
      "الدین": 8959,
      "ویدی": 8960,
      "پیشی": 8961,
      "احترا": 8962,
      "وجودی": 8963,
      "شهریار": 8964,
      "صحبت‌هایی": 8965,
      "آدم‌ها": 8966,
      "طهرانی": 8967,
      "نتواند": 8968,
      "‌انگیز": 8969,
      "العظ": 8970,
      "توبه": 8971,
      "منو": 8972,
      "اکشن": 8973,
      "اشتی": 8974,
      "تبعیت": 8975,
      "حدودا": 8976,
      "پلنگ": 8977,
      "مشهود": 8978,
      "اعتراضات": 8979,
      "تالار": 8980,
      "کمیته‌های": 8981,
      "می‌خوانیم:": 8982,
      "episode": 8983,
      "جلیل": 8984,
      "رن": 8985,
      "غزه": 8986,
      "الحسین": 8987,
      "برگرفته": 8988,
      "ه‌مند": 8989,
      "محافل": 8990,
      "بارداری": 8991,
      "ایتالی": 8992,
      "مرکب": 8993,
      "خواستم": 8994,
      "فصل‌های": 8995,
      "جریان‌های": 8996,
      "الهامی": 8997,
      "جاری،": 8998,
      "پیشرفت‌های": 8999,
      "سالن‌های": 9000,
      "تجویز": 9001,
      "بصورت": 9002,
      "بسط": 9003,
      "جات": 9004,
      "ربا": 9005,
      "شگر": 9006,
      "هف": 9007,
      "ستایش": 9008,
      "سیمان": 9009,
      "بیگی": 9010,
      "افقی": 9011,
      "گفت،": 9012,
      "خواهر": 9013,
      "نیز،": 9014,
      "شناسنامه": 9015,
      "فرهنگ‌سازی": 9016,
      "پارس": 9017,
      "1396": 9018,
      "۱۵:۵": 9019,
      "سروده": 9020,
      "چشمان": 9021,
      "عمده‌ای": 9022,
      "ربطی": 9023,
      "معاملات": 9024,
      "%)": 9025,
      "ke": 9026,
      "تسویه": 9027,
      "جاد": 9028,
      "۱۰۰": 9029,
      "استقامت": 9030,
      "شورایی": 9031,
      "علیکم": 9032,
      "سوئ": 9033,
      "جانباختگان": 9034,
      "شاکی": 9035,
      "بنیان‌": 9036,
      "سینماگران": 9037,
      "صفحات": 9038,
      "1397": 9039,
      "برود،": 9040,
      "اشتباهی": 9041,
      "اقیانوس": 9042,
      "مقصود": 9043,
      "جالبی": 9044,
      "قلعه‌نویی": 9045,
      "کاستی": 9046,
      "درب": 9047,
      "ازاده": 9048,
      "اسلح": 9049,
      "خواری": 9050,
      "روز،": 9051,
      "احضار": 9052,
      "مرات": 9053,
      "غیرت": 9054,
      "سریال‌هایی": 9055,
      "رویکردهای": 9056,
      "مرتفع": 9057,
      "نازل": 9058,
      "برپا": 9059,
      "می‌شویم.": 9060,
      "ناچار": 9061,
      "گفته‌اند": 9062,
      "د.»": 9063,
      "اصد": 9064,
      "انجام‌نشده": 9065,
      "مصرفی": 9066,
      "نقاشی": 9067,
      "استانداری": 9068,
      "جزایر": 9069,
      "۱۵:۴": 9070,
      "محرومی": 9071,
      "تغییری": 9072,
      "سریعتر": 9073,
      "جداگانه": 9074,
      "می‌پردازد": 9075,
      "می‌بینند": 9076,
      "ثالث": 9077,
      "گندم": 9078,
      "ارکستر": 9079,
      "عارض": 9080,
      "لتی": 9081,
      "لهم": 9082,
      "‌آزمایی": 9083,
      "به‌نام": 9084,
      "امینی": 9085,
      "دید،": 9086,
      "پایبند": 9087,
      "نشوی": 9088,
      "کامران": 9089,
      "عزیزمان": 9090,
      "موجود،": 9091,
      "ارسالی": 9092,
      "فشارهای": 9093,
      "بغداد": 9094,
      "مصیبت": 9095,
      "An": 9096,
      "ببند": 9097,
      "بمب": 9098,
      "ثم": 9099,
      "کهای": 9100,
      "نه.": 9101,
      "سرور": 9102,
      "کرمی": 9103,
      "ساعته": 9104,
      "1395": 9105,
      "موسس": 9106,
      "خاموشی": 9107,
      "جامعه‌ای": 9108,
      "کشتار": 9109,
      "مریخ": 9110,
      "پاری‌سن‌ژرمن": 9111,
      "ممانعت": 9112,
      "می‌رسی": 9113,
      "پین": 9114,
      "دادستانی": 9115,
      "ترغیب": 9116,
      "باشد؟": 9117,
      "جلسه،": 9118,
      "لازم‌ال": 9119,
      "تصاویری": 9120,
      "\"دنیا،": 9121,
      "(با": 9122,
      "رضو": 9123,
      "رزمان": 9124,
      "نکردند.": 9125,
      "گازی": 9126,
      "طرفه": 9127,
      "معاویه": 9128,
      "مادرش": 9129,
      "مقاومتی": 9130,
      "شواهد": 9131,
      "فضیلت": 9132,
      "He": 9133,
      "جهر": 9134,
      "فونی": 9135,
      "توکلی": 9136,
      "فرقی": 9137,
      "عدالتی": 9138,
      "فرزندش": 9139,
      "ویدئو": 9140,
      "ate": 9141,
      "بروند.": 9142,
      "سیاه‌": 9143,
      "‌آفرین": 9144,
      "جرات": 9145,
      "رکود": 9146,
      "غلامی": 9147,
      "فصلی": 9148,
      "پلیسی": 9149,
      "هموار": 9150,
      "دومی": 9151,
      "کارمند": 9152,
      "دانشی": 9153,
      "پیش‌تر": 9154,
      "آیتم": 9155,
      "تعاونی": 9156,
      "خدا،": 9157,
      "غیررسمی": 9158,
      "ant": 9159,
      "قضائیه،": 9160,
      "آوردند": 9161,
      "مجریان": 9162,
      "سقط‌": 9163,
      "بشناس": 9164,
      "سالها": 9165,
      "ترمیم": 9166,
      "داشته‌ایم": 9167,
      "اصابت": 9168,
      "نامگذاری": 9169,
      "قطب": 9170,
      "لایق": 9171,
      "گران‌": 9172,
      "ترکیه،": 9173,
      "سیستم‌های": 9174,
      "عبادت": 9175,
      "شعارهای": 9176,
      "اذهان": 9177,
      "درخشش": 9178,
      "سلول‌های": 9179,
      "پاستور": 9180,
      "تقلید": 9181,
      "لبخ": 9182,
      "نشد،": 9183,
      "کاک": 9184,
      "الج": 9185,
      "گیلان": 9186,
      "ایران»": 9187,
      "وهله": 9188,
      "هواف": 9189,
      "قدرت‌های": 9190,
      "خاطره‌ای": 9191,
      "حسینیه": 9192,
      "مشاوران": 9193,
      "می‌رویم": 9194,
      "فرارسیدن": 9195,
      "عراقی‌ها": 9196,
      "خزان": 9197,
      "شص": 9198,
      "لکن": 9199,
      "بردار": 9200,
      "هرکس": 9201,
      "داده‌ایم": 9202,
      "مستحکم": 9203,
      "دین،": 9204,
      "جمهوری،": 9205,
      "درصد،": 9206,
      "تعیین‌کننده": 9207,
      "امیرمومنان": 9208,
      "ساترا": 9209,
      "خطیبی": 9210,
      "عقلانیت": 9211,
      "هرمزگان": 9212,
      "Re": 9213,
      "بعید": 9214,
      "غرق": 9215,
      "لالی": 9216,
      "پاسی": 9217,
      "ژست": 9218,
      "شود؟": 9219,
      "دولتمردان": 9220,
      "گردد": 9221,
      "فجر،": 9222,
      "چشمگیر": 9223,
      "افتتاحیه": 9224,
      "اندیشمند": 9225,
      "مشتاق": 9226,
      "توحید": 9227,
      "نقل‌وانتقالات": 9228,
      "نکنند.": 9229,
      "نکرده‌اند": 9230,
      "سیمای": 9231,
      "ناص": 9232,
      "ناکارآمدی": 9233,
      "سرلک": 9234,
      "آینه": 9235,
      "سریال‌سازی": 9236,
      "زمین‌های": 9237,
      "سخت‌ترین": 9238,
      "عباد": 9239,
      "بالاتری": 9240,
      "توطئه": 9241,
      "می‌خوانید:": 9242,
      "کاندیدا": 9243,
      "ا»": 9244,
      "صدری": 9245,
      "فقیر": 9246,
      "لژی": 9247,
      "یاز": 9248,
      "بادر": 9249,
      "روشی": 9250,
      "بیح": 9251,
      "‌ها\"": 9252,
      "دوبله": 9253,
      "پیچ": 9254,
      "نواحی": 9255,
      "معاف": 9256,
      "متروی": 9257,
      "سرشار": 9258,
      "تهیه‌شده": 9259,
      "روایت‌های": 9260,
      "‌نشده‌است،": 9261,
      "خلافت": 9262,
      "بیمارستان‌های": 9263,
      "صمیمانه": 9264,
      "بزنیم.": 9265,
      "صلوات": 9266,
      "لژیون": 9267,
      "سپاس": 9268,
      "فلو": 9269,
      "میان،": 9270,
      "باکیفیت": 9271,
      "ماهانه": 9272,
      "گردید": 9273,
      "کتاب‌هایی": 9274,
      "خواستند": 9275,
      "کاهش‌یافته": 9276,
      "ast": 9277,
      "انگشت": 9278,
      "مداوم": 9279,
      "ولایت‌فقیه": 9280,
      "می‌خواستیم": 9281,
      "(و": 9282,
      "آه": 9283,
      "تایل": 9284,
      "صفت": 9285,
      "مزار": 9286,
      "مداری": 9287,
      "ورات": 9288,
      "‌بخشی": 9289,
      "انز": 9290,
      "فرش": 9291,
      "فرآورده": 9292,
      "اعتی": 9293,
      "۰۰:۰": 9294,
      "مطلوبی": 9295,
      "کلیپ": 9296,
      "پژوهشکده": 9297,
      "جست‌و": 9298,
      "سلطانی": 9299,
      "سقط‌جنین": 9300,
      "der": 9301,
      "حکام": 9302,
      "مبنا": 9303,
      "نمی‌کنیم": 9304,
      "شد!": 9305,
      "اقلی": 9306,
      "اصلح": 9307,
      "توسل": 9308,
      "2018": 9309,
      "are": 9310,
      ":30.": 9311,
      "جسمانی": 9312,
      "رقبای": 9313,
      "6)": 9314,
      "81": 9315,
      "Love": 9316,
      "med": 9317,
      "‌ت": 9318,
      "جهت‌": 9319,
      "ناکی": 9320,
      "محر": 9321,
      "افشین": 9322,
      "امامی": 9323,
      "اطرافی": 9324,
      "جمشیدی": 9325,
      "بوستان": 9326,
      "اثرگذاری": 9327,
      "ارزش‌ها": 9328,
      "شاعری": 9329,
      "مصرف‌کننده": 9330,
      "عبارتند": 9331,
      "هواپیمایی": 9332,
      "می‌گذارد.": 9333,
      "خزانه": 9334,
      "«با": 9335,
      "تط": 9336,
      "‌فرد": 9337,
      "نواب": 9338,
      "احل": 9339,
      "حضر": 9340,
      "جایز": 9341,
      "پاسخی": 9342,
      "جهان‌": 9343,
      "برخاست": 9344,
      "جریانات": 9345,
      "حداقلی": 9346,
      "بنابراین،": 9347,
      "سکونت": 9348,
      "فقره": 9349,
      "جان‌باختگان": 9350,
      "نات": 9351,
      "کویت": 9352,
      "اهلی": 9353,
      "اسبی": 9354,
      "ناجا": 9355,
      "بی‌سابقه": 9356,
      "هواپیماه": 9357,
      "برون‌مرزی": 9358,
      "یقی": 9359,
      "موت": 9360,
      "یکصد": 9361,
      "زیرمجموعه": 9362,
      "بیمه‌ای": 9363,
      "تلویزیون،": 9364,
      "مفق": 9365,
      "سادگی": 9366,
      "نشانی:": 9367,
      "الوگ": 9368,
      "62": 9369,
      "پیکی": 9370,
      "‌مدت": 9371,
      "‌برانگیز": 9372,
      "الناس": 9373,
      "بیند.": 9374,
      "موازی": 9375,
      "نامه‌ها": 9376,
      "کننده‌ای": 9377,
      "قیمتی": 9378,
      "یک‌طرف": 9379,
      "خوزستان،": 9380,
      "بازنشسته": 9381,
      "همسان‌سازی": 9382,
      "De": 9383,
      "Th": 9384,
      "خوی": 9385,
      "نصر": 9386,
      "هج": 9387,
      "هدر": 9388,
      "ایمانی": 9389,
      "ه‌مان": 9390,
      "تعارف": 9391,
      "سهل": 9392,
      "واکسن،": 9393,
      "صبح.": 9394,
      "ity": 9395,
      "وزارتخانه‌ها": 9396,
      "مونیخ": 9397,
      "العظمی": 9398,
      "\"و": 9399,
      "9.": 9400,
      ":15": 9401,
      "قاق": 9402,
      "نبوی": 9403,
      "ژاوی": 9404,
      "همسران": 9405,
      "تاپ": 9406,
      "نظی": 9407,
      "شهرت": 9408,
      "دفن": 9409,
      "امام،": 9410,
      "جوانان،": 9411,
      "اطلاعات،": 9412,
      "مادرم": 9413,
      "بگذارد.": 9414,
      "راهنمای": 9415,
      "احتیاط": 9416,
      "مطالبه‌گری": 9417,
      "duc": 9418,
      "ser": 9419,
      "عشی": 9420,
      "گلو": 9421,
      "ستاری": 9422,
      "گفتگوی": 9423,
      "مشق": 9424,
      "رفیق": 9425,
      "طبقات": 9426,
      "انسان‌های": 9427,
      "انتقالاتی": 9428,
      "رحمان": 9429,
      "سرمایه‌گذاران": 9430,
      "لطمه": 9431,
      "پایگاه‌های": 9432,
      "آسیب‌پذیر": 9433,
      "گیرانه": 9434,
      "می‌بینم": 9435,
      "کمرنگ": 9436,
      "استثنایی": 9437,
      "یامگا": 9438,
      "ایتالیایی": 9439,
      "ببیند": 9440,
      "غفوری": 9441,
      "دریاد": 9442,
      "ه‌کنندگان": 9443,
      "همه‌ی": 9444,
      "دوگانه": 9445,
      "خیاب": 9446,
      "زدگی": 9447,
      "حاج‌": 9448,
      "صفات": 9449,
      "چین،": 9450,
      "آسانی": 9451,
      "استادیوم": 9452,
      "نیامده": 9453,
      "(که": 9454,
      "اباع": 9455,
      "گه": 9456,
      "لیور": 9457,
      "بیستم": 9458,
      "نادری": 9459,
      "شهاد": 9460,
      "نداشتم": 9461,
      "دانستند": 9462,
      "ارسال‌شده": 9463,
      "میرباقری": 9464,
      "مبلغی": 9465,
      "ach": 9466,
      "فناورانه": 9467,
      "مرادمند": 9468,
      "سنوات": 9469,
      "کی‌روش": 9470,
      "83": 9471,
      "اشر": 9472,
      "جت": 9473,
      "شانه": 9474,
      "رواج": 9475,
      "یک،": 9476,
      "کنوان": 9477,
      "کوب": 9478,
      "کوشش": 9479,
      "غیرمستقیم": 9480,
      "پژوهش‌ها": 9481,
      "دفترچه": 9482,
      "هیچ‌وقت": 9483,
      "مهارت‌های": 9484,
      "تیرانداز": 9485,
      "گودرزی": 9486,
      "دلا": 9487,
      "عجل": 9488,
      "فلاح": 9489,
      "پی‌": 9490,
      "متحمل": 9491,
      "اکوسی": 9492,
      "اشناسی": 9493,
      "پیشران": 9494,
      "جهانبخش": 9495,
      "فدراسیون‌های": 9496,
      "آمده،": 9497,
      "شکستن": 9498,
      "معرفی‌شده": 9499,
      "روستاهای": 9500,
      "نمود.": 9501,
      "تازه‌": 9502,
      "اطلاعیه‌ای": 9503,
      "ular": 9504,
      "ارجمند": 9505,
      "(چهارشنبه)": 9506,
      "اضطراری": 9507,
      "جیمز": 9508,
      "جبر": 9509,
      "دلت": 9510,
      "کبر": 9511,
      "انگلستان": 9512,
      "درود": 9513,
      "درهای": 9514,
      "فرجه": 9515,
      "خوشی": 9516,
      "نوجوانی": 9517,
      "افشار": 9518,
      "نامش": 9519,
      "قوی‌تر": 9520,
      "ساواک": 9521,
      "عنایتی": 9522,
      "حری": 9523,
      "چس": 9524,
      "کاف": 9525,
      "سیار": 9526,
      "سی‌ها": 9527,
      "مناج": 9528,
      "فیقی": 9529,
      "تحرک": 9530,
      "علی،": 9531,
      "ائب": 9532,
      "گردانی": 9533,
      "کنیم؟": 9534,
      "زمینه‌ها": 9535,
      "برسند.": 9536,
      "1000": 9537,
      "وحشی": 9538,
      "track": 9539,
      "آدمی": 9540,
      "کنوانسیون": 9541,
      "بوت": 9542,
      "عرو": 9543,
      "فیک": 9544,
      "مگاو": 9545,
      "کوری": 9546,
      "برآورده": 9547,
      "هم،": 9548,
      "فرشته": 9549,
      "فرمایی": 9550,
      "معدل": 9551,
      "نمی‌رود": 9552,
      "کوبا": 9553,
      "جهانیان": 9554,
      "فرادی": 9555,
      "لایه‌های": 9556,
      "مصوبه‌ای": 9557,
      "طلبه": 9558,
      "۱۶:۲": 9559,
      "تازه‌ترین": 9560,
      "ابزاری": 9561,
      "عرفانی": 9562,
      "mo": 9563,
      "بگذاری": 9564,
      "سروش": 9565,
      "مضامین": 9566,
      "وایی": 9567,
      "ایا": 9568,
      "استارت": 9569,
      "اقامه": 9570,
      "مقالات": 9571,
      "عهدی": 9572,
      "رفاهی": 9573,
      "نمی‌توانست": 9574,
      "هواشناسی": 9575,
      "زمینه‌ای": 9576,
      "شهری،": 9577,
      "هشتمین": 9578,
      "رحمانی": 9579,
      "محیط‌زیست،": 9580,
      "الهی،": 9581,
      "سختی‌ها": 9582,
      "هیچ‌کدام": 9583,
      "احتیاج": 9584,
      "بنگاه‌های": 9585,
      "مستقیما": 9586,
      "عذاب": 9587,
      "اباعبد": 9588,
      "(پنجشنبه": 9589,
      "ww": 9590,
      "هند،": 9591,
      "استر": 9592,
      "همرزمان": 9593,
      "منازل": 9594,
      "کارگاه": 9595,
      "کارآفرینی": 9596,
      "یم؛": 9597,
      "رسم": 9598,
      "سواحل": 9599,
      "ماه،": 9600,
      "حسنه": 9601,
      "پنجه": 9602,
      "1392": 9603,
      "مقاوم": 9604,
      "شنیدم": 9605,
      "خاتمی": 9606,
      "مکرم": 9607,
      "بهینه": 9608,
      "73": 9609,
      "ct": 9610,
      "شه‌ای": 9611,
      "مبین": 9612,
      "نصف": 9613,
      "واع": 9614,
      "راکت": 9615,
      "برد،": 9616,
      "مائ": 9617,
      "منوی": 9618,
      "مهری": 9619,
      "گزارشات": 9620,
      "مصمم": 9621,
      "کوفه": 9622,
      "160": 9623,
      "عقب‌نشینی": 9624,
      "اسرار": 9625,
      "صاحب‌نظران": 9626,
      "خنده": 9627,
      "و....": 9628,
      "دوپینگ": 9629,
      "بازخوانی": 9630,
      "احس": 9631,
      "بستن": 9632,
      "داخلی،": 9633,
      "نابرا": 9634,
      "فارسی‌زبان": 9635,
      "بحران‌های": 9636,
      "کم‌کاری": 9637,
      "ناسا": 9638,
      "موردی": 9639,
      "ناگهان": 9640,
      "اگو": 9641,
      "بدست": 9642,
      "پیاپی": 9643,
      "معوق": 9644,
      "خواهران": 9645,
      "اردن": 9646,
      "کاشت": 9647,
      "آمدم": 9648,
      "چاره‌ای": 9649,
      "دفتری": 9650,
      "می‌برند": 9651,
      "igin": 9652,
      "حامیان": 9653,
      "غایب": 9654,
      "ساید": 9655,
      "فرعی": 9656,
      "داد؛": 9657,
      "لایه": 9658,
      "ers": 9659,
      "تجزی": 9660,
      "وارده": 9661,
      "فرصت‌ها": 9662,
      "غالبا": 9663,
      "چیزها": 9664,
      "فرمانداری": 9665,
      "زخمی": 9666,
      "مداخله": 9667,
      "گنجینه": 9668,
      "لیورپول": 9669,
      "It": 9670,
      "over": 9671,
      "ذائ": 9672,
      "ظل": 9673,
      "امروزی": 9674,
      "زیارتی": 9675,
      "سرم": 9676,
      "بخورد": 9677,
      "شوم.": 9678,
      "مهرعلیزاده": 9679,
      "هفتمین": 9680,
      "چشمگیری": 9681,
      "پهپ": 9682,
      "پادگان": 9683,
      "قاتل": 9684,
      "طلاق": 9685,
      "فیلمنام": 9686,
      "دخیل": 9687,
      "شائ": 9688,
      "غو": 9689,
      "گور": 9690,
      "‌ست": 9691,
      "‌تان": 9692,
      "اندر": 9693,
      "ام،": 9694,
      "کارانه": 9695,
      "کیف": 9696,
      "مدیون": 9697,
      "نخور": 9698,
      "رخداد": 9699,
      "درآمدزایی": 9700,
      "قلمداد": 9701,
      "تاریکی": 9702,
      "ارزشیابی": 9703,
      "وضوح": 9704,
[...]
