{
  "version": "1.0",
  "truncation": null,
  "padding": null,
  "added_tokens": [
    {
      "id": 0,
      "content": "[UNK]",
      "single_word": false,
      "lstrip": false,
      "rstrip": false,
      "normalized": false,
      "special": true
    },
    {
      "id": 1,
      "content": "[CLS]",
      "single_word": false,
      "lstrip": false,
      "rstrip": false,
      "normalized": false,
      "special": true
    },
    {
      "id": 2,
      "content": "[SEP]",
      "single_word": false,
      "lstrip": false,
      "rstrip": false,
      "normalized": false,
      "special": true
    },
    {
      "id": 3,
      "content": "[PAD]",
      "single_word": false,
      "lstrip": false,
      "rstrip": false,
      "normalized": false,
      "special": true
    },
    {
      "id": 4,
      "content": "[MASK]",
      "single_word": false,
      "lstrip": false,
      "rstrip": false,
      "normalized": false,
      "special": true
    },
    {
      "id": 5,
      "content": "[START]",
      "single_word": false,
      "lstrip": false,
      "rstrip": false,
      "normalized": false,
      "special": true
    },
    {
      "id": 6,
      "content": "[END]",
      "single_word": false,
      "lstrip": false,
      "rstrip": false,
      "normalized": false,
      "special": true
    },
    {
      "id": 7,
      "content": "[START-USER]",
      "single_word": false,
      "lstrip": false,
      "rstrip": false,
      "normalized": false,
      "special": true
    },
    {
      "id": 8,
      "content": "[END-USER]",
      "single_word": false,
      "lstrip": false,
      "rstrip": false,
      "normalized": false,
      "special": true
    },
    {
      "id": 9,
      "content": "[START-SYSTEM]",
      "single_word": false,
      "lstrip": false,
      "rstrip": false,
      "normalized": false,
      "special": true
    },
    {
      "id": 10,
      "content": "[END-SYSTEM]",
      "single_word": false,
      "lstrip": false,
      "rstrip": false,
      "normalized": false,
      "special": true
    },
    {
      "id": 11,
      "content": "[START-ASSISTANT]",
      "single_word": false,
      "lstrip": false,
      "rstrip": false,
      "normalized": false,
      "special": true
    },
    {
      "id": 12,
      "content": "[END-ASSISTANT]",
      "single_word": false,
      "lstrip": false,
      "rstrip": false,
      "normalized": false,
      "special": true
    }
  ],
  "normalizer": null,
  "pre_tokenizer": {
    "type": "Whitespace"
  },
  "post_processor": null,
  "decoder": null,
  "model": {
    "type": "BPE",
    "dropout": null,
    "unk_token": "[UNK]",
    "continuing_subword_prefix": null,
    "end_of_word_suffix": null,
    "fuse_unk": false,
    "byte_fallback": false,
    "vocab": {
      "[UNK]": 0,
      "[CLS]": 1,
      "[SEP]": 2,
      "[PAD]": 3,
      "[MASK]": 4,
      "[START]": 5,
      "[END]": 6,
      "[START-USER]": 7,
      "[END-USER]": 8,
      "[START-SYSTEM]": 9,
      "[END-SYSTEM]": 10,
      "[START-ASSISTANT]": 11,
      "[END-ASSISTANT]": 12,
      "!": 13,
      "\"": 14,
      "#": 15,
      "$": 16,
      "%": 17,
      "&": 18,
      "'": 19,
      "(": 20,
      ")": 21,
      "*": 22,
      "+": 23,
      "-": 24,
      ".": 25,
      "/": 26,
      "0": 27,
      "1": 28,
      "2": 29,
      "3": 30,
      "4": 31,
      "5": 32,
      "6": 33,
      "7": 34,
      "8": 35,
      "9": 36,
      ":": 37,
      ";": 38,
      "<": 39,
      "=": 40,
      ">": 41,
      "?": 42,
      "@": 43,
      "A": 44,
      "B": 45,
      "C": 46,
      "D": 47,
      "E": 48,
      "F": 49,
      "G": 50,
      "H": 51,
      "I": 52,
      "J": 53,
      "K": 54,
      "L": 55,
      "M": 56,
      "N": 57,
      "O": 58,
      "P": 59,
      "Q": 60,
      "R": 61,
      "S": 62,
      "T": 63,
      "U": 64,
      "V": 65,
      "W": 66,
      "X": 67,
      "Y": 68,
      "Z": 69,
      "[": 70,
      "\\": 71,
      "]": 72,
      "^": 73,
      "_": 74,
      "`": 75,
      "a": 76,
      "b": 77,
      "c": 78,
      "d": 79,
      "e": 80,
      "f": 81,
      "g": 82,
      "h": 83,
      "i": 84,
      "j": 85,
      "k": 86,
      "l": 87,
      "m": 88,
      "n": 89,
      "o": 90,
      "p": 91,
      "q": 92,
      "r": 93,
      "s": 94,
      "t": 95,
      "u": 96,
      "v": 97,
      "w": 98,
      "x": 99,
      "y": 100,
      "z": 101,
      "{": 102,
      "|": 103,
      "}": 104,
      "~": 105,
      "": 106,
      "": 107,
      "": 108,
      "": 109,
      "¡": 110,
      "¢": 111,
      "£": 112,
      "¤": 113,
      "¥": 114,
      "¦": 115,
      "§": 116,
      "©": 117,
      "ª": 118,
      "«": 119,
      "­": 120,
      "®": 121,
      "¯": 122,
      "°": 123,
      "±": 124,
      "²": 125,
      "³": 126,
      "´": 127,
      "µ": 128,
      "¸": 129,
      "¹": 130,
      "º": 131,
      "»": 132,
      "¼": 133,
      "½": 134,
      "¾": 135,
      "À": 136,
      "Á": 137,
      "Â": 138,
      "Ä": 139,
      "Å": 140,
      "Æ": 141,
      "Ç": 142,
      "È": 143,
      "É": 144,
      "Ê": 145,
      "Ë": 146,
      "Í": 147,
      "Î": 148,
      "Ð": 149,
      "Ñ": 150,
      "Ò": 151,
      "Ó": 152,
      "Ö": 153,
      "×": 154,
      "Ø": 155,
      "Ú": 156,
      "Û": 157,
      "Ü": 158,
      "Þ": 159,
      "ß": 160,
      "à": 161,
      "á": 162,
      "â": 163,
      "ã": 164,
      "ä": 165,
      "å": 166,
      "æ": 167,
      "ç": 168,
      "è": 169,
      "é": 170,
      "ê": 171,
      "ë": 172,
      "ì": 173,
      "í": 174,
      "î": 175,
      "ï": 176,
      "ð": 177,
      "ñ": 178,
      "ò": 179,
      "ó": 180,
      "ô": 181,
      "õ": 182,
      "ö": 183,
      "÷": 184,
      "ø": 185,
      "ù": 186,
      "ú": 187,
      "û": 188,
      "ü": 189,
      "ý": 190,
      "þ": 191,
      "ÿ": 192,
      "Ā": 193,
      "ā": 194,
      "Ă": 195,
      "ă": 196,
      "Ą": 197,
      "ą": 198,
      "Ć": 199,
      "ć": 200,
      "Ĉ": 201,
      "Č": 202,
      "č": 203,
      "Ď": 204,
      "ď": 205,
      "Đ": 206,
      "đ": 207,
      "Ē": 208,
      "ē": 209,
      "Ĕ": 210,
      "ė": 211,
      "ę": 212,
      "ě": 213,
      "Ĝ": 214,
      "ĝ": 215,
      "Ğ": 216,
      "ğ": 217,
      "ġ": 218,
      "Ĥ": 219,
      "ħ": 220,
      "ĩ": 221,
      "Ī": 222,
      "ī": 223,
      "İ": 224,
      "ı": 225,
      "Ĵ": 226,
      "ĵ": 227,
      "ķ": 228,
      "ļ": 229,
      "Ľ": 230,
      "ľ": 231,
      "Ł": 232,
      "ł": 233,
      "ń": 234,
      "ņ": 235,
      "ň": 236,
      "ŋ": 237,
      "Ō": 238,
      "ō": 239,
      "ŏ": 240,
      "ő": 241,
      "Œ": 242,
      "œ": 243,
      "ŗ": 244,
      "ř": 245,
      "Ś": 246,
      "ś": 247,
      "Ŝ": 248,
      "ŝ": 249,
      "Ş": 250,
      "ş": 251,
      "Š": 252,
      "š": 253,
      "Ţ": 254,
      "ţ": 255,
      "Ť": 256,
      "ť": 257,
      "ũ": 258,
      "Ū": 259,
      "ū": 260,
      "Ŭ": 261,
      "ŭ": 262,
      "ů": 263,
      "ź": 264,
      "Ż": 265,
      "ż": 266,
      "Ž": 267,
      "ž": 268,
      "Ə": 269,
      "ƒ": 270,
      "ƛ": 271,
      "Ɵ": 272,
      "ơ": 273,
      "ư": 274,
      "ǃ": 275,
      "ǎ": 276,
      "ǐ": 277,
      "ǒ": 278,
      "ǔ": 279,
      "ǜ": 280,
      "ǝ": 281,
      "ǧ": 282,
      "ǰ": 283,
      "ǵ": 284,
      "Ș": 285,
      "ș": 286,
      "Ț": 287,
      "ț": 288,
      "ȟ": 289,
      "ɐ": 290,
      "ɑ": 291,
      "ɒ": 292,
      "ɔ": 293,
      "ɘ": 294,
      "ə": 295,
      "ɛ": 296,
      "ɜ": 297,
      "ɡ": 298,
      "ɢ": 299,
      "ɣ": 300,
      "ɥ": 301,
      "ɨ": 302,
      "ɪ": 303,
      "ɲ": 304,
      "ɵ": 305,
      "ɾ": 306,
      "ʁ": 307,
      "ʂ": 308,
      "ʃ": 309,
      "ʊ": 310,
      "ʏ": 311,
      "ʔ": 312,
      "ʝ": 313,
      "ʰ": 314,
      "ʱ": 315,
      "ʹ": 316,
      "ʺ": 317,
      "ʻ": 318,
      "ʼ": 319,
      "ʾ": 320,
      "ʿ": 321,
      "ˀ": 322,
      "˂": 323,
      "˃": 324,
      "ˇ": 325,
      "ˈ": 326,
      "ˌ": 327,
      "ː": 328,
      "˘": 329,
      "˚": 330,
      "́": 331,
      "̃": 332,
      "̅": 333,
      "̆": 334,
      "̇": 335,
      "̈": 336,
      "̊": 337,
      "̌": 338,
      "̎": 339,
      "̥": 340,
      "̩": 341,
      "̪": 342,
      "̲": 343,
      "͡": 344,
      "΄": 345,
      "΅": 346,
      "Ά": 347,
      "Έ": 348,
      "Α": 349,
      "Β": 350,
      "Γ": 351,
      "Δ": 352,
      "Ε": 353,
      "Ζ": 354,
      "Η": 355,
      "Θ": 356,
      "Ι": 357,
      "Κ": 358,
      "Λ": 359,
      "Μ": 360,
      "Ν": 361,
      "Ξ": 362,
      "Ο": 363,
      "Π": 364,
      "Ρ": 365,
      "Σ": 366,
      "Τ": 367,
      "Υ": 368,
      "Φ": 369,
      "Χ": 370,
      "Ψ": 371,
      "Ω": 372,
      "ά": 373,
      "έ": 374,
      "ή": 375,
      "ί": 376,
      "α": 377,
      "β": 378,
      "γ": 379,
      "δ": 380,
      "ε": 381,
      "ζ": 382,
      "η": 383,
      "θ": 384,
      "ι": 385,
      "κ": 386,
      "λ": 387,
      "μ": 388,
      "ν": 389,
      "ξ": 390,
      "ο": 391,
      "π": 392,
      "ρ": 393,
      "ς": 394,
      "σ": 395,
      "τ": 396,
      "υ": 397,
      "φ": 398,
      "χ": 399,
      "ψ": 400,
      "ω": 401,
      "ϊ": 402,
      "ό": 403,
      "ύ": 404,
      "ώ": 405,
      "ϑ": 406,
      "ϒ": 407,
      "ϕ": 408,
      "ϵ": 409,
      "Ϸ": 410,
      "ϸ": 411,
      "Ђ": 412,
      "Є": 413,
      "Ј": 414,
      "Љ": 415,
      "Њ": 416,
      "А": 417,
      "Б": 418,
      "В": 419,
      "Г": 420,
      "Д": 421,
      "Е": 422,
      "Ж": 423,
      "З": 424,
      "И": 425,
      "К": 426,
      "Л": 427,
      "М": 428,
      "Н": 429,
      "О": 430,
      "П": 431,
      "Р": 432,
      "С": 433,
      "Т": 434,
      "У": 435,
      "Ф": 436,
      "Х": 437,
      "Ц": 438,
      "Ч": 439,
      "Ш": 440,
      "Щ": 441,
      "Ы": 442,
      "Э": 443,
      "Ю": 444,
      "Я": 445,
      "а": 446,
      "б": 447,
      "в": 448,
      "г": 449,
      "д": 450,
      "е": 451,
      "ж": 452,
      "з": 453,
      "и": 454,
      "й": 455,
      "к": 456,
      "л": 457,
      "м": 458,
      "н": 459,
      "о": 460,
      "п": 461,
      "р": 462,
      "с": 463,
      "т": 464,
      "у": 465,
      "ф": 466,
      "х": 467,
      "ц": 468,
      "ч": 469,
      "ш": 470,
      "щ": 471,
      "ъ": 472,
      "ы": 473,
      "ь": 474,
      "э": 475,
      "ю": 476,
      "я": 477,
      "ё": 478,
      "є": 479,
      "і": 480,
      "ї": 481,
      "ј": 482,
      "њ": 483,
      "ћ": 484,
      "ќ": 485,
      "ў": 486,
      "ґ": 487,
      "ғ": 488,
      "Җ": 489,
      "Қ": 490,
      "қ": 491,
      "ң": 492,
      "ү": 493,
      "ұ": 494,
      "ҳ": 495,
      "ҷ": 496,
      "һ": 497,
      "ӑ": 498,
      "ӕ": 499,
      "ә": 500,
      "ӣ": 501,
      "Ө": 502,
      "ө": 503,
      "Ա": 504,
      "Գ": 505,
      "Դ": 506,
      "Ե": 507,
      "Զ": 508,
      "Է": 509,
      "Թ": 510,
      "Ի": 511,
      "Խ": 512,
      "Կ": 513,
      "Հ": 514,
      "Ճ": 515,
      "Մ": 516,
      "Ն": 517,
      "Շ": 518,
      "Ո": 519,
      "Չ": 520,
      "Պ": 521,
      "Ջ": 522,
      "Ռ": 523,
      "Ս": 524,
      "Վ": 525,
      "Տ": 526,
      "Ց": 527,
      "Ք": 528,
      "ա": 529,
      "բ": 530,
      "գ": 531,
      "դ": 532,
      "ե": 533,
      "զ": 534,
      "է": 535,
      "թ": 536,
      "ի": 537,
      "լ": 538,
      "խ": 539,
      "ծ": 540,
      "կ": 541,
      "հ": 542,
      "ձ": 543,
      "ղ": 544,
      "ճ": 545,
      "մ": 546,
      "յ": 547,
      "ն": 548,
      "շ": 549,
      "ո": 550,
      "չ": 551,
      "պ": 552,
      "ջ": 553,
      "ռ": 554,
      "ս": 555,
      "վ": 556,
      "տ": 557,
      "ր": 558,
      "ց": 559,
      "ւ": 560,
      "փ": 561,
      "ք": 562,
      "և": 563,
      "ְ": 564,
      "ֱ": 565,
      "ִ": 566,
      "ֵ": 567,
      "ֶ": 568,
      "ַ": 569,
      "ָ": 570,
      "ֹ": 571,
      "ּ": 572,
      "־": 573,
      "ֿ": 574,
      "ׁ": 575,
      "א": 576,
      "ב": 577,
      "ג": 578,
      "ד": 579,
      "ה": 580,
      "ו": 581,
      "ז": 582,
      "ח": 583,
      "ט": 584,
      "י": 585,
      "ך": 586,
      "כ": 587,
      "ל": 588,
      "ם": 589,
      "מ": 590,
      "ן": 591,
      "נ": 592,
      "ס": 593,
      "ע": 594,
      "ף": 595,
      "פ": 596,
      "ץ": 597,
      "צ": 598,
      "ק": 599,
      "ר": 600,
      "ש": 601,
      "ת": 602,
      "װ": 603,
      "،": 604,
      "؍": 605,
      "؛": 606,
      "؜": 607,
      "؟": 608,
      "ء": 609,
      "آ": 610,
      "ئ": 611,
      "ا": 612,
      "ب": 613,
      "ت": 614,
      "ث": 615,
      "ج": 616,
      "ح": 617,
      "خ": 618,
      "د": 619,
      "ذ": 620,
      "ر": 621,
      "ز": 622,
      "س": 623,
      "ش": 624,
      "ص": 625,
      "ض": 626,
      "ط": 627,
      "ظ": 628,
      "ع": 629,
      "غ": 630,
      "ف": 631,
      "ق": 632,
      "ل": 633,
      "م": 634,
      "ن": 635,
      "ه": 636,
      "و": 637,
      "٠": 638,
      "١": 639,
      "٢": 640,
      "٣": 641,
      "٤": 642,
      "٥": 643,
      "٦": 644,
      "٧": 645,
      "٨": 646,
      "٩": 647,
      "٪": 648,
      "٭": 649,
      "ٴ": 650,
      "پ": 651,
      "چ": 652,
      "ژ": 653,
      "ک": 654,
      "گ": 655,
      "ی": 656,
      "۰": 657,
      "۱": 658,
      "۲": 659,
      "۳": 660,
      "۴": 661,
      "۵": 662,
      "۶": 663,
      "۷": 664,
      "۸": 665,
      "۹": 666,
      "ܐ": 667,
      "ܒ": 668,
      "ܓ": 669,
      "ܕ": 670,
      "ܗ": 671,
      "ܘ": 672,
      "ܙ": 673,
      "ܛ": 674,
      "ܝ": 675,
      "ܟ": 676,
      "ܠ": 677,
      "ܡ": 678,
      "ܢ": 679,
      "ܣ": 680,
      "ܤ": 681,
      "ܥ": 682,
      "ܦ": 683,
      "ܨ": 684,
      "ܩ": 685,
      "ܪ": 686,
      "ܫ": 687,
      "ܬ": 688,
      "ܰ": 689,
      "ܳ": 690,
      "ܶ": 691,
      "ܺ": 692,
      "ހ": 693,
      "ރ": 694,
      "ބ": 695,
      "ޅ": 696,
      "އ": 697,
      "މ": 698,
      "ފ": 699,
      "ދ": 700,
      "ތ": 701,
      "ގ": 702,
      "ސ": 703,
      "ޝ": 704,
      "ަ": 705,
      "ާ": 706,
      "ި": 707,
      "ީ": 708,
      "ު": 709,
      "ޫ": 710,
      "ޮ": 711,
      "ް": 712,
      "ं": 713,
      "अ": 714,
      "आ": 715,
      "इ": 716,
      "ई": 717,
      "ए": 718,
      "ऐ": 719,
      "क": 720,
      "ख": 721,
      "ग": 722,
      "घ": 723,
      "च": 724,
      "छ": 725,
      "ज": 726,
      "ञ": 727,
      "ट": 728,
      "ठ": 729,
      "ड": 730,
      "ण": 731,
      "त": 732,
      "थ": 733,
      "द": 734,
      "ध": 735,
      "न": 736,
      "प": 737,
      "ब": 738,
      "भ": 739,
      "म": 740,
      "य": 741,
      "र": 742,
      "ल": 743,
      "ळ": 744,
      "व": 745,
      "श": 746,
      "ष": 747,
      "स": 748,
      "ह": 749,
      "ा": 750,
      "ि": 751,
      "ी": 752,
      "ु": 753,
      "ू": 754,
      "ृ": 755,
      "े": 756,
      "ो": 757,
      "ौ": 758,
      "्": 759,
      "॓": 760,
      "ং": 761,
      "অ": 762,
      "আ": 763,
      "ক": 764,
      "গ": 765,
      "ঙ": 766,
      "চ": 767,
      "ত": 768,
      "ন": 769,
      "প": 770,
      "ফ": 771,
      "ব": 772,
      "ম": 773,
      "য": 774,
      "র": 775,
      "ল": 776,
      "শ": 777,
      "স": 778,
      "া": 779,
      "ি": 780,
      "ী": 781,
      "ু": 782,
      "ে": 783,
      "্": 784,
      "ਆ": 785,
      "ਜ": 786,
      "ਮ": 787,
      "ਰ": 788,
      "ਸ": 789,
      "ਾ": 790,
      "ੀ": 791,
      "ં": 792,
      "અ": 793,
      "આ": 794,
      "ક": 795,
      "ખ": 796,
      "ગ": 797,
      "ચ": 798,
      "જ": 799,
      "ઠ": 800,
      "ણ": 801,
      "ત": 802,
      "દ": 803,
      "ધ": 804,
      "ન": 805,
      "ભ": 806,
      "મ": 807,
      "ય": 808,
      "ર": 809,
      "લ": 810,
      "સ": 811,
      "હ": 812,
      "ા": 813,
      "ી": 814,
      "ુ": 815,
      "ે": 816,
      "ો": 817,
      "ૌ": 818,
      "્": 819,
      "କ": 820,
      "ର": 821,
      "ଲ": 822,
      "ା": 823,
      "அ": 824,
      "ஆ": 825,
      "க": 826,
      "ங": 827,
      "ச": 828,
      "ட": 829,
      "த": 830,
      "ந": 831,
      "ப": 832,
      "ய": 833,
      "ர": 834,
      "ற": 835,
      "வ": 836,
      "ா": 837,
      "ி": 838,
      "ு": 839,
      "ூ": 840,
      "ை": 841,
      "்": 842,
      "ం": 843,
      "అ": 844,
      "క": 845,
      "గ": 846,
      "జ": 847,
      "డ": 848,
      "ణ": 849,
      "త": 850,
      "ద": 851,
      "న": 852,
      "బ": 853,
      "మ": 854,
      "య": 855,
      "ర": 856,
      "ల": 857,
      "శ": 858,
      "ష": 859,
      "హ": 860,
      "ా": 861,
      "ి": 862,
      "ు": 863,
      "ూ": 864,
      "ృ": 865,
      "ె": 866,
      "ే": 867,
      "ై": 868,
      "్": 869,
      "ಕ": 870,
      "ಗ": 871,
      "ಡ": 872,
      "ನ": 873,
      "ಯ": 874,
      "ಲ": 875,
      "ಹ": 876,
      "ಾ": 877,
      "ಿ": 878,
      "್": 879,
      "ം": 880,
      "അ": 881,
      "ക": 882,
      "ജ": 883,
      "ട": 884,
      "ണ": 885,
      "ത": 886,
      "ന": 887,
      "പ": 888,
      "ബ": 889,
      "മ": 890,
      "യ": 891,
      "ര": 892,
      "റ": 893,
      "ല": 894,
      "ള": 895,
      "വ": 896,
      "സ": 897,
      "ാ": 898,
      "ി": 899,
      "ീ": 900,
      "ു": 901,
      "ൂ": 902,
      "െ": 903,
      "ൊ": 904,
      "ോ": 905,
      "്": 906,
      "ർ": 907,
      "ක": 908,
      "ඝ": 909,
      "ජ": 910,
      "ද": 911,
      "න": 912,
      "ප": 913,
      "ම": 914,
      "ර": 915,
      "ෂ": 916,
      "හ": 917,
      "්": 918,
      "ා": 919,
      "ි": 920,
      "ก": 921,
      "ค": 922,
      "ง": 923,
      "จ": 924,
      "ช": 925,
      "ซ": 926,
      "ณ": 927,
      "ด": 928,
      "ต": 929,
      "ถ": 930,
      "ท": 931,
      "ธ": 932,
      "น": 933,
      "บ": 934,
      "ป": 935,
      "พ": 936,
      "ภ": 937,
      "ม": 938,
      "ย": 939,
      "ร": 940,
      "ล": 941,
      "ว": 942,
      "ศ": 943,
      "ษ": 944,
      "ส": 945,
      "ห": 946,
      "อ": 947,
      "ะ": 948,
      "ั": 949,
      "า": 950,
      "ิ": 951,
      "ี": 952,
      "ุ": 953,
      "ู": 954,
      "เ": 955,
      "แ": 956,
      "โ": 957,
      "ไ": 958,
      "์": 959,
      "ད": 960,
      "བ": 961,
      "ོ": 962,
      "က": 963,
      "န": 964,
      "မ": 965,
      "ရ": 966,
      "ိ": 967,
      "ု": 968,
      "့": 969,
      "္": 970,
      "ა": 971,
      "ბ": 972,
      "გ": 973,
      "დ": 974,
      "ე": 975,
      "ვ": 976,
      "ზ": 977,
      "თ": 978,
      "ი": 979,
      "კ": 980,
      "ლ": 981,
      "მ": 982,
      "ნ": 983,
      "ო": 984,
      "პ": 985,
      "რ": 986,
      "ს": 987,
      "ტ": 988,
      "უ": 989,
      "ფ": 990,
      "ღ": 991,
      "ყ": 992,
      "შ": 993,
      "ჭ": 994,
      "ხ": 995,
      "ላ": 996,
      "ር": 997,
      "ስ": 998,
      "ቂ": 999,
      "ቆ": 1000,
      "በ": 1001,
      "ቢ": 1002,
      "ባ": 1003,
      "ት": 1004,
      "አ": 1005,
      "ኣ": 1006,
      "ዋ": 1007,
      "ዓ": 1008,
      "ዲ": 1009,
      "ዳ": 1010,
      "ድ": 1011,
      "ក": 1012,
      "ច": 1013,
      "ជ": 1014,
      "ណ": 1015,
      "ព": 1016,
      "ម": 1017,
      "រ": 1018,
      "ា": 1019,
      "ុ": 1020,
      "ះ": 1021,
      "្": 1022,
      "ᵛ": 1023,
      "ᶕ": 1024,
      "ḇ": 1025,
      "ḍ": 1026,
      "ḏ": 1027,
      "ḗ": 1028,
      "Ḡ": 1029,
      "ḡ": 1030,
      "ḣ": 1031,
      "Ḥ": 1032,
      "ḥ": 1033,
      "Ḫ": 1034,
      "ḫ": 1035,
      "ḱ": 1036,
      "Ḳ": 1037,
      "ḵ": 1038,
      "ṃ": 1039,
      "ṅ": 1040,
      "ṇ": 1041,
      "ṙ": 1042,
      "Ṛ": 1043,
      "ṛ": 1044,
      "Ṣ": 1045,
      "ṣ": 1046,
      "Ṭ": 1047,
      "ṭ": 1048,
      "ṯ": 1049,
      "Ṷ": 1050,
      "ṷ": 1051,
      "ẚ": 1052,
      "ạ": 1053,
      "ả": 1054,
      "ầ": 1055,
      "ậ": 1056,
      "ắ": 1057,
      "ằ": 1058,
      "ặ": 1059,
      "ế": 1060,
      "ề": 1061,
      "ể": 1062,
      "ễ": 1063,
      "ệ": 1064,
      "ị": 1065,
      "ố": 1066,
      "ồ": 1067,
      "ộ": 1068,
      "ớ": 1069,
      "ờ": 1070,
      "ụ": 1071,
      "ữ": 1072,
      "ỳ": 1073,
      "ỹ": 1074,
      "ἀ": 1075,
      "ἁ": 1076,
      "ἄ": 1077,
      "ἅ": 1078,
      "Ἀ": 1079,
      "Ἁ": 1080,
      "ἐ": 1081,
      "ἑ": 1082,
      "ἔ": 1083,
      "ἡ": 1084,
      "Ἠ": 1085,
      "ἰ": 1086,
      "ἴ": 1087,
      "ἶ": 1088,
      "ὀ": 1089,
      "ὁ": 1090,
      "ὄ": 1091,
      "ὅ": 1092,
      "Ὀ": 1093,
      "Ὄ": 1094,
      "Ὅ": 1095,
      "ὐ": 1096,
      "ὑ": 1097,
      "ὔ": 1098,
      "ὕ": 1099,
      "Ὑ": 1100,
      "ὴ": 1101,
      "ὶ": 1102,
      "ᾱ": 1103,
      "ᾶ": 1104,
      "ῆ": 1105,
      "ῖ": 1106,
      "ῦ": 1107,
      "Ῥ": 1108,
      "ῳ": 1109,
      "ῶ": 1110,
      "​": 1111,
      "‌": 1112,
      "‍": 1113,
      "‎": 1114,
      "‏": 1115,
      "‐": 1116,
      "‑": 1117,
      "‒": 1118,
      "–": 1119,
      "—": 1120,
      "―": 1121,
      "‘": 1122,
      "’": 1123,
      "„": 1124,
      "†": 1125,
      "…": 1126,
      "‪": 1127,
      "‫": 1128,
      "‬": 1129,
      "‭": 1130,
      "′": 1131,
      "″": 1132,
      "‹": 1133,
      "›": 1134,
      "‼": 1135,
      "⁣": 1136,
      "⁦": 1137,
      "⁧": 1138,
      "⁩": 1139,
      "⁯": 1140,
      "⁰": 1141,
      "⁵": 1142,
      "₂": 1143,
      "₃": 1144,
      "₤": 1145,
      "€": 1146,
      "₱": 1147,
      "₹": 1148,
      "℃": 1149,
      "№": 1150,
      "™": 1151,
      "℧": 1152,
      "ℷ": 1153,
      "⅓": 1154,
      "⅖": 1155,
      "←": 1156,
      "↑": 1157,
      "→": 1158,
      "↓": 1159,
      "↔": 1160,
      "↵": 1161,
      "⇐": 1162,
      "⇒": 1163,
      "⇔": 1164,
      "∀": 1165,
      "∂": 1166,
      "∅": 1167,
      "∆": 1168,
      "∇": 1169,
      "∈": 1170,
      "∉": 1171,
      "∎": 1172,
      "∏": 1173,
      "−": 1174,
      "∗": 1175,
      "√": 1176,
      "∞": 1177,
      "∟": 1178,
      "∧": 1179,
      "∨": 1180,
      "∩": 1181,
      "∪": 1182,
      "∫": 1183,
      "∶": 1184,
      "∼": 1185,
      "≃": 1186,
      "≈": 1187,
      "≠": 1188,
      "≡": 1189,
      "≤": 1190,
      "≥": 1191,
      "≪": 1192,
      "⊂": 1193,
      "⊃": 1194,
      "⊆": 1195,
      "⊤": 1196,
      "⊥": 1197,
      "⊾": 1198,
      "⋅": 1199,
      "␢": 1200,
      "□": 1201,
      "▪": 1202,
      "▫": 1203,
      "◄": 1204,
      "◦": 1205,
      "★": 1206,
      "☆": 1207,
      "☉": 1208,
      "☑": 1209,
      "☫": 1210,
      "♈": 1211,
      "♎": 1212,
      "♓": 1213,
      "♠": 1214,
      "♣": 1215,
      "♥": 1216,
      "♦": 1217,
      "♫": 1218,
      "♭": 1219,
      "♯": 1220,
      "⚤": 1221,
      "⛔": 1222,
      "✅": 1223,
      "✌": 1224,
      "✍": 1225,
      "✔": 1226,
      "✝": 1227,
      "❤": 1228,
      "⦁": 1229,
      "⦜": 1230,
      "⦝": 1231,
      "Ⲑ": 1232,
      "ⲑ": 1233,
      "ⴱ": 1234,
      "ⴳ": 1235,
      "ⴷ": 1236,
      "ⴽ": 1237,
      "ⵄ": 1238,
      "ⵉ": 1239,
      "ⵍ": 1240,
      "ⵎ": 1241,
      "ⵏ": 1242,
      "ⵓ": 1243,
      "ⵔ": 1244,
      "ⵛ": 1245,
      "、": 1246,
      "。": 1247,
      "《": 1248,
      "》": 1249,
      "「": 1250,
      "」": 1251,
      "『": 1252,
      "』": 1253,
      "あ": 1254,
      "い": 1255,
      "う": 1256,
      "え": 1257,
      "か": 1258,
      "が": 1259,
      "く": 1260,
      "け": 1261,
      "げ": 1262,
      "こ": 1263,
      "ご": 1264,
      "さ": 1265,
      "し": 1266,
      "す": 1267,
      "ず": 1268,
      "せ": 1269,
      "そ": 1270,
      "ぞ": 1271,
      "た": 1272,
      "ち": 1273,
      "っ": 1274,
      "て": 1275,
      "と": 1276,
      "な": 1277,
      "に": 1278,
      "ぬ": 1279,
      "の": 1280,
      "は": 1281,
      "ひ": 1282,
      "ふ": 1283,
      "ぶ": 1284,
      "へ": 1285,
      "ま": 1286,
      "み": 1287,
      "め": 1288,
      "も": 1289,
      "ゃ": 1290,
      "ら": 1291,
      "り": 1292,
      "る": 1293,
      "れ": 1294,
      "ろ": 1295,
      "わ": 1296,
      "を": 1297,
      "ん": 1298,
      "ア": 1299,
      "ィ": 1300,
      "イ": 1301,
      "ウ": 1302,
      "ェ": 1303,
      "カ": 1304,
      "キ": 1305,
      "ク": 1306,
      "グ": 1307,
      "ケ": 1308,
      "ゲ": 1309,
      "コ": 1310,
      "ゴ": 1311,
      "サ": 1312,
      "シ": 1313,
      "ジ": 1314,
      "ス": 1315,
      "ズ": 1316,
      "ソ": 1317,
      "タ": 1318,
      "ダ": 1319,
      "チ": 1320,
      "テ": 1321,
      "デ": 1322,
      "ト": 1323,
      "ド": 1324,
      "ナ": 1325,
      "ニ": 1326,
      "ネ": 1327,
      "ハ": 1328,
      "バ": 1329,
      "フ": 1330,
      "プ": 1331,
      "ポ": 1332,
      "マ": 1333,
      "ム": 1334,
      "メ": 1335,
      "モ": 1336,
      "ャ": 1337,
      "ヤ": 1338,
      "ュ": 1339,
      "ョ": 1340,
      "ヨ": 1341,
      "ラ": 1342,
      "リ": 1343,
      "ル": 1344,
      "レ": 1345,
      "ロ": 1346,
      "ン": 1347,
      "ー": 1348,
      "一": 1349,
      "丁": 1350,
      "万": 1351,
      "三": 1352,
      "上": 1353,
      "下": 1354,
      "世": 1355,
      "丘": 1356,
      "中": 1357,
      "丰": 1358,
      "丼": 1359,
      "久": 1360,
      "之": 1361,
      "乌": 1362,
      "乘": 1363,
      "九": 1364,
      "乡": 1365,
      "书": 1366,
      "于": 1367,
      "五": 1368,
      "亜": 1369,
      "京": 1370,
      "亲": 1371,
      "人": 1372,
      "仁": 1373,
      "仔": 1374,
      "仕": 1375,
      "代": 1376,
      "以": 1377,
      "仮": 1378,
      "份": 1379,
      "企": 1380,
      "伎": 1381,
      "休": 1382,
      "会": 1383,
      "伽": 1384,
      "何": 1385,
      "余": 1386,
      "佛": 1387,
      "使": 1388,
      "來": 1389,
      "侍": 1390,
      "俊": 1391,
      "修": 1392,
      "倫": 1393,
      "光": 1394,
      "児": 1395,
      "兒": 1396,
      "党": 1397,
      "兜": 1398,
      "八": 1399,
      "公": 1400,
      "六": 1401,
      "兮": 1402,
      "共": 1403,
      "农": 1404,
      "出": 1405,
      "刀": 1406,
      "別": 1407,
      "利": 1408,
      "剣": 1409,
      "割": 1410,
      "劃": 1411,
      "力": 1412,
      "功": 1413,
      "効": 1414,
      "勒": 1415,
      "化": 1416,
      "北": 1417,
      "十": 1418,
      "升": 1419,
      "半": 1420,
      "华": 1421,
      "协": 1422,
      "南": 1423,
      "卢": 1424,
      "卷": 1425,
      "原": 1426,
      "县": 1427,
      "參": 1428,
      "取": 1429,
      "受": 1430,
      "口": 1431,
      "古": 1432,
      "可": 1433,
      "台": 1434,
      "史": 1435,
      "右": 1436,
      "叶": 1437,
      "司": 1438,
      "合": 1439,
      "吉": 1440,
      "同": 1441,
      "名": 1442,
      "吗": 1443,
      "君": 1444,
      "吡": 1445,
      "吳": 1446,
      "呉": 1447,
      "周": 1448,
      "味": 1449,
      "呼": 1450,
      "命": 1451,
      "和": 1452,
      "員": 1453,
      "唐": 1454,
      "商": 1455,
      "啟": 1456,
      "啶": 1457,
      "喜": 1458,
      "嗎": 1459,
      "四": 1460,
      "回": 1461,
      "国": 1462,
      "國": 1463,
      "園": 1464,
      "圓": 1465,
      "圖": 1466,
      "土": 1467,
      "圣": 1468,
      "基": 1469,
      "堆": 1470,
      "堵": 1471,
      "墩": 1472,
      "壺": 1473,
      "壽": 1474,
      "外": 1475,
      "夜": 1476,
      "大": 1477,
      "天": 1478,
      "太": 1479,
      "夫": 1480,
      "夷": 1481,
      "奈": 1482,
      "妈": 1483,
      "妖": 1484,
      "妮": 1485,
      "妻": 1486,
      "姉": 1487,
      "姑": 1488,
      "威": 1489,
      "媛": 1490,
      "媽": 1491,
      "子": 1492,
      "字": 1493,
      "孙": 1494,
      "孝": 1495,
      "季": 1496,
      "孤": 1497,
      "学": 1498,
      "孩": 1499,
      "孫": 1500,
      "學": 1501,
      "宇": 1502,
      "守": 1503,
      "安": 1504,
      "宋": 1505,
      "宗": 1506,
      "官": 1507,
      "宙": 1508,
      "定": 1509,
      "宜": 1510,
      "実": 1511,
      "宮": 1512,
      "家": 1513,
      "寂": 1514,
      "寄": 1515,
      "密": 1516,
      "富": 1517,
      "寥": 1518,
      "射": 1519,
      "導": 1520,
      "小": 1521,
      "尺": 1522,
      "屋": 1523,
      "展": 1524,
      "履": 1525,
      "山": 1526,
      "岁": 1527,
      "峰": 1528,
      "島": 1529,
      "峽": 1530,
      "崴": 1531,
      "嵐": 1532,
      "州": 1533,
      "工": 1534,
      "市": 1535,
      "帝": 1536,
      "師": 1537,
      "常": 1538,
      "平": 1539,
      "年": 1540,
      "幸": 1541,
      "幹": 1542,
      "幾": 1543,
      "广": 1544,
      "広": 1545,
      "床": 1546,
      "序": 1547,
      "府": 1548,
      "度": 1549,
      "庫": 1550,
      "廣": 1551,
      "延": 1552,
      "弟": 1553,
      "张": 1554,
      "張": 1555,
      "強": 1556,
      "归": 1557,
      "彦": 1558,
      "彭": 1559,
      "彰": 1560,
      "彼": 1561,
      "往": 1562,
      "待": 1563,
      "律": 1564,
      "御": 1565,
      "德": 1566,
      "徽": 1567,
      "心": 1568,
      "忍": 1569,
      "志": 1570,
      "怕": 1571,
      "思": 1572,
      "悦": 1573,
      "想": 1574,
      "意": 1575,
      "愛": 1576,
      "憶": 1577,
      "懋": 1578,
      "成": 1579,
      "戦": 1580,
      "房": 1581,
      "手": 1582,
      "才": 1583,
      "技": 1584,
      "投": 1585,
      "拭": 1586,
      "拳": 1587,
      "持": 1588,
      "振": 1589,
      "掌": 1590,
      "排": 1591,
      "控": 1592,
      "摩": 1593,
      "撃": 1594,
      "政": 1595,
      "敕": 1596,
      "教": 1597,
      "敞": 1598,
      "敬": 1599,
      "文": 1600,
      "斛": 1601,
      "断": 1602,
      "新": 1603,
      "方": 1604,
      "族": 1605,
      "日": 1606,
      "昌": 1607,
      "明": 1608,
      "易": 1609,
      "星": 1610,
      "春": 1611,
      "昭": 1612,
      "時": 1613,
      "普": 1614,
      "晴": 1615,
      "晶": 1616,
      "曲": 1617,
      "書": 1618,
      "曾": 1619,
      "會": 1620,
      "月": 1621,
      "有": 1622,
      "服": 1623,
      "朗": 1624,
      "望": 1625,
      "木": 1626,
      "末": 1627,
      "本": 1628,
      "朱": 1629,
      "机": 1630,
      "杉": 1631,
      "李": 1632,
      "杏": 1633,
      "村": 1634,
      "杯": 1635,
      "東": 1636,
      "松": 1637,
      "果": 1638,
      "枢": 1639,
      "枯": 1640,
      "柏": 1641,
      "柔": 1642,
      "树": 1643,
      "校": 1644,
      "桀": 1645,
      "桑": 1646,
      "桥": 1647,
      "桶": 1648,
      "梅": 1649,
      "楊": 1650,
      "業": 1651,
      "楽": 1652,
      "様": 1653,
      "槻": 1654,
      "樊": 1655,
      "檢": 1656,
      "次": 1657,
      "欽": 1658,
      "歌": 1659,
      "正": 1660,
      "步": 1661,
      "武": 1662,
      "母": 1663,
      "民": 1664,
      "气": 1665,
      "気": 1666,
      "氣": 1667,
      "水": 1668,
      "永": 1669,
      "汉": 1670,
      "江": 1671,
      "沙": 1672,
      "油": 1673,
      "洋": 1674,
      "洪": 1675,
      "洲": 1676,
      "活": 1677,
      "浅": 1678,
      "海": 1679,
      "涛": 1680,
      "淳": 1681,
      "清": 1682,
      "渡": 1683,
      "港": 1684,
      "湯": 1685,
      "溥": 1686,
      "溪": 1687,
      "满": 1688,
      "滿": 1689,
      "漢": 1690,
      "潔": 1691,
      "潤": 1692,
      "澎": 1693,
      "瀬": 1694,
      "灣": 1695,
      "灵": 1696,
      "炎": 1697,
      "為": 1698,
      "無": 1699,
      "照": 1700,
      "熹": 1701,
      "燈": 1702,
      "爪": 1703,
      "爱": 1704,
      "父": 1705,
      "爸": 1706,
      "片": 1707,
      "特": 1708,
      "独": 1709,
      "獲": 1710,
      "玉": 1711,
      "王": 1712,
      "玛": 1713,
      "珠": 1714,
      "琪": 1715,
      "瑪": 1716,
      "瑱": 1717,
      "璇": 1718,
      "田": 1719,
      "申": 1720,
      "电": 1721,
      "疆": 1722,
      "疊": 1723,
      "發": 1724,
      "白": 1725,
      "百": 1726,
      "皇": 1727,
      "盧": 1728,
      "目": 1729,
      "県": 1730,
      "真": 1731,
      "眼": 1732,
      "着": 1733,
      "督": 1734,
      "睿": 1735,
      "矣": 1736,
      "知": 1737,
      "石": 1738,
      "砕": 1739,
      "破": 1740,
      "磁": 1741,
      "社": 1742,
      "神": 1743,
      "福": 1744,
      "秀": 1745,
      "秋": 1746,
      "科": 1747,
      "秩": 1748,
      "秭": 1749,
      "程": 1750,
      "種": 1751,
      "穆": 1752,
      "穌": 1753,
      "空": 1754,
      "立": 1755,
      "竜": 1756,
      "端": 1757,
      "筆": 1758,
      "筍": 1759,
      "算": 1760,
      "粟": 1761,
      "紀": 1762,
      "納": 1763,
      "級": 1764,
      "結": 1765,
      "統": 1766,
      "經": 1767,
      "綠": 1768,
      "維": 1769,
      "緑": 1770,
      "編": 1771,
      "縛": 1772,
      "纬": 1773,
      "组": 1774,
      "维": 1775,
      "网": 1776,
      "罵": 1777,
      "美": 1778,
      "群": 1779,
      "義": 1780,
      "翁": 1781,
      "耀": 1782,
      "耶": 1783,
      "耿": 1784,
      "聖": 1785,
      "聯": 1786,
      "聴": 1787,
      "職": 1788,
      "肉": 1789,
      "股": 1790,
      "育": 1791,
      "肸": 1792,
      "脷": 1793,
      "腐": 1794,
      "腻": 1795,
      "臨": 1796,
      "舎": 1797,
      "舞": 1798,
      "色": 1799,
      "芦": 1800,
      "芬": 1801,
      "芳": 1802,
      "英": 1803,
      "茂": 1804,
      "荣": 1805,
      "菜": 1806,
      "菩": 1807,
      "華": 1808,
      "萨": 1809,
      "葛": 1810,
      "蒼": 1811,
      "蒿": 1812,
      "蓋": 1813,
      "蓥": 1814,
      "蔵": 1815,
      "薩": 1816,
      "藍": 1817,
      "藪": 1818,
      "號": 1819,
      "蚁": 1820,
      "螺": 1821,
      "行": 1822,
      "術": 1823,
      "衛": 1824,
      "袴": 1825,
      "見": 1826,
      "角": 1827,
      "訊": 1828,
      "記": 1829,
      "許": 1830,
      "詩": 1831,
      "話": 1832,
      "語": 1833,
      "誠": 1834,
      "誰": 1835,
      "諡": 1836,
      "謚": 1837,
      "證": 1838,
      "譜": 1839,
      "计": 1840,
      "话": 1841,
      "语": 1842,
      "调": 1843,
      "豆": 1844,
      "貴": 1845,
      "買": 1846,
      "賢": 1847,
      "質": 1848,
      "超": 1849,
      "越": 1850,
      "跆": 1851,
      "路": 1852,
      "身": 1853,
      "車": 1854,
      "軍": 1855,
      "転": 1856,
      "軸": 1857,
      "輿": 1858,
      "辛": 1859,
      "農": 1860,
      "返": 1861,
      "迦": 1862,
      "迪": 1863,
      "迷": 1864,
      "追": 1865,
      "通": 1866,
      "連": 1867,
      "運": 1868,
      "道": 1869,
      "達": 1870,
      "遙": 1871,
      "遠": 1872,
      "遲": 1873,
      "邦": 1874,
      "邯": 1875,
      "郎": 1876,
      "部": 1877,
      "都": 1878,
      "鄒": 1879,
      "鄭": 1880,
      "鄲": 1881,
      "酌": 1882,
      "酒": 1883,
      "酪": 1884,
      "里": 1885,
      "野": 1886,
      "金": 1887,
      "鉤": 1888,
      "銀": 1889,
      "鐵": 1890,
      "長": 1891,
      "长": 1892,
      "門": 1893,
      "闽": 1894,
      "阻": 1895,
      "阿": 1896,
      "陆": 1897,
      "限": 1898,
      "陞": 1899,
      "陰": 1900,
      "陽": 1901,
      "隔": 1902,
      "際": 1903,
      "雁": 1904,
      "雄": 1905,
      "雅": 1906,
      "雙": 1907,
      "離": 1908,
      "難": 1909,
      "電": 1910,
      "霊": 1911,
      "霜": 1912,
      "靈": 1913,
      "青": 1914,
      "靡": 1915,
      "韓": 1916,
      "音": 1917,
      "韵": 1918,
      "韻": 1919,
      "頁": 1920,
      "頓": 1921,
      "頭": 1922,
      "顯": 1923,
      "館": 1924,
      "香": 1925,
      "馬": 1926,
      "马": 1927,
      "骂": 1928,
      "骨": 1929,
      "體": 1930,
      "高": 1931,
      "鬼": 1932,
      "魏": 1933,
      "鲁": 1934,
      "鴉": 1935,
      "鴨": 1936,
      "鸿": 1937,
      "麴": 1938,
      "麻": 1939,
      "黃": 1940,
      "黄": 1941,
      "齐": 1942,
      "고": 1943,
      "궁": 1944,
      "권": 1945,
      "귀": 1946,
      "기": 1947,
      "김": 1948,
      "끼": 1949,
      "단": 1950,
      "대": 1951,
      "도": 1952,
      "동": 1953,
      "류": 1954,
      "를": 1955,
      "리": 1956,
      "면": 1957,
      "무": 1958,
      "미": 1959,
      "백": 1960,
      "벳": 1961,
      "보": 1962,
      "부": 1963,
      "빠": 1964,
      "삼": 1965,
      "새": 1966,
      "서": 1967,
      "선": 1968,
      "성": 1969,
      "소": 1970,
      "순": 1971,
      "습": 1972,
      "시": 1973,
      "식": 1974,
      "싶": 1975,
      "아": 1976,
      "악": 1977,
      "알": 1978,
      "어": 1979,
      "예": 1980,
      "오": 1981,
      "운": 1982,
      "울": 1983,
      "이": 1984,
      "인": 1985,
      "임": 1986,
      "자": 1987,
      "전": 1988,
      "정": 1989,
      "조": 1990,
      "준": 1991,
      "직": 1992,
      "진": 1993,
      "태": 1994,
      "통": 1995,
      "파": 1996,
      "활": 1997,
      "": 1998,
      "": 1999,
      "": 2000,
      "": 2001,
      "": 2002,
      "": 2003,
      "": 2004,
      "": 2005,
      "": 2006,
      "": 2007,
      "": 2008,
      "ﬂ": 2009,
      "ﭪ": 2010,
      "ﴽ": 2011,
      "️": 2012,
      "﻿": 2013,
      "（": 2014,
      "）": 2015,
      "１": 2016,
      "２": 2017,
      "３": 2018,
      "４": 2019,
      "５": 2020,
      "６": 2021,
      "７": 2022,
      "：": 2023,
      "￵": 2024,
      "￷": 2025,
      "￸": 2026,
      "￼": 2027,
      "�": 2028,
      "𐎠": 2029,
      "𐎡": 2030,
      "𐎢": 2031,
      "𐎣": 2032,
      "𐎫": 2033,
      "𐎭": 2034,
      "𐎰": 2035,
      "𐎱": 2036,
      "𐎴": 2037,
      "𐎷": 2038,
      "𐎸": 2039,
      "𐎹": 2040,
      "𐎺": 2041,
      "𐎼": 2042,
      "𐎿": 2043,
      "𐏃": 2044,
      "𐤂": 2045,
      "𐬀": 2046,
      "𐬁": 2047,
      "𐬃": 2048,
      "𐬅": 2049,
      "𐬆": 2050,
      "𐬇": 2051,
      "𐬈": 2052,
      "𐬉": 2053,
      "𐬊": 2054,
      "𐬋": 2055,
      "𐬌": 2056,
      "𐬍": 2057,
      "𐬎": 2058,
      "𐬐": 2059,
      "𐬑": 2060,
      "𐬔": 2061,
      "𐬖": 2062,
      "𐬗": 2063,
      "𐬘": 2064,
      "𐬙": 2065,
      "𐬚": 2066,
      "𐬛": 2067,
      "𐬜": 2068,
      "𐬝": 2069,
      "𐬞": 2070,
      "𐬟": 2071,
      "𐬠": 2072,
      "𐬡": 2073,
      "𐬢": 2074,
      "𐬥": 2075,
      "𐬧": 2076,
      "𐬨": 2077,
      "𐬫": 2078,
      "𐬬": 2079,
      "𐬭": 2080,
      "𐬯": 2081,
      "𐬰": 2082,
      "𐬱": 2083,
      "𐬲": 2084,
      "𐬴": 2085,
      "𐬵": 2086,
      "𐬺": 2087,
      "𐬿": 2088,
      "𐭀": 2089,
      "𐭃": 2090,
      "𐭅": 2091,
      "𐭆": 2092,
      "𐭌": 2093,
      "𐭓": 2094,
      "𐭕": 2095,
      "𐭣": 2096,
      "𐭥": 2097,
      "𐭦": 2098,
      "𐭩": 2099,
      "𐭪": 2100,
      "𐭫": 2101,
      "𐭱": 2102,
      "𐭲": 2103,
      "𐰆": 2104,
      "𐰍": 2105,
      "𐰔": 2106,
      "𒂵": 2107,
      "𒄑": 2108,
      "𒈩": 2109,
      "𒉈": 2110,
      "🇮": 2111,
      "🇹": 2112,
      "🌹": 2113,
      "🏼": 2114,
      "👇": 2115,
      "👈": 2116,
      "👉": 2117,
      "💢": 2118,
      "📱": 2119,
      "📷": 2120,
      "📸": 2121,
      "🔰": 2122,
      "🔴": 2123,
      "🔷": 2124,
      "🔸": 2125,
      "🔹": 2126,
      "🔺": 2127,
      "🔻": 2128,
      "🔽": 2129,
      "😉": 2130,
      "😒": 2131,
      "😢": 2132,
      "🙁": 2133,
      "🛑": 2134,
      "ای": 2135,
      "ان": 2136,
      "ار": 2137,
      "در": 2138,
      "ست": 2139,
      "می": 2140,
      "از": 2141,
      "به": 2142,
      "ند": 2143,
      "را": 2144,
      "ام": 2145,
      "ال": 2146,
      "ود": 2147,
      "رد": 2148,
      "اد": 2149,
      "که": 2150,
      "با": 2151,
      "بر": 2152,
      "ور": 2153,
      "است": 2154,
      "‌ه": 2155,
      "این": 2156,
      "رو": 2157,
      "می‌": 2158,
      "نی": 2159,
      "ری": 2160,
      "لی": 2161,
      "سی": 2162,
      "شد": 2163,
      "بی": 2164,
      "اه": 2165,
      "ه‌": 2166,
      "دی": 2167,
      "فت": 2168,
      "ات": 2169,
      "‌های": 2170,
      "هم": 2171,
      "شت": 2172,
      "وی": 2173,
      "کرد": 2174,
      "..": 2175,
      "ون": 2176,
      "تو": 2177,
      "مو": 2178,
      "بود": 2179,
      "من": 2180,
      "اب": 2181,
      "اس": 2182,
      "مان": 2183,
      "دا": 2184,
      "تی": 2185,
      "آن": 2186,
      "‌ها": 2187,
      "گر": 2188,
      "کن": 2189,
      "زی": 2190,
      "خو": 2191,
      "اری": 2192,
      "گی": 2193,
      "ده": 2194,
      "لا": 2195,
      "یک": 2196,
      "هر": 2197,
      "دو": 2198,
      "انی": 2199,
      "تا": 2200,
      "پی": 2201,
      "ما": 2202,
      "th": 2203,
      "او": 2204,
      "برای": 2205,
      "دار": 2206,
      "شی": 2207,
      "فر": 2208,
      "ایی": 2209,
      "مت": 2210,
      "in": 2211,
      "خت": 2212,
      "نگ": 2213,
      "سال": 2214,
      "نو": 2215,
      "های": 2216,
      "داد": 2217,
      "اق": 2218,
      "er": 2219,
      "اف": 2220,
      "عی": 2221,
      "جه": 2222,
      "کار": 2223,
      "an": 2224,
      "گفت": 2225,
      "شور": 2226,
      "کی": 2227,
      "زار": 2228,
      "نا": 2229,
      "خود": 2230,
      "تر": 2231,
      "مح": 2232,
      "سر": 2233,
      "نه": 2234,
      "اع": 2235,
      "شود": 2236,
      "باز": 2237,
      "مع": 2238,
      "مر": 2239,
      "داشت": 2240,
      "فی": 2241,
      "هی": 2242,
      "the": 2243,
      "قی": 2244,
      "انه": 2245,
      "له": 2246,
      "ران": 2247,
      "اره": 2248,
      "اند": 2249,
      "یا": 2250,
      "کشور": 2251,
      "on": 2252,
      "خی": 2253,
      "...": 2254,
      "گاه": 2255,
      "ول": 2256,
      "قر": 2257,
      "دست": 2258,
      "نام": 2259,
      "مه": 2260,
      "الی": 2261,
      "مس": 2262,
      "اج": 2263,
      "انت": 2264,
      "یم": 2265,
      "شر": 2266,
      "اید": 2267,
      "کت": 2268,
      "روز": 2269,
      "ه‌ای": 2270,
      "مد": 2271,
      "شک": 2272,
      "مج": 2273,
      "ادی": 2274,
      "مین": 2275,
      "اص": 2276,
      "‌شد": 2277,
      "ed": 2278,
      "وری": 2279,
      "گذ": 2280,
      "تص": 2281,
      "مای": 2282,
      "or": 2283,
      "طر": 2284,
      "اده": 2285,
      "شه": 2286,
      "اش": 2287,
      "کند": 2288,
      "دان": 2289,
      "نظ": 2290,
      "بت": 2291,
      "مق": 2292,
      "ستان": 2293,
      "en": 2294,
      "مرد": 2295,
      "چه": 2296,
      "at": 2297,
      "ساز": 2298,
      "کنند": 2299,
      "ar": 2300,
      "می‌شود": 2301,
      "رس": 2302,
      "اح": 2303,
      "باید": 2304,
      "is": 2305,
      "شان": 2306,
      "کو": 2307,
      "ایران": 2308,
      "ره": 2309,
      "لو": 2310,
      "بال": 2311,
      "ئی": 2312,
      "مل": 2313,
      "جام": 2314,
      "نیز": 2315,
      "خواه": 2316,
      "es": 2317,
      "اما": 2318,
      "ارد": 2319,
      "al": 2320,
      "گرفت": 2321,
      "شهر": 2322,
      "آم": 2323,
      "شم": 2324,
      "قرار": 2325,
      "قل": 2326,
      "عه": 2327,
      "as": 2328,
      "and": 2329,
      "دارد": 2330,
      "اک": 2331,
      "روی": 2332,
      "رین": 2333,
      "دم": 2334,
      "اخت": 2335,
      "لام": 2336,
      "یر": 2337,
      "بار": 2338,
      "نده": 2339,
      "بان": 2340,
      "خص": 2341,
      "سو": 2342,
      "تح": 2343,
      "بخ": 2344,
      "هست": 2345,
      "رسی": 2346,
      "استان": 2347,
      "اط": 2348,
      "‌بود": 2349,
      "of": 2350,
      "بع": 2351,
      "لت": 2352,
      "سه": 2353,
      "گزار": 2354,
      "به‌": 2355,
      "ه‌های": 2356,
      "ین": 2357,
      "امی": 2358,
      "صد": 2359,
      "وق": 2360,
      "ing": 2361,
      "بین": 2362,
      "هن": 2363,
      "افز": 2364,
      "بل": 2365,
      "مردم": 2366,
      "کر": 2367,
      "اشت": 2368,
      "تم": 2369,
      "حال": 2370,
      "دید": 2371,
      "پیش": 2372,
      "رف": 2373,
      "دیگر": 2374,
      "نوان": 2375,
      "to": 2376,
      "عنوان": 2377,
      "نیم": 2378,
      "ارت": 2379,
      "تع": 2380,
      "‌شده‌": 2381,
      "‌ال": 2382,
      "باشد": 2383,
      "جود": 2384,
      "نمی‌": 2385,
      "گان": 2386,
      "شن": 2387,
      "کم": 2388,
      "توان": 2389,
      "پس": 2390,
      "اینکه": 2391,
      "re": 2392,
      "لم": 2393,
      "رفت": 2394,
      "شو": 2395,
      "it": 2396,
      "چی": 2397,
      "علی": 2398,
      "کرده": 2399,
      "سن": 2400,
      "گرد": 2401,
      "لس": 2402,
      "آن‌ها": 2403,
      "ماه": 2404,
      "وز": 2405,
      "نین": 2406,
      "بازی": 2407,
      "۰۰": 2408,
      "ولی": 2409,
      "مش": 2410,
      "بد": 2411,
      "ورت": 2412,
      "نیست": 2413,
      "ic": 2414,
      "راه": 2415,
      "ملی": 2416,
      "کا": 2417,
      "بز": 2418,
      "ه‌اند": 2419,
      "قه": 2420,
      "برد": 2421,
      "دولت": 2422,
      "رئی": 2423,
      "ou": 2424,
      "پای": 2425,
      "پیام": 2426,
      "دور": 2427,
      "شگاه": 2428,
      "گو": 2429,
      "گزارش": 2430,
      "خبر": 2431,
      "پر": 2432,
      "ها": 2433,
      "یکی": 2434,
      "هزار": 2435,
      "شته": 2436,
      "زیر": 2437,
      "مانی": 2438,
      "میلی": 2439,
      "اسی": 2440,
      "جو": 2441,
      "بسی": 2442,
      "آی": 2443,
      "باره": 2444,
      "توس": 2445,
      "وجود": 2446,
      "نم": 2447,
      "چنین": 2448,
      "مدی": 2449,
      "ترین": 2450,
      "خان": 2451,
      "جم": 2452,
      "ضو": 2453,
      "لامی": 2454,
      "کل": 2455,
      "le": 2456,
      "بو": 2457,
      "صورت": 2458,
      "خا": 2459,
      "شکل": 2460,
      "نق": 2461,
      "یه": 2462,
      "اقتص": 2463,
      "نمای": 2464,
      "انجام": 2465,
      "اض": 2466,
      "حض": 2467,
      "خواهد": 2468,
      "زند": 2469,
      "زد": 2470,
      "چند": 2471,
      "طی": 2472,
      "نامه": 2473,
      "‌شده": 2474,
      "زش": 2475,
      "۱۴": 2476,
      "اتی": 2477,
      "اگر": 2478,
      "مورد": 2479,
      "رئیس": 2480,
      "تق": 2481,
      "ائ": 2482,
      "نش": 2483,
      "اسلامی": 2484,
      "همه": 2485,
      "گیری": 2486,
      "00": 2487,
      "می‌کند": 2488,
      "ایش": 2489,
      "کان": 2490,
      "دام": 2491,
      "جی": 2492,
      "st": 2493,
      "امه": 2494,
      "گرو": 2495,
      "''": 2496,
      "تولی": 2497,
      "....": 2498,
      "ion": 2499,
      "توجه": 2500,
      "مص": 2501,
      "جمه": 2502,
      "تما": 2503,
      "تیم": 2504,
      "ro": 2505,
      "امل": 2506,
      "بعد": 2507,
      "آب": 2508,
      "عیت": 2509,
      "هو": 2510,
      "حی": 2511,
      "انتهای": 2512,
      "هستند": 2513,
      "نس": 2514,
      "اخ": 2515,
      "رات": 2516,
      "فع": 2517,
      "بخش": 2518,
      "آمری": 2519,
      "رای": 2520,
      "اون": 2521,
      "قط": 2522,
      "گوی": 2523,
      "ادامه": 2524,
      "بزر": 2525,
      "ه‌بود": 2526,
      "نظر": 2527,
      "ایت": 2528,
      "عر": 2529,
      "جا": 2530,
      "ایر": 2531,
      "کرو": 2532,
      "وه": 2533,
      "طرح": 2534,
      "کردند": 2535,
      "بوده": 2536,
      "سازمان": 2537,
      "گری": 2538,
      "شتر": 2539,
      "همین": 2540,
      "رم": 2541,
      "تش": 2542,
      "کمی": 2543,
      "کنیم": 2544,
      "ساخت": 2545,
      "برا": 2546,
      "کس": 2547,
      "اعت": 2548,
      "دل": 2549,
      "اظ": 2550,
      "داری": 2551,
      "دن": 2552,
      "ونه": 2553,
      "قان": 2554,
      "تولید": 2555,
      "ندی": 2556,
      "جان": 2557,
      "دود": 2558,
      "زمان": 2559,
      "داشته": 2560,
      "نگاه": 2561,
      "استف": 2562,
      "خار": 2563,
      "دهد": 2564,
      "بیان": 2565,
      "شب": 2566,
      "کردم": 2567,
      "مجلس": 2568,
      "یافت": 2569,
      "مرک": 2570,
      "بی‌": 2571,
      "نان": 2572,
      "پرد": 2573,
      "نفر": 2574,
      "وص": 2575,
      "گذشته": 2576,
      "لف": 2577,
      "استفاده": 2578,
      "il": 2579,
      "دف": 2580,
      "مرا": 2581,
      "he": 2582,
      "اشاره": 2583,
      "ent": 2584,
      "مسئ": 2585,
      "همچنین": 2586,
      "ابل": 2587,
      "شده": 2588,
      "شاه": 2589,
      "موضو": 2590,
      "پرو": 2591,
      "۱۳": 2592,
      "منط": 2593,
      "اقتصادی": 2594,
      "نشان": 2595,
      "شرکت": 2596,
      "ضا": 2597,
      "بح": 2598,
      "امروز": 2599,
      "شا": 2600,
      "ch": 2601,
      "فرو": 2602,
      "افزایش": 2603,
      "قدر": 2604,
      "مث": 2605,
      "بری": 2606,
      "درباره": 2607,
      "برخی": 2608,
      "لیل": 2609,
      "۱۴۰۰": 2610,
      "فیلم": 2611,
      "بیم": 2612,
      "گروه": 2613,
      "حضور": 2614,
      "ابت": 2615,
      "ter": 2616,
      "for": 2617,
      "موضوع": 2618,
      "حق": 2619,
      "وت": 2620,
      "نج": 2621,
      "بزرگ": 2622,
      "غی": 2623,
      "بات": 2624,
      "خواست": 2625,
      "سازی": 2626,
      "خانه": 2627,
      "هران": 2628,
      "جای": 2629,
      "آمو": 2630,
      "تب": 2631,
      "درصد": 2632,
      "مط": 2633,
      "اعلام": 2634,
      "سان": 2635,
      "دارند": 2636,
      "el": 2637,
      "میلیون": 2638,
      "کاری": 2639,
      "ایج": 2640,
      "am": 2641,
      "خورد": 2642,
      "ژه": 2643,
      "آز": 2644,
      "مشکل": 2645,
      "کنم": 2646,
      "تج": 2647,
      "مهم": 2648,
      "‌هایی": 2649,
      "می‌کنند": 2650,
      "واق": 2651,
      "آمریکا": 2652,
      "حوز": 2653,
      "تهران": 2654,
      "ad": 2655,
      "هیچ": 2656,
      "توسط": 2657,
      "سری": 2658,
      "خصوص": 2659,
      "اول": 2660,
      "فه": 2661,
      "وارد": 2662,
      "19": 2663,
      "فرا": 2664,
      "om": 2665,
      "طور": 2666,
      "وزار": 2667,
      "قلاب": 2668,
      "ید": 2669,
      "وزارت": 2670,
      "آو": 2671,
      "بن": 2672,
      "بیشتر": 2673,
      "انقلاب": 2674,
      "نگار": 2675,
      "مست": 2676,
      "ازی": 2677,
      "افزود": 2678,
      "20": 2679,
      "افت": 2680,
      "کتاب": 2681,
      "شورای": 2682,
      "ac": 2683,
      "هنگی": 2684,
      "سوی": 2685,
      "آمد": 2686,
      "هار": 2687,
      "اجتما": 2688,
      "رسید": 2689,
      "کرونا": 2690,
      "ol": 2691,
      "بسیار": 2692,
      "فرهنگی": 2693,
      "سین": 2694,
      "سمت": 2695,
      "صن": 2696,
      "گل": 2697,
      "مخت": 2698,
      "شوند": 2699,
      "دانشگاه": 2700,
      "چرا": 2701,
      "امام": 2702,
      "شرای": 2703,
      "منت": 2704,
      "ثر": 2705,
      "لح": 2706,
      "وض": 2707,
      "شنا": 2708,
      "گه": 2709,
      "عت": 2710,
      "اقدام": 2711,
      "تمام": 2712,
      "جنگ": 2713,
      "ضای": 2714,
      "همان": 2715,
      "was": 2716,
      "میان": 2717,
      "سته": 2718,
      "وا": 2719,
      "تلا": 2720,
      "غر": 2721,
      "اجتماعی": 2722,
      "می‌توان": 2723,
      "se": 2724,
      "تاری": 2725,
      "شدن": 2726,
      "تل": 2727,
      "گرفته": 2728,
      "جل": 2729,
      "کید": 2730,
      "زان": 2731,
      "زه": 2732,
      "خیلی": 2733,
      "ت‌های": 2734,
      "هنگ": 2735,
      "مخ": 2736,
      "حوزه": 2737,
      "جدید": 2738,
      "رفی": 2739,
      "۱۹": 2740,
      "ونی": 2741,
      "سیاسی": 2742,
      "رت": 2743,
      "اظهار": 2744,
      "تاکید": 2745,
      "بیش": 2746,
      "منطقه": 2747,
      "تواند": 2748,
      "be": 2749,
      "وزیر": 2750,
      "ایجاد": 2751,
      "‌شده‌است": 2752,
      "دلیل": 2753,
      "حتی": 2754,
      "خبرنگار": 2755,
      "غیر": 2756,
      "ur": 2757,
      "تس": 2758,
      "وم": 2759,
      "تنه": 2760,
      "آورد": 2761,
      "هفت": 2762,
      "کشی": 2763,
      "wh": 2764,
      "پو": 2765,
      "قانون": 2766,
      "زمین": 2767,
      "عل": 2768,
      "پا": 2769,
      "سخ": 2770,
      "سم": 2771,
      "چون": 2772,
      "ir": 2773,
      "آل": 2774,
      "صی": 2775,
      "زمی": 2776,
      "ازم": 2777,
      "داده": 2778,
      "زندگی": 2779,
      "نز": 2780,
      "‌ترین": 2781,
      "نخ": 2782,
      "دانش": 2783,
      "ly": 2784,
      "گیر": 2785,
      "سیون": 2786,
      "قیمت": 2787,
      "قب": 2788,
      "عمل": 2789,
      "لب": 2790,
      "کردن": 2791,
      "کنار": 2792,
      "یاد": 2793,
      "کلی": 2794,
      "افرا": 2795,
      "جمهوری": 2796,
      "محمد": 2797,
      "آق": 2798,
      "پار": 2799,
      "حرف": 2800,
      "جهان": 2801,
      "خیر": 2802,
      "خدا": 2803,
      "رام": 2804,
      "چهار": 2805,
      "داخ": 2806,
      "ته": 2807,
      "شرایط": 2808,
      "یع": 2809,
      "تن": 2810,
      "طه": 2811,
      "برگ": 2812,
      "اطلا": 2813,
      "زبان": 2814,
      "خاطر": 2815,
      "دری": 2816,
      "گیرد": 2817,
      "تنها": 2818,
      "سام": 2819,
      "ه‌شده": 2820,
      "im": 2821,
      "بین‌ال": 2822,
      "نیرو": 2823,
      "متر": 2824,
      "اساس": 2825,
      "درو": 2826,
      "فاق": 2827,
      "نسبت": 2828,
      "می‌دهد": 2829,
      "آغ": 2830,
      "باش": 2831,
      "نشست": 2832,
      "iv": 2833,
      "بین‌المل": 2834,
      "کنون": 2835,
      "حدود": 2836,
      "برنامه": 2837,
      "عد": 2838,
      "de": 2839,
      "شدند": 2840,
      "ارو": 2841,
      "اولی": 2842,
      "طرف": 2843,
      "بازار": 2844,
      "14": 2845,
      "رخ": 2846,
      "13": 2847,
      "گذاری": 2848,
      "شار": 2849,
      "ازه": 2850,
      "کاه": 2851,
      "لاح": 2852,
      "شما": 2853,
      "پاس": 2854,
      "شهی": 2855,
      "کنی": 2856,
      "خانو": 2857,
      "قیق": 2858,
      "شناس": 2859,
      "اله": 2860,
      "رود": 2861,
      "نداشت": 2862,
      "حس": 2863,
      "انگ": 2864,
      "صح": 2865,
      "اسف": 2866,
      "یعنی": 2867,
      "مذ": 2868,
      "ساعت": 2869,
      "جری": 2870,
      "ضی": 2871,
      "دوم": 2872,
      "ندگان": 2873,
      "حل": 2874,
      "می‌کرد": 2875,
      "دنی": 2876,
      "خط": 2877,
      "‌تر": 2878,
      "ستی": 2879,
      "‌و": 2880,
      "ریق": 2881,
      "ig": 2882,
      "ریم": 2883,
      "نوی": 2884,
      "ادر": 2885,
      "تعداد": 2886,
      "مالی": 2887,
      "مجمو": 2888,
      "پرداخت": 2889,
      "فار": 2890,
      "اطلاع": 2891,
      "جن": 2892,
      "میت": 2893,
      "عمو": 2894,
      "مختلف": 2895,
      "تغی": 2896,
      "بست": 2897,
      "un": 2898,
      "بنی": 2899,
      "گران": 2900,
      "سط": 2901,
      "وقتی": 2902,
      "آغاز": 2903,
      "نفت": 2904,
      "بررسی": 2905,
      "ow": 2906,
      "تلاش": 2907,
      "مرکز": 2908,
      "ه‌ی": 2909,
      "پایان": 2910,
      "فکر": 2911,
      "فعالی": 2912,
      "ابع": 2913,
      "دین": 2914,
      "جز": 2915,
      "کاهش": 2916,
      "اتفاق": 2917,
      "واک": 2918,
      "نتی": 2919,
      "فوت": 2920,
      "قبل": 2921,
      "جمله": 2922,
      "کسی": 2923,
      "سلام": 2924,
      "راق": 2925,
      "بیمار": 2926,
      "واقع": 2927,
      "آخ": 2928,
      "جهانی": 2929,
      "رسانه": 2930,
      "پذ": 2931,
      "شهید": 2932,
      "وان": 2933,
      "فرد": 2934,
      "ایرانی": 2935,
      "wi": 2936,
      "گفتم": 2937,
      "مانند": 2938,
      "بسیاری": 2939,
      "شتی": 2940,
      "بته": 2941,
      "ریح": 2942,
      "جوان": 2943,
      "ودی": 2944,
      "شین": 2945,
      "انتخا": 2946,
      "این‌": 2947,
      "by": 2948,
      "نبود": 2949,
      "بنا": 2950,
      "رژ": 2951,
      "مسی": 2952,
      "جمع": 2953,
      "البته": 2954,
      "ay": 2955,
      "بور": 2956,
      "سل": 2957,
      "ویژه": 2958,
      "حمای": 2959,
      "شنبه": 2960,
      "ابق": 2961,
      "حالی": 2962,
      "نخست": 2963,
      "روسی": 2964,
      "ذر": 2965,
      "نیاز": 2966,
      "می‌گوی": 2967,
      "پایی": 2968,
      "چشم": 2969,
      "سپ": 2970,
      "کمک": 2971,
      "حر": 2972,
      "زن": 2973,
      "ستم": 2974,
      "قابل": 2975,
      "زمینه": 2976,
      "بدون": 2977,
      "دوره": 2978,
      "دنبال": 2979,
      "رئیس‌": 2980,
      "فقط": 2981,
      "خوبی": 2982,
      "دهند": 2983,
      "عملی": 2984,
      "گونه": 2985,
      "ag": 2986,
      "اصلی": 2987,
      "پیدا": 2988,
      "گذاشت": 2989,
      "مانده": 2990,
      "ستاد": 2991,
      "us": 2992,
      "ul": 2993,
      "وضعیت": 2994,
      "باشند": 2995,
      "مشکلات": 2996,
      "ation": 2997,
      "ندارد": 2998,
      "ضر": 2999,
      "زیادی": 3000,
      "کیل": 3001,
      "می‌تواند": 3002,
      "کال": 3003,
      "مام": 3004,
      "برنام": 3005,
      "دستگاه": 3006,
      "نزدی": 3007,
      "tr": 3008,
      "آسی": 3009,
      "نقش": 3010,
      "ریت": 3011,
      "تومان": 3012,
      "توسعه": 3013,
      "خوب": 3014,
      "‌الله": 3015,
      "10": 3016,
      "with": 3017,
      "می‌شد": 3018,
      "جامعه": 3019,
      "عث": 3020,
      "سیاست": 3021,
      "میم": 3022,
      "وب": 3023,
      "جدی": 3024,
      "زشی": 3025,
      "em": 3026,
      "جنو": 3027,
      "علا": 3028,
      "طب": 3029,
      "تامین": 3030,
      "تاریخ": 3031,
      "روند": 3032,
      "شهرستان": 3033,
      "اسلام": 3034,
      "افراد": 3035,
      "مال": 3036,
      "تف": 3037,
      "ارائ": 3038,
      "ویت": 3039,
      "آموزش": 3040,
      "بالا": 3041,
      "مز": 3042,
      "وس": 3043,
      "ot": 3044,
      "دیگری": 3045,
      "ers": 3046,
      "بودجه": 3047,
      "رق": 3048,
      "رون": 3049,
      "ساس": 3050,
      "نهاد": 3051,
      "امنی": 3052,
      "جمهور": 3053,
      "نظام": 3054,
      "رز": 3055,
      "زب": 3056,
      "con": 3057,
      "عراق": 3058,
      "نف": 3059,
      "خصی": 3060,
      "داریم": 3061,
      "حاض": 3062,
      "کام": 3063,
      "نوز": 3064,
      "میل": 3065,
      "معاون": 3066,
      "id": 3067,
      "ایشان": 3068,
      "خری": 3069,
      "تشکیل": 3070,
      "حمایت": 3071,
      "کشورهای": 3072,
      "لوم": 3073,
      "ut": 3074,
      "نشد": 3075,
      "آقای": 3076,
      "میلیارد": 3077,
      "ct": 3078,
      "سرمای": 3079,
      "انس": 3080,
      "دای": 3081,
      "گست": 3082,
      "همراه": 3083,
      "تک": 3084,
      "دس": 3085,
      "ترکی": 3086,
      "شهری": 3087,
      "پنج": 3088,
      "باشی": 3089,
      "اجرای": 3090,
      "برگزار": 3091,
      "ce": 3092,
      "سفر": 3093,
      "his": 3094,
      "انتق": 3095,
      "فوتبال": 3096,
      "حاضر": 3097,
      "باط": 3098,
      "لای": 3099,
      "کمیسیون": 3100,
      "کننده": 3101,
      "اثر": 3102,
      "صر": 3103,
      "خودش": 3104,
      "آذر": 3105,
      "صل": 3106,
      "باعث": 3107,
      "طول": 3108,
      "بهداشت": 3109,
      "مقام": 3110,
      "مسئول": 3111,
      "رئیس‌جمهور": 3112,
      "روسیه": 3113,
      "قو": 3114,
      "لازم": 3115,
      "ت‌": 3116,
      "شبکه": 3117,
      "چیزی": 3118,
      "تصمیم": 3119,
      "سب": 3120,
      "fter": 3121,
      "هنوز": 3122,
      "می‌شوند": 3123,
      "آینده": 3124,
      "گفته": 3125,
      "برابر": 3126,
      "جر": 3127,
      "غان": 3128,
      "زینه": 3129,
      "جریان": 3130,
      "گون": 3131,
      "راست": 3132,
      "ویی": 3133,
      "صادر": 3134,
      "بخشی": 3135,
      "سید": 3136,
      "تغییر": 3137,
      "۱۰": 3138,
      "تصوی": 3139,
      "راب": 3140,
      "امور": 3141,
      "بیر": 3142,
      "بلند": 3143,
      "ver": 3144,
      "مدر": 3145,
      "ارائه": 3146,
      "et": 3147,
      "روست": 3148,
      "دول": 3149,
      "نت": 3150,
      "پذیر": 3151,
      "لات": 3152,
      "حسین": 3153,
      "ابی": 3154,
      "سرد": 3155,
      "انتخابات": 3156,
      "وال": 3157,
      "دارای": 3158,
      "مثل": 3159,
      "کود": 3160,
      "آمده": 3161,
      "خانواده": 3162,
      "نوشت": 3163,
      "تصریح": 3164,
      "پاسخ": 3165,
      "ap": 3166,
      "ثار": 3167,
      "حم": 3168,
      "مم": 3169,
      "اصل": 3170,
      "مدیر": 3171,
      "اقتصاد": 3172,
      "دخت": 3173,
      "کش": 3174,
      "مناط": 3175,
      "مدت": 3176,
      "ریف": 3177,
      "پدر": 3178,
      "ایل": 3179,
      "پرس": 3180,
      "روح": 3181,
      "هدف": 3182,
      "هفته": 3183,
      "مربو": 3184,
      "کشا": 3185,
      "اولین": 3186,
      "کشاور": 3187,
      "الت": 3188,
      "یک‌": 3189,
      "بودن": 3190,
      "خاص": 3191,
      "جب": 3192,
      "خاب": 3193,
      "روزی": 3194,
      "واح": 3195,
      "الان": 3196,
      "غذ": 3197,
      "عمومی": 3198,
      "انیم": 3199,
      "لاف": 3200,
      "انتخاب": 3201,
      "مدیریت": 3202,
      "rom": 3203,
      "نتیجه": 3204,
      "منابع": 3205,
      "op": 3206,
      "دفاع": 3207,
      "وع": 3208,
      "um": 3209,
      "اخیر": 3210,
      "بانک": 3211,
      "ارم": 3212,
      "حف": 3213,
      "زاری": 3214,
      "نیروهای": 3215,
      "جلو": 3216,
      "ثبت": 3217,
      "مهر": 3218,
      "به‌طور": 3219,
      "استان‌ها": 3220,
      "بازیکن": 3221,
      "پشت": 3222,
      "روس": 3223,
      "دنیا": 3224,
      "مادر": 3225,
      "زمانی": 3226,
      "آزاد": 3227,
      "مناطق": 3228,
      ")،": 3229,
      "نظامی": 3230,
      "هم‌": 3231,
      "com": 3232,
      "مقابل": 3233,
      "۱۲": 3234,
      "خوش": 3235,
      "دیدار": 3236,
      "ab": 3237,
      "اختی": 3238,
      "pl": 3239,
      "ائل": 3240,
      "نماینده": 3241,
      "نزدیک": 3242,
      "بحث": 3243,
      "میشه": 3244,
      "حقوق": 3245,
      "امکان": 3246,
      "ere": 3247,
      "دریافت": 3248,
      ".»": 3249,
      "تور": 3250,
      "تحت": 3251,
      "شرو": 3252,
      "نوع": 3253,
      "گفت‌و": 3254,
      "سطح": 3255,
      "واکسن": 3256,
      "فران": 3257,
      "ماند": 3258,
      "دوست": 3259,
      "ارز": 3260,
      "all": 3261,
      "تاث": 3262,
      "می‌کنم": 3263,
      "بودند": 3264,
      "وند": 3265,
      "چنان": 3266,
      "کرده‌اند": 3267,
      "جلسه": 3268,
      "پن": 3269,
      "شدم": 3270,
      "فضای": 3271,
      "فعالیت": 3272,
      "باشگاه": 3273,
      "دیگه": 3274,
      "فری": 3275,
      "افق": 3276,
      "الب": 3277,
      "خارج": 3278,
      "فرهنگ": 3279,
      "لیس": 3280,
      "چار": 3281,
      "دوران": 3282,
      "جهت": 3283,
      "راف": 3284,
      "منظ": 3285,
      "15": 3286,
      "اسب": 3287,
      "مطرح": 3288,
      "دش": 3289,
      "av": 3290,
      "مسیر": 3291,
      "برخورد": 3292,
      "وقت": 3293,
      "رشد": 3294,
      "سا": 3295,
      "علیه": 3296,
      "پیش‌": 3297,
      "عدم": 3298,
      "زاده": 3299,
      "دیم": 3300,
      "شش": 3301,
      "بینی": 3302,
      "قهر": 3303,
      "همکاری": 3304,
      "قطع": 3305,
      "oun": 3306,
      "مون": 3307,
      "۲۰": 3308,
      "پل": 3309,
      "جمعیت": 3310,
      "200": 3311,
      "انتظ": 3312,
      "اصلاح": 3313,
      "that": 3314,
      "ain": 3315,
      "بیرون": 3316,
      "حالا": 3317,
      "ارتباط": 3318,
      "علمی": 3319,
      "وین": 3320,
      "دیل": 3321,
      "شروع": 3322,
      "عم": 3323,
      "موف": 3324,
      "ساله": 3325,
      "میزان": 3326,
      "»،": 3327,
      "کردیم": 3328,
      "رضا": 3329,
      "باس": 3330,
      "اتاق": 3331,
      "مبار": 3332,
      "هستیم": 3333,
      "مرکزی": 3334,
      "طریق": 3335,
      "مقاله": 3336,
      "سریال": 3337,
      "بند": 3338,
      "est": 3339,
      "کوت": 3340,
      "فصل": 3341,
      "صف": 3342,
      "from": 3343,
      "بیت": 3344,
      "بای": 3345,
      "موق": 3346,
      "مشخص": 3347,
      "عالی": 3348,
      "خودرو": 3349,
      "هزینه": 3350,
      "اجر": 3351,
      "خارجی": 3352,
      "سوم": 3353,
      "صول": 3354,
      "طبق": 3355,
      "عضو": 3356,
      "دلار": 3357,
      "حد": 3358,
      "منتشر": 3359,
      "حزب": 3360,
      "محدود": 3361,
      "شخصی": 3362,
      "ess": 3363,
      "مربوط": 3364,
      "طبی": 3365,
      "18": 3366,
      "وار": 3367,
      "حضرت": 3368,
      "اطلاعات": 3369,
      "‌آ": 3370,
      "فروش": 3371,
      "هیئ": 3372,
      "گذار": 3373,
      "قدرت": 3374,
      "ظرفی": 3375,
      "ندان": 3376,
      "دیده": 3377,
      "art": 3378,
      "راهی": 3379,
      "روش": 3380,
      "سرا": 3381,
      "آثار": 3382,
      "اسم": 3383,
      "اهای": 3384,
      "نور": 3385,
      "مجموعه": 3386,
      "می‌رس": 3387,
      "بیماری": 3388,
      "خش": 3389,
      "مطال": 3390,
      "کشاورزی": 3391,
      "مدار": 3392,
      "سپاه": 3393,
      "ادت": 3394,
      "After": 3395,
      "کوچ": 3396,
      "درست": 3397,
      "مبت": 3398,
      "pr": 3399,
      "اوت": 3400,
      "استقل": 3401,
      "اختیار": 3402,
      "بانی": 3403,
      "سایر": 3404,
      "صنعت": 3405,
      "افغان": 3406,
      "ear": 3407,
      "۱۱": 3408,
      "امیر": 3409,
      "می‌باشد": 3410,
      "وسی": 3411,
      "مرح": 3412,
      "شاید": 3413,
      "تاثیر": 3414,
      "تحریم": 3415,
      "جایی": 3416,
      "بش": 3417,
      "عملیات": 3418,
      "۱۳۹": 3419,
      "کیلو": 3420,
      "12": 3421,
      "داشتند": 3422,
      "ورزشی": 3423,
      "ویزی": 3424,
      "استقلال": 3425,
      "خدم": 3426,
      "حه": 3427,
      "لمان": 3428,
      "فلس": 3429,
      "غال": 3430,
      "بین‌المللی": 3431,
      "هوا": 3432,
      "محصول": 3433,
      "تبدیل": 3434,
      "خواهند": 3435,
      "داخلی": 3436,
      "‌سازی": 3437,
      "بین‌الملل": 3438,
      "۱۸": 3439,
      "آمریک": 3440,
      "دشمن": 3441,
      "خواهیم": 3442,
      "پزش": 3443,
      "ممکن": 3444,
      "شکست": 3445,
      "دادند": 3446,
      "پزشکی": 3447,
      "رض": 3448,
      "فدر": 3449,
      "خد": 3450,
      "غرب": 3451,
      "شع": 3452,
      "نیروی": 3453,
      "مسائل": 3454,
      "بنابر": 3455,
      "موسی": 3456,
      "Al": 3457,
      "سیم": 3458,
      "محل": 3459,
      "الله": 3460,
      "سد": 3461,
      "الم": 3462,
      "کور": 3463,
      "pro": 3464,
      "بلکه": 3465,
      "ابط": 3466,
      "علوم": 3467,
      "ورود": 3468,
      "می‌کنیم": 3469,
      "تلویزی": 3470,
      "اکنون": 3471,
      "نمایندگان": 3472,
      "باشیم": 3473,
      "حرکت": 3474,
      "ظم": 3475,
      "سای": 3476,
      "صه": 3477,
      "سعی": 3478,
      "ther": 3479,
      "پول": 3480,
      "بندی": 3481,
      "افی": 3482,
      "کنید": 3483,
      "ریاست": 3484,
      "اهی": 3485,
      "مسکن": 3486,
      "صدای": 3487,
      "مسئله": 3488,
      "نگه": 3489,
      "نمود": 3490,
      "شامل": 3491,
      "سال‌های": 3492,
      "30": 3493,
      "کری": 3494,
      "دارم": 3495,
      "گفت‌وگو": 3496,
      "تاب": 3497,
      "پولی": 3498,
      "خته": 3499,
      "لیگ": 3500,
      "نگی": 3501,
      "غل": 3502,
      "زل": 3503,
      "دستور": 3504,
      "اضی": 3505,
      "اوی": 3506,
      "قف": 3507,
      "اقدامات": 3508,
      "بهمن": 3509,
      "کشید": 3510,
      "ابر": 3511,
      "کنه": 3512,
      "زده": 3513,
      "پایین": 3514,
      "پژ": 3515,
      "فرمانده": 3516,
      "داخل": 3517,
      "مهدی": 3518,
      "فرزند": 3519,
      "حدا": 3520,
      "ه‌شد": 3521,
      "موجود": 3522,
      "اور": 3523,
      "عش": 3524,
      "گاهی": 3525,
      "os": 3526,
      "جش": 3527,
      "خودم": 3528,
      "مذاک": 3529,
      "ضمن": 3530,
      "حاج": 3531,
      "۱۵": 3532,
      "اروپا": 3533,
      "سلی": 3534,
      "ه‌است": 3535,
      "مقاو": 3536,
      "احتم": 3537,
      "توانست": 3538,
      "اجرا": 3539,
      "انسان": 3540,
      "هنری": 3541,
      "محی": 3542,
      "چش": 3543,
      "ich": 3544,
      "صحبت": 3545,
      "ill": 3546,
      "An": 3547,
      "نای": 3548,
      "پیک": 3549,
      "مود": 3550,
      "رسیده": 3551,
      "اسفند": 3552,
      "دانست": 3553,
      "مار": 3554,
      "اساسی": 3555,
      "اجرایی": 3556,
      "پسر": 3557,
      "ber": 3558,
      "sh": 3559,
      "آمار": 3560,
      "جع": 3561,
      "ماده": 3562,
      "ist": 3563,
      "سوال": 3564,
      "کامل": 3565,
      "کسب": 3566,
      "‌شده‌و": 3567,
      "گشت": 3568,
      "تعی": 3569,
      "ارزش": 3570,
      "تری": 3571,
      "are": 3572,
      "شناسی": 3573,
      "افتاد": 3574,
      "امنیت": 3575,
      "افغانستان": 3576,
      "خون": 3577,
      "oc": 3578,
      "دع": 3579,
      "اومد": 3580,
      "سخت": 3581,
      "ه‌اش": 3582,
      "شیر": 3583,
      "می‌د": 3584,
      "دولتی": 3585,
      "اتر": 3586,
      "باه": 3587,
      "آخرین": 3588,
      "خدمات": 3589,
      "آنان": 3590,
      "مصرف": 3591,
      "ex": 3592,
      "رش": 3593,
      "مسئولان": 3594,
      "تعیین": 3595,
      "رهبری": 3596,
      "گذشت": 3597,
      "ارتش": 3598,
      "حج": 3599,
      "ایع": 3600,
      "تاکنون": 3601,
      "چین": 3602,
      "خوان": 3603,
      "ظه": 3604,
      "رسمی": 3605,
      "په": 3606,
      "جوی": 3607,
      "اصله": 3608,
      "ه‌ایم": 3609,
      "تون": 3610,
      "عامل": 3611,
      "شاهد": 3612,
      "بران": 3613,
      "gh": 3614,
      "su": 3615,
      "مقدس": 3616,
      "ak": 3617,
      "ورش": 3618,
      "تخت": 3619,
      "برداشت": 3620,
      "می‌گوید": 3621,
      "بچه": 3622,
      "حمل": 3623,
      "امیدو": 3624,
      "روم": 3625,
      "شمال": 3626,
      "نمایی": 3627,
      "پور": 3628,
      "اعضای": 3629,
      "بنابراین": 3630,
      "di": 3631,
      "ity": 3632,
      "وریه": 3633,
      "مید": 3634,
      "cl": 3635,
      "اندا": 3636,
      "عرب": 3637,
      "امر": 3638,
      "برگزاری": 3639,
      "راح": 3640,
      "می‌گیرد": 3641,
      "دبیر": 3642,
      "اتح": 3643,
      "ong": 3644,
      "اسیون": 3645,
      "تهی": 3646,
      "گاز": 3647,
      "دوباره": 3648,
      "تخ": 3649,
      "زین": 3650,
      "آمریکایی": 3651,
      "عرض": 3652,
      "igh": 3653,
      "شتری": 3654,
      "معرفی": 3655,
      "شهرد": 3656,
      "ابه": 3657,
      "رال": 3658,
      "توی": 3659,
      "جنوب": 3660,
      "مخال": 3661,
      "تجر": 3662,
      "حفظ": 3663,
      "سامانه": 3664,
      "یافته": 3665,
      "شده‌اند": 3666,
      "چیز": 3667,
      "صدا": 3668,
      "سود": 3669,
      "لبخ": 3670,
      "ne": 3671,
      "ملت": 3672,
      "قض": 3673,
      "50": 3674,
      "رع": 3675,
      "غربی": 3676,
      "عزی": 3677,
      "قانونی": 3678,
      "حسن": 3679,
      "فدراسیون": 3680,
      "mo": 3681,
      "قابل‌": 3682,
      "پژوه": 3683,
      "می‌رسد": 3684,
      "روابط": 3685,
      "دهیم": 3686,
      "عبد": 3687,
      "te": 3688,
      "عین": 3689,
      "سریع": 3690,
      "رژیم": 3691,
      "حکو": 3692,
      "متاسف": 3693,
      "افه": 3694,
      "مجموع": 3695,
      "رفتم": 3696,
      "جد": 3697,
      "وظ": 3698,
      "ate": 3699,
      "گردان": 3700,
      "این‌که": 3701,
      "همیشه": 3702,
      "ترکیه": 3703,
      "مسابق": 3704,
      "علاوه": 3705,
      "آباد": 3706,
      "گردد": 3707,
      "نقل": 3708,
      "اران": 3709,
      "رنگ": 3710,
      "توانیم": 3711,
      "شکر": 3712,
      "دک": 3713,
      "سخن": 3714,
      "ه‌ام": 3715,
      "رژی": 3716,
      "رده": 3717,
      "مجازی": 3718,
      "مک": 3719,
      "میز": 3720,
      "ri": 3721,
      "خرا": 3722,
      "مرگ": 3723,
      "می‌رود": 3724,
      "11": 3725,
      "قا": 3726,
      "نخستین": 3727,
      "form": 3728,
      "وید": 3729,
      "مسئولی": 3730,
      "ره‌": 3731,
      "کنتر": 3732,
      "مرحله": 3733,
      "دهه": 3734,
      "مشه": 3735,
      "رسانه‌ها": 3736,
      "مول": 3737,
      "جشنو": 3738,
      "موارد": 3739,
      "گردش": 3740,
      "حمله": 3741,
      "فرص": 3742,
      "ردین": 3743,
      "احت": 3744,
      "صهی": 3745,
      "نباید": 3746,
      "منظور": 3747,
      "سرمایه‌": 3748,
      "As": 3749,
      "نهای": 3750,
      "خاک": 3751,
      "مربی": 3752,
      "متاسفانه": 3753,
      "سند": 3754,
      "نمایش": 3755,
      "فروردین": 3756,
      "مقاومت": 3757,
      "اشی": 3758,
      "هنر": 3759,
      "کمتر": 3760,
      "16": 3761,
      "بهتر": 3762,
      "دهای": 3763,
      "آیا": 3764,
      "انرژی": 3765,
      "زم": 3766,
      "دختر": 3767,
      "17": 3768,
      "مخاط": 3769,
      "ish": 3770,
      "خور": 3771,
      "اریم": 3772,
      "پاد": 3773,
      "اهمیت": 3774,
      "شمار": 3775,
      "ذکر": 3776,
      "فنا": 3777,
      "آید": 3778,
      "طل": 3779,
      "برنامه‌های": 3780,
      "برق": 3781,
      "واحد": 3782,
      "برو": 3783,
      "عهد": 3784,
      "خدمت": 3785,
      "؟!": 3786,
      "موسیقی": 3787,
      "صرف": 3788,
      "صبح": 3789,
      "مسابقات": 3790,
      "جشنواره": 3791,
      "مواد": 3792,
      "end": 3793,
      "ونم": 3794,
      "جوانان": 3795,
      "۰۹": 3796,
      "دهی": 3797,
      "انداخت": 3798,
      "مف": 3799,
      "مراسم": 3800,
      "بهترین": 3801,
      "زیاد": 3802,
      "عمر": 3803,
      "ویژ": 3804,
      "مشتر": 3805,
      "احتمال": 3806,
      "gr": 3807,
      "کنترل": 3808,
      "جذ": 3809,
      "pe": 3810,
      "تحصی": 3811,
      "محیط": 3812,
      "ونیست": 3813,
      "گین": 3814,
      "شای": 3815,
      "انتقال": 3816,
      "ساد": 3817,
      "صند": 3818,
      "خرید": 3819,
      "میدان": 3820,
      "صور": 3821,
      "پاک": 3822,
      "زیست": 3823,
      "تسنیم": 3824,
      "ظرفیت": 3825,
      "صهیونیست": 3826,
      "منو": 3827,
      "متن": 3828,
      "which": 3829,
      "ب‌": 3830,
      "تحقیق": 3831,
      "می‌کردند": 3832,
      "میلادی": 3833,
      "اجه": 3834,
      "اهل": 3835,
      "زدم": 3836,
      "اوکر": 3837,
      "اوکراین": 3838,
      "سیستم": 3839,
      "ian": 3840,
      "خرد": 3841,
      "هند": 3842,
      "دادن": 3843,
      "--": 3844,
      "ia": 3845,
      "ادل": 3846,
      "24": 3847,
      "۱۶": 3848,
      "گرم": 3849,
      "همچنان": 3850,
      "آنجا": 3851,
      "her": 3852,
      "man": 3853,
      "1400": 3854,
      "اپ": 3855,
      "‌گیری": 3856,
      "موجب": 3857,
      "داران": 3858,
      "خل": 3859,
      "کمیته": 3860,
      "خام": 3861,
      "ت‌الله": 3862,
      "ریزی": 3863,
      "خصوصی": 3864,
      "دقیق": 3865,
      "کز": 3866,
      "۱۷": 3867,
      "آر": 3868,
      "اجازه": 3869,
      "قوه": 3870,
      "می‌دهند": 3871,
      "پرسپولی": 3872,
      "درمان": 3873,
      "اضافه": 3874,
      "‌بودند": 3875,
      "ازد": 3876,
      "نار": 3877,
      "دادم": 3878,
      "اینجا": 3879,
      "ابقه": 3880,
      "پرورش": 3881,
      "رهبر": 3882,
      "مند": 3883,
      "فشار": 3884,
      "۲۰۰": 3885,
      "ord": 3886,
      "پیشر": 3887,
      "اصلا": 3888,
      "انو": 3889,
      "واس": 3890,
      "باشه": 3891,
      "ویم": 3892,
      "خونه": 3893,
      "ld": 3894,
      "عف": 3895,
      "قق": 3896,
      "دغ": 3897,
      "پیشنهاد": 3898,
      "تاریخی": 3899,
      "بیمارستان": 3900,
      "سرعت": 3901,
      "مرز": 3902,
      "پیشرفت": 3903,
      "آبان": 3904,
      "دانش‌": 3905,
      "باقی": 3906,
      "خارجه": 3907,
      "طبیعی": 3908,
      "ابد": 3909,
      "شدید": 3910,
      "جاری": 3911,
      "حاک": 3912,
      "‌کننده": 3913,
      "انتظار": 3914,
      "نظارت": 3915,
      "ard": 3916,
      "دکتر": 3917,
      "پرسپولیس": 3918,
      "ies": 3919,
      "کرون": 3920,
      "درآمد": 3921,
      "qu": 3922,
      "but": 3923,
      "ough": 3924,
      "رفع": 3925,
      "مینی": 3926,
      "فراهم": 3927,
      "اردی": 3928,
      "گیرند": 3929,
      "قضا": 3930,
      "انتشار": 3931,
      "کشتی": 3932,
      "رعایت": 3933,
      "صنایع": 3934,
      "تصویب": 3935,
      "هایی": 3936,
      "وف": 3937,
      "آلمان": 3938,
      "۰۱": 3939,
      "کنندگان": 3940,
      "پرونده": 3941,
      "آیت‌الله": 3942,
      "one": 3943,
      "سور": 3944,
      "پروژه": 3945,
      "قرارداد": 3946,
      "گار": 3947,
      "سفی": 3948,
      "تز": 3949,
      "ادبی": 3950,
      "هشت": 3951,
      "گن": 3952,
      "ویروس": 3953,
      "اصفه": 3954,
      "رفته": 3955,
      "فارسی": 3956,
      "‌شده‌بود": 3957,
      "روشن": 3958,
      "ant": 3959,
      "ماشین": 3960,
      "کارشناس": 3961,
      "سینما": 3962,
      "فناوری": 3963,
      "سوریه": 3964,
      "فعال": 3965,
      "خاطرنشان": 3966,
      "پخش": 3967,
      "معظم": 3968,
      "ایید": 3969,
      "حذ": 3970,
      "برداری": 3971,
      "ارند": 3972,
      "رابطه": 3973,
      "کنش": 3974,
      "مغ": 3975,
      "ظاه": 3976,
      "ive": 3977,
      "مواجه": 3978,
      "سع": 3979,
      "کیفی": 3980,
      "پیگیری": 3981,
      "حکومت": 3982,
      "per": 3983,
      "‌کرد": 3984,
      "معتق": 3985,
      "امید": 3986,
      "بازیکنان": 3987,
      "داف": 3988,
      "پیروزی": 3989,
      "یت": 3990,
      "خواند": 3991,
      "نرخ": 3992,
      "out": 3993,
      "کات": 3994,
      "ame": 3995,
      "عتی": 3996,
      "طوری": 3997,
      "شعر": 3998,
      "جنوبی": 3999,
      "خانم": 4000,
      "od": 4001,
      "بهره‌": 4002,
      "داشتم": 4003,
      "fe": 4004,
      "درخواست": 4005,
      "بگوی": 4006,
      "نویس": 4007,
      "ندگی": 4008,
      "می‌توانند": 4009,
      "قرآن": 4010,
      "دها": 4011,
      "کارهای": 4012,
      "براساس": 4013,
      "گم": 4014,
      "ناد": 4015,
      "ورزش": 4016,
      "بحران": 4017,
      "آنچه": 4018,
      "روزهای": 4019,
      "شرکت‌های": 4020,
      "واره": 4021,
      "ge": 4022,
      "نکت": 4023,
      "**": 4024,
      "آور": 4025,
      "ترک": 4026,
      "زنان": 4027,
      "راحی": 4028,
      "برنامه‌": 4029,
      "احساس": 4030,
      "ated": 4031,
      "22": 4032,
      "پیش‌بینی": 4033,
      "شهادت": 4034,
      "دفت": 4035,
      "‌اش": 4036,
      "عمل‌کرد": 4037,
      "ip": 4038,
      "اها": 4039,
      "رها": 4040,
      "کوه": 4041,
      "ترا": 4042,
      "‌که": 4043,
      "امسال": 4044,
      "الح": 4045,
      "شاد": 4046,
      "سردار": 4047,
      "وش": 4048,
      "متو": 4049,
      "so": 4050,
      "آتش": 4051,
      "اندی": 4052,
      "قیم": 4053,
      "موفق": 4054,
      "بیشتری": 4055,
      "فاصله": 4056,
      "غم": 4057,
      "‌ن": 4058,
      "مراکز": 4059,
      "مقاب": 4060,
      "آزادی": 4061,
      "گرفتن": 4062,
      ").": 4063,
      "our": 4064,
      "مدیران": 4065,
      "ادث": 4066,
      "برگشت": 4067,
      "امتی": 4068,
      "محور": 4069,
      "آرام": 4070,
      "اشک": 4071,
      "سامان": 4072,
      "فنی": 4073,
      "عبار": 4074,
      "علت": 4075,
      "ell": 4076,
      "بگیرد": 4077,
      "ارات": 4078,
      "داستان": 4079,
      "کرمان": 4080,
      "فیل": 4081,
      "باب": 4082,
      "انسانی": 4083,
      "کسانی": 4084,
      "نفس": 4085,
      "اداره": 4086,
      "باور": 4087,
      "لر": 4088,
      "مشترک": 4089,
      "دقی": 4090,
      "تسهی": 4091,
      "شید": 4092,
      "الکت": 4093,
      "کوچک": 4094,
      "تجربه": 4095,
      "فض": 4096,
      "فارس": 4097,
      "باد": 4098,
      "روحانی": 4099,
      "متف": 4100,
      "لذ": 4101,
      "رائی": 4102,
      "تحول": 4103,
      "نهایت": 4104,
      "پلیس": 4105,
      "اصفهان": 4106,
      "جایگاه": 4107,
      "محصولات": 4108,
      "مقابله": 4109,
      "سلیمانی": 4110,
      "مجوز": 4111,
      "حساب": 4112,
      "می‌خواست": 4113,
      "شنی": 4114,
      "سنگ": 4115,
      "موس": 4116,
      "اتحادی": 4117,
      "ack": 4118,
      "who": 4119,
      "تلویزیون": 4120,
      "شرق": 4121,
      "شهرداری": 4122,
      "قاسم": 4123,
      "توافق": 4124,
      "گرانی": 4125,
      "نمی": 4126,
      "ترتی": 4127,
      "چال": 4128,
      "هماه": 4129,
      "ally": 4130,
      "لان": 4131,
      "........": 4132,
      "ort": 4133,
      "عهده": 4134,
      "مبارزه": 4135,
      "لبنان": 4136,
      "پرست": 4137,
      "بابا": 4138,
      "لبخند": 4139,
      "سپس": 4140,
      "میر": 4141,
      "شون": 4142,
      "قهرمان": 4143,
      "چهر": 4144,
      "خطر": 4145,
      "اختص": 4146,
      "روف": 4147,
      "نگوی": 4148,
      "ایف": 4149,
      "تان": 4150,
      "تلف": 4151,
      "دفتر": 4152,
      "جمعه": 4153,
      "حو": 4154,
      "نمی‌شود": 4155,
      "تمامی": 4156,
      "‌ماه": 4157,
      "علم": 4158,
      "لاق": 4159,
      "ie": 4160,
      "جواب": 4161,
      "act": 4162,
      "سلامت": 4163,
      "دچار": 4164,
      "عربستان": 4165,
      "بهم": 4166,
      "قرن": 4167,
      "سیس": 4168,
      "رسان": 4169,
      "پز": 4170,
      "زود": 4171,
      "یز": 4172,
      "مبتلا": 4173,
      "مناسب": 4174,
      "هاش": 4175,
      "قت": 4176,
      "اتحادیه": 4177,
      "خواب": 4178,
      "ریه": 4179,
      "‌ای": 4180,
      "آوری": 4181,
      "رقم": 4182,
      "40": 4183,
      "زیرا": 4184,
      "نهایی": 4185,
      "گانی": 4186,
      "برادر": 4187,
      "آرا": 4188,
      "اورد": 4189,
      "قضائی": 4190,
      "زنی": 4191,
      "بیل": 4192,
      "ary": 4193,
      "مصو": 4194,
      "ound": 4195,
      "کاملا": 4196,
      "ظر": 4197,
      "قد": 4198,
      "‌نشد": 4199,
      "خب": 4200,
      "آش": 4201,
      "قیه": 4202,
      "سخنگوی": 4203,
      "25": 4204,
      "صدی": 4205,
      "می‌کردم": 4206,
      "می‌آید": 4207,
      "سرش": 4208,
      "تقری": 4209,
      "منطق": 4210,
      "احمد": 4211,
      "رفتار": 4212,
      "شف": 4213,
      "فرانسه": 4214,
      "اسرائی": 4215,
      "لحاظ": 4216,
      "هیچ‌": 4217,
      "اختصاص": 4218,
      "ستانی": 4219,
      "خر": 4220,
      "جهاد": 4221,
      "ترتیب": 4222,
      "به‌عنوان": 4223,
      "قسمت": 4224,
      "شناسایی": 4225,
      "کرده‌بود": 4226,
      "شدت": 4227,
      "بسته": 4228,
      "حذف": 4229,
      "نکته": 4230,
      "درد": 4231,
      "واکنش": 4232,
      "\"،": 4233,
      "گروه‌های": 4234,
      "ندارند": 4235,
      "بالای": 4236,
      "نوعی": 4237,
      "139": 4238,
      "روان": 4239,
      "بودم": 4240,
      "رسانی": 4241,
      "کوتاه": 4242,
      "یابد": 4243,
      "مدارس": 4244,
      "over": 4245,
      "own": 4246,
      "فرصت": 4247,
      "حداقل": 4248,
      "Ch": 4249,
      "سرم": 4250,
      "wor": 4251,
      "کاران": 4252,
      "عرصه": 4253,
      "انق": 4254,
      "برنامه‌ریزی": 4255,
      "پیو": 4256,
      "الات": 4257,
      "باری": 4258,
      "ment": 4259,
      "صادرات": 4260,
      "کف": 4261,
      "انین": 4262,
      "ابتدا": 4263,
      "خرو": 4264,
      "سبب": 4265,
      "هیئت": 4266,
      "هام": 4267,
      "عکس": 4268,
      "نداشته": 4269,
      "جبه": 4270,
      "شناخت": 4271,
      "لط": 4272,
      "ماز": 4273,
      "کشت": 4274,
      "اعتبار": 4275,
      "قم": 4276,
      "بازگشت": 4277,
      "گرا": 4278,
      "رقابت": 4279,
      "آبی": 4280,
      "شاخص": 4281,
      "بنیان": 4282,
      "کشورمان": 4283,
      "بهشت": 4284,
      "می‌گفت": 4285,
      "وح": 4286,
      "گوش": 4287,
      "توضی": 4288,
      "شهرهای": 4289,
      "مقر": 4290,
      "؟؟": 4291,
      "بهبود": 4292,
      "du": 4293,
      "متح": 4294,
      "ass": 4295,
      "تایید": 4296,
      "معمو": 4297,
      "ارزی": 4298,
      "سینمایی": 4299,
      "برتر": 4300,
      "رسانه‌های": 4301,
      "res": 4302,
      "راض": 4303,
      "شده‌بود": 4304,
      "دقیقه": 4305,
      "زام": 4306,
      "جلوگیری": 4307,
      "جلس": 4308,
      "کدام": 4309,
      "استاد": 4310,
      "شمند": 4311,
      "جدا": 4312,
      "پایه": 4313,
      "ژی": 4314,
      "فعالیت‌های": 4315,
      "دستگاه‌های": 4316,
      "امت": 4317,
      "ازدو": 4318,
      "همچون": 4319,
      "سرمایه‌گذاری": 4320,
      "طراحی": 4321,
      "وط": 4322,
      "انیه": 4323,
      "خیاب": 4324,
      "مهند": 4325,
      "ماج": 4326,
      "ازدواج": 4327,
      "آماده": 4328,
      "لابی": 4329,
      "ذی": 4330,
      "ud": 4331,
      "were": 4332,
      "دینی": 4333,
      "واردات": 4334,
      "عدالت": 4335,
      "60": 4336,
      "شهریور": 4337,
      "بلو": 4338,
      "تعریف": 4339,
      "ویل": 4340,
      "توضیح": 4341,
      "کیفیت": 4342,
      "ایستاد": 4343,
      "پژوهش": 4344,
      "ine": 4345,
      "انجام‌شده": 4346,
      "tw": 4347,
      "خس": 4348,
      "اعمال": 4349,
      "داشتیم": 4350,
      "توزی": 4351,
      "افظ": 4352,
      "محسو": 4353,
      "مهاج": 4354,
      "حکم": 4355,
      "دارو": 4356,
      "حالت": 4357,
      "مدا": 4358,
      "مناف": 4359,
      "وران": 4360,
      "صدر": 4361,
      "ردی": 4362,
      "دستش": 4363,
      "قوانین": 4364,
      "صنعتی": 4365,
      "حسی": 4366,
      "21": 4367,
      "تاسیس": 4368,
      "دریا": 4369,
      "مناس": 4370,
      "دلم": 4371,
      "عو": 4372,
      "گردشگری": 4373,
      "age": 4374,
      "خبری": 4375,
      "بعدی": 4376,
      "عقب": 4377,
      "فرمان": 4378,
      "درس": 4379,
      "باغ": 4380,
      "لیسی": 4381,
      "not": 4382,
      "اتو": 4383,
      "بستری": 4384,
      "آسیا": 4385,
      "غول": 4386,
      "روایت": 4387,
      "بزرگی": 4388,
      "رح": 4389,
      "ast": 4390,
      "بعضی": 4391,
      "ایند": 4392,
      "عص": 4393,
      "منجر": 4394,
      "ight": 4395,
      "آماد": 4396,
      "لباس": 4397,
      "معتقد": 4398,
      "At": 4399,
      "رسیدن": 4400,
      "عبدال": 4401,
      "تیر": 4402,
      "قای": 4403,
      "آیند": 4404,
      "موم": 4405,
      "راحت": 4406,
      "بس": 4407,
      "خیص": 4408,
      "امتیاز": 4409,
      "St": 4410,
      "۳۰": 4411,
      "نمی‌توان": 4412,
      "هواپی": 4413,
      "مثال": 4414,
      "انج": 4415,
      "عدد": 4416,
      "گام": 4417,
      "برجام": 4418,
      "سرمایه": 4419,
      "معی": 4420,
      "مامان": 4421,
      "توزیع": 4422,
      "اولیه": 4423,
      "دیدم": 4424,
      "سه‌": 4425,
      "مشار": 4426,
      "اعتم": 4427,
      "up": 4428,
      "گسترش": 4429,
      "تعطی": 4430,
      "تقویت": 4431,
      "ساخته": 4432,
      "ویش": 4433,
      "چقدر": 4434,
      "سلط": 4435,
      "Am": 4436,
      "امنیتی": 4437,
      "عرضه": 4438,
      "گرفتم": 4439,
      "متری": 4440,
      "اغ": 4441,
      "سابق": 4442,
      "قبال": 4443,
      "bl": 4444,
      "آنکه": 4445,
      "فل": 4446,
      "دانند": 4447,
      "she": 4448,
      "یمن": 4449,
      "لیت": 4450,
      "تغیی": 4451,
      "صندوق": 4452,
      "مهم‌ترین": 4453,
      "مذاکرات": 4454,
      "خداوند": 4455,
      "اگه": 4456,
      "ra": 4457,
      "خراسان": 4458,
      "تقریبا": 4459,
      "صاح": 4460,
      "rit": 4461,
      "۲۵": 4462,
      "لایحه": 4463,
      "مسلمان": 4464,
      "شرقی": 4465,
      "چوب": 4466,
      "مشاه": 4467,
      "سینا": 4468,
      "if": 4469,
      "واقعا": 4470,
      "برج": 4471,
      "اهداف": 4472,
      "معروف": 4473,
      "دریایی": 4474,
      "ابتدای": 4475,
      "مرتب": 4476,
      "داره": 4477,
      "واقعی": 4478,
      "شمالی": 4479,
      "حاشی": 4480,
      "می‌گویند": 4481,
      "کردی": 4482,
      "اختلاف": 4483,
      "صهیونیستی": 4484,
      "Ar": 4485,
      "ov": 4486,
      "قبول": 4487,
      "جبهه": 4488,
      "ادع": 4489,
      "ولو": 4490,
      "افرادی": 4491,
      "fir": 4492,
      "مایش": 4493,
      "had": 4494,
      "جلوی": 4495,
      "سیل": 4496,
      "تبلی": 4497,
      "ایست": 4498,
      "مردمی": 4499,
      "جویان": 4500,
      "تال": 4501,
      "نح": 4502,
      "چندین": 4503,
      "دستم": 4504,
      "بهش": 4505,
      "رانی": 4506,
      "۲۲": 4507,
      "مدرسه": 4508,
      "The": 4509,
      "مشارکت": 4510,
      "فول": 4511,
      "خلی": 4512,
      "همون": 4513,
      "مرت": 4514,
      "انیا": 4515,
      "comp": 4516,
      "عربی": 4517,
      "کاش": 4518,
      "ial": 4519,
      "سوخت": 4520,
      "has": 4521,
      "شاع": 4522,
      "bo": 4523,
      "سالی": 4524,
      "قز": 4525,
      "قهرمانی": 4526,
      "چاپ": 4527,
      "موافق": 4528,
      "مایی": 4529,
      "میه": 4530,
      "هوایی": 4531,
      "سک": 4532,
      "آف": 4533,
      "سبک": 4534,
      "عاش": 4535,
      "ناشی": 4536,
      "موفقی": 4537,
      "قالب": 4538,
      "بخش‌های": 4539,
      "بایجان": 4540,
      "چرخ": 4541,
      "درصدی": 4542,
      "100": 4543,
      "خیره": 4544,
      "نخواهد": 4545,
      "ach": 4546,
      "دستی": 4547,
      "آذربایجان": 4548,
      "تصویر": 4549,
      "مبل": 4550,
      "آخر": 4551,
      "کم‌": 4552,
      "لحظه": 4553,
      "ثی": 4554,
      "گردانی": 4555,
      "ندر": 4556,
      "می‌داد": 4557,
      "تجه": 4558,
      "کالا": 4559,
      "کافی": 4560,
      "محسوب": 4561,
      "تخص": 4562,
      "فعلی": 4563,
      "انگلیسی": 4564,
      "مستند": 4565,
      "تجهیز": 4566,
      "عباس": 4567,
      "سرمربی": 4568,
      "خلاف": 4569,
      "au": 4570,
      "نه‌": 4571,
      "ویه": 4572,
      "ous": 4573,
      "هنرم": 4574,
      "نگاهش": 4575,
      "سرزمین": 4576,
      "تروری": 4577,
      "مذه": 4578,
      "دیر": 4579,
      "صحنه": 4580,
      "ببین": 4581,
      "انگلیس": 4582,
      "‌یافته": 4583,
      "جون": 4584,
      "ساختمان": 4585,
      "واب": 4586,
      "راستای": 4587,
      "رونی": 4588,
      "ترد": 4589,
      "بهداشتی": 4590,
      "عود": 4591,
      "مشغول": 4592,
      "منبع": 4593,
      "علی‌": 4594,
      "رافی": 4595,
      "حاصل": 4596,
      "رشته": 4597,
      "ave": 4598,
      "مبنی": 4599,
      "تورم": 4600,
      "ادبیات": 4601,
      "انقلابی": 4602,
      "فوق": 4603,
      "زدن": 4604,
      "پری": 4605,
      "تین": 4606,
      "نص": 4607,
      "حجت": 4608,
      "شرح": 4609,
      "هماهنگی": 4610,
      "داشتن": 4611,
      "‌شان": 4612,
      "اسرائیل": 4613,
      "مخالف": 4614,
      "درجه": 4615,
      "ساختار": 4616,
      "تبلیغ": 4617,
      "70": 4618,
      "لاک": 4619,
      "کشورها": 4620,
      "اعتماد": 4621,
      "حک": 4622,
      "رئیسی": 4623,
      "وزی": 4624,
      "کیلومتر": 4625,
      "گاه‌های": 4626,
      "عظ": 4627,
      "قدی": 4628,
      "بیه": 4629,
      "فرمود": 4630,
      "بورس": 4631,
      "».": 4632,
      "مجد": 4633,
      "نقطه": 4634,
      "یون": 4635,
      "لاغ": 4636,
      "play": 4637,
      "قضایی": 4638,
      "مثلا": 4639,
      "نوشته": 4640,
      "عبارت": 4641,
      "سیر": 4642,
      "آسیب": 4643,
      "شهروند": 4644,
      "اعتراض": 4645,
      "السلام": 4646,
      "اداری": 4647,
      "نیمه": 4648,
      "تد": 4649,
      "گانه": 4650,
      "رفتن": 4651,
      "80": 4652,
      "چاق": 4653,
      "بیا": 4654,
      "متوجه": 4655,
      "str": 4656,
      "مسجد": 4657,
      "زمینی": 4658,
      "مستقیم": 4659,
      "خندی": 4660,
      "لذا": 4661,
      "فره": 4662,
      "زو": 4663,
      "نگاهی": 4664,
      "هیات": 4665,
      "اعتق": 4666,
      "آس": 4667,
      "وظی": 4668,
      "انتقاد": 4669,
      "اشتباه": 4670,
      "خاصی": 4671,
      "بغ": 4672,
      "ویژگی": 4673,
      "زنگ": 4674,
      "قول": 4675,
      "تزریق": 4676,
      "آدم": 4677,
      "دعوت": 4678,
      "ser": 4679,
      "صدور": 4680,
      "ارسال": 4681,
      "همواره": 4682,
      "‌نام": 4683,
      "‌گذاری": 4684,
      "140": 4685,
      "der": 4686,
      "طین": 4687,
      "۰۸": 4688,
      "آقا": 4689,
      "شیمی": 4690,
      "its": 4691,
      "خالی": 4692,
      "23": 4693,
      "پان": 4694,
      "تجارت": 4695,
      "چهارم": 4696,
      "ep": 4697,
      "می‌گردد": 4698,
      "رسیدگی": 4699,
      "سهم": 4700,
      "جامع": 4701,
      "خرداد": 4702,
      "سختی": 4703,
      "مهمی": 4704,
      "محیط‌": 4705,
      "‌رسانی": 4706,
      "دیو": 4707,
      "عات": 4708,
      "مالیات": 4709,
      "نتایج": 4710,
      "خلا": 4711,
      "حقیق": 4712,
      "بک": 4713,
      "توجهی": 4714,
      "خودشان": 4715,
      "گویی": 4716,
      "آورده": 4717,
      "۲۴": 4718,
      "هنگام": 4719,
      "زدهم": 4720,
      "می‌خو": 4721,
      "اشتغال": 4722,
      "اث": 4723,
      "cord": 4724,
      "کودکان": 4725,
      "جذب": 4726,
      "۲۱": 4727,
      "هد": 4728,
      "مخاطب": 4729,
      "معنای": 4730,
      "تازه": 4731,
      "برم": 4732,
      "ارف": 4733,
      "موش": 4734,
      "کنان": 4735,
      "orn": 4736,
      "اروپایی": 4737,
      "سعودی": 4738,
      "متفاوت": 4739,
      "تهیه": 4740,
      "وقی": 4741,
      "مشک": 4742,
      "فرود": 4743,
      "ائتلا": 4744,
      "ome": 4745,
      "آموزشی": 4746,
      "پذی": 4747,
      "بنده": 4748,
      "تئ": 4749,
      "خشک": 4750,
      "حتما": 4751,
      "طال": 4752,
      "وریت": 4753,
      "لال": 4754,
      "الهی": 4755,
      "هسته‌ای": 4756,
      "Un": 4757,
      "فرم": 4758,
      "first": 4759,
      "بدی": 4760,
      "معمولا": 4761,
      "بتوان": 4762,
      "their": 4763,
      "تحقق": 4764,
      "پوشش": 4765,
      "انگی": 4766,
      "سیاه": 4767,
      "tim": 4768,
      "مکان": 4769,
      "مثبت": 4770,
      "بله": 4771,
      "۲۳": 4772,
      "‌نامه": 4773,
      "بیماران": 4774,
      "نیازم": 4775,
      "other": 4776,
      "کشوری": 4777,
      "۱۴۰۱": 4778,
      "هیئت‌": 4779,
      "دانش‌آمو": 4780,
      "حسینی": 4781,
      "اسناد": 4782,
      "90": 4783,
      "چالش": 4784,
      "لیم": 4785,
      "آیین": 4786,
      "تقسیم": 4787,
      "سایه": 4788,
      "مسئولیت": 4789,
      "In": 4790,
      "کیه": 4791,
      "اعی": 4792,
      "ice": 4793,
      "کودک": 4794,
      "تجاری": 4795,
      "جمعی": 4796,
      "صاد": 4797,
      "فش": 4798,
      "محاس": 4799,
      "مسلح": 4800,
      "ضد": 4801,
      "این‌گونه": 4802,
      "داده‌اند": 4803,
      "خیابان": 4804,
      "سراسر": 4805,
      "مجاز": 4806,
      "عصر": 4807,
      "چر": 4808,
      "بندر": 4809,
      "واکسینا": 4810,
      "قاضی": 4811,
      "منطقه‌ای": 4812,
      "قدم": 4813,
      "فلسطین": 4814,
      "ژاد": 4815,
      "کرونایی": 4816,
      "سیاست‌های": 4817,
      "واکسیناسیون": 4818,
      "ok": 4819,
      "نقاط": 4820,
      "ه‌هایی": 4821,
      "year": 4822,
      "زر": 4823,
      "ure": 4824,
      "نسخ": 4825,
      "فین": 4826,
      "قصد": 4827,
      "تحلیل": 4828,
      "ical": 4829,
      "موقعیت": 4830,
      "آلود": 4831,
      "پادشاه": 4832,
      "att": 4833,
      "سنت": 4834,
      "اردو": 4835,
      "بهار": 4836,
      "وام": 4837,
      "معنی": 4838,
      "برسد": 4839,
      "کجا": 4840,
      "منافع": 4841,
      "محیط‌زیست": 4842,
      "کارگردانی": 4843,
      "فردی": 4844,
      "نرم": 4845,
      "‌زاده": 4846,
      "جدیدی": 4847,
      "حادث": 4848,
      "لغ": 4849,
      "‌الاسلام": 4850,
      "شهدا": 4851,
      "محسن": 4852,
      "نگاهم": 4853,
      "جیب": 4854,
      "ئن": 4855,
      "عبور": 4856,
      "‌اند": 4857,
      "تهدید": 4858,
      "ضعی": 4859,
      "بط": 4860,
      "li": 4861,
      "انگار": 4862,
      "عوامل": 4863,
      "اندازه": 4864,
      "بیش‌ترین": 4865,
      "شخصیت": 4866,
      "همه‌": 4867,
      "part": 4868,
      "‌طور": 4869,
      "برخوردار": 4870,
      "خمینی": 4871,
      "استانی": 4872,
      "فیلم‌های": 4873,
      "مقامات": 4874,
      "متحده": 4875,
      "موک": 4876,
      "حقوقی": 4877,
      "همزمان": 4878,
      "تماس": 4879,
      "ائتلاف": 4880,
      "تنظ": 4881,
      "انواع": 4882,
      "فردا": 4883,
      "sp": 4884,
      "ore": 4885,
      "فجر": 4886,
      "سنگین": 4887,
      "مشهد": 4888,
      "کمیل": 4889,
      "زنده": 4890,
      "راهبرد": 4891,
      "حجت‌الاسلام": 4892,
      "موثر": 4893,
      "بده": 4894,
      "ev": 4895,
      "فاع": 4896,
      "عادی": 4897,
      "قطر": 4898,
      "ember": 4899,
      "پیامبر": 4900,
      "می‌گذ": 4901,
      "فو": 4902,
      "احی": 4903,
      "درون": 4904,
      "اردیبهشت": 4905,
      "مذکور": 4906,
      "نگرانی": 4907,
      "قاب": 4908,
      "شیوع": 4909,
      "پزشک": 4910,
      "نمونه": 4911,
      "وظیفه": 4912,
      "زستان": 4913,
      "مسکو": 4914,
      "ورز": 4915,
      "br": 4916,
      "انجمن": 4917,
      "گردید": 4918,
      "جور": 4919,
      "مشاهده": 4920,
      "تکر": 4921,
      "سینمای": 4922,
      "بازی‌های": 4923,
      "رساند": 4924,
      "28": 4925,
      "گرفتند": 4926,
      "اسپ": 4927,
      "تسهیلات": 4928,
      "جزئی": 4929,
      "قلب": 4930,
      "قطعا": 4931,
      "ایام": 4932,
      "ater": 4933,
      "مسا": 4934,
      "کشف": 4935,
      "‌بند": 4936,
      "ژن": 4937,
      "مرغ": 4938,
      "ه‌ها": 4939,
      "هستم": 4940,
      "مجبور": 4941,
      "انید": 4942,
      "کمبود": 4943,
      "ction": 4944,
      "منم": 4945,
      "قبلی": 4946,
      "کتی": 4947,
      "تنظیم": 4948,
      "og": 4949,
      "تحقیقات": 4950,
      "ایم": 4951,
      "دوستان": 4952,
      "هدایت": 4953,
      "سبز": 4954,
      "اولویت": 4955,
      "بریم": 4956,
      "بنیاد": 4957,
      "اینتر": 4958,
      "سف": 4959,
      "استاندار": 4960,
      "شرایطی": 4961,
      "ابراهی": 4962,
      "روزنامه": 4963,
      "برند": 4964,
      "though": 4965,
      "پایتخت": 4966,
      "ide": 4967,
      "ree": 4968,
      "عشق": 4969,
      "یکدیگر": 4970,
      "فاط": 4971,
      "پرواز": 4972,
      "کارشناسان": 4973,
      "شخص": 4974,
      "کشیدم": 4975,
      "عید": 4976,
      "گسترده": 4977,
      "دایی": 4978,
      "درمانی": 4979,
      "اذ": 4980,
      "صره": 4981,
      "۲۸": 4982,
      "اعتقاد": 4983,
      "مازندر": 4984,
      "بانکی": 4985,
      "نشود": 4986,
      "خروج": 4987,
      "land": 4988,
      "ه‌سازی": 4989,
      "مرداد": 4990,
      "شماره": 4991,
      "aw": 4992,
      "رشت": 4993,
      "جدول": 4994,
      "اینها": 4995,
      "سفید": 4996,
      "عمی": 4997,
      "کره": 4998,
      "اخر": 4999,
      "المپیک": 5000,
      "تکمیل": 5001,
      "تحویل": 5002,
      "جایزه": 5003,
      "اطراف": 5004,
      "ition": 5005,
      "ابراز": 5006,
      "ایالات": 5007,
      "تحصیل": 5008,
      "خال": 5009,
      "اصر": 5010,
      "ترس": 5011,
      "پیمان": 5012,
      "they": 5013,
      "حرم": 5014,
      "بدن": 5015,
      "dis": 5016,
      "منتظر": 5017,
      "وای": 5018,
      "نداریم": 5019,
      "بسیج": 5020,
      "قرمز": 5021,
      "پشتی": 5022,
      "ke": 5023,
      "۵۰": 5024,
      "‌بودم": 5025,
      "رودخانه": 5026,
      "پروت": 5027,
      "لند": 5028,
      "حجم": 5029,
      "رویکرد": 5030,
      "ضرورت": 5031,
      "کلا": 5032,
      "جاده": 5033,
      "ased": 5034,
      "دیدن": 5035,
      "ثابت": 5036,
      "ign": 5037,
      "him": 5038,
      "پیچی": 5039,
      "مدیرعامل": 5040,
      "حقیقت": 5041,
      "شدیم": 5042,
      "زیرس": 5043,
      "تشخیص": 5044,
      "انتظامی": 5045,
      "دومین": 5046,
      "تلویزیونی": 5047,
      "تعدادی": 5048,
      "ماهی": 5049,
      "تبر": 5050,
      "تخصصی": 5051,
      "iz": 5052,
      "پذیرفت": 5053,
      "شهروندان": 5054,
      "خند": 5055,
      "بیست": 5056,
      "نماز": 5057,
      "پوی": 5058,
      "sing": 5059,
      "قوی": 5060,
      "ضعف": 5061,
      "سایت": 5062,
      "کاغذ": 5063,
      "جزی": 5064,
      "می‌برد": 5065,
      "لد": 5066,
      "گز": 5067,
      "دانشجویان": 5068,
      "work": 5069,
      "مقدم": 5070,
      "پرداز": 5071,
      "رمان": 5072,
      "تجهیزات": 5073,
      "نظیر": 5074,
      "مرتبط": 5075,
      "زندان": 5076,
      "تعهد": 5077,
      "نفو": 5078,
      "بره": 5079,
      "جویی": 5080,
      "قاچاق": 5081,
      "واقعیت": 5082,
      "سال‌ها": 5083,
      "۱۳۹۹": 5084,
      "۲۷": 5085,
      "ناک": 5086,
      "‌بندی": 5087,
      "بوشهر": 5088,
      "ارها": 5089,
      "خبرنگاران": 5090,
      "امری": 5091,
      "مجمع": 5092,
      "ملل": 5093,
      "ult": 5094,
      "ثبت‌نام": 5095,
      "مسابقه": 5096,
      "اقت": 5097,
      "قضائیه": 5098,
      "راه‌": 5099,
      "1401": 5100,
      "تقاض": 5101,
      "تیم‌های": 5102,
      "کردستان": 5103,
      "استع": 5104,
      "سهام": 5105,
      "بگی": 5106,
      "محلی": 5107,
      "بنای": 5108,
      "نویسنده": 5109,
      "یار": 5110,
      "خلیج": 5111,
      "بتواند": 5112,
      "زاد": 5113,
      "موقع": 5114,
      "بچه‌ها": 5115,
      "یس": 5116,
      "خوزستان": 5117,
      "می‌رفت": 5118,
      "ناح": 5119,
      "ذهن": 5120,
      "ترو": 5121,
      "علیرضا": 5122,
      "نسل": 5123,
      "لمانی": 5124,
      "نکرده": 5125,
      "شیخ": 5126,
      "تحریم‌ها": 5127,
      "کلاس": 5128,
      "ارتفاع": 5129,
      "مصوبه": 5130,
      "ff": 5131,
      "27": 5132,
      "هزینه‌های": 5133,
      "هم‌اکنون": 5134,
      "ican": 5135,
      "نیستند": 5136,
      "۲۶": 5137,
      "تبی": 5138,
      "لیا": 5139,
      "ang": 5140,
      "موضوعات": 5141,
      "فرهاد": 5142,
      "قلم": 5143,
      "راه‌اند": 5144,
      "این‌بود": 5145,
      "دارایی": 5146,
      "باشم": 5147,
      "راتی": 5148,
      "قطعی": 5149,
      "ان‌": 5150,
      "عزیز": 5151,
      "باتی": 5152,
      "الکترونی": 5153,
      "بارها": 5154,
      "راه‌اندازی": 5155,
      "استقبال": 5156,
      "حافظ": 5157,
      "روستا": 5158,
      "تاج": 5159,
      "آست": 5160,
      "علیه‌": 5161,
      "اصول": 5162,
      "بروز": 5163,
      "مختل": 5164,
      "دغدغ": 5165,
      "حفاظ": 5166,
      "گلستان": 5167,
      "۲۹": 5168,
      "انع": 5169,
      "فیزی": 5170,
      "بازدید": 5171,
      "int": 5172,
      "ولایت": 5173,
      "off": 5174,
      "بگیری": 5175,
      ".....": 5176,
      "ک‌های": 5177,
      "شینی": 5178,
      "شناخته": 5179,
      "بازیگر": 5180,
      "امکانات": 5181,
      "نیازمند": 5182,
      "ضعیف": 5183,
      "ندارم": 5184,
      "حص": 5185,
      "تدوین": 5186,
      "موفقیت": 5187,
      "cho": 5188,
      "سیما": 5189,
      "هوای": 5190,
      "شویم": 5191,
      "this": 5192,
      "خانگی": 5193,
      "امارات": 5194,
      "عوض": 5195,
      "طولانی": 5196,
      "هواد": 5197,
      "ونت": 5198,
      "نگران": 5199,
      "عملیاتی": 5200,
      "‌ون": 5201,
      "متوسط": 5202,
      "امیدوارم": 5203,
      "عب": 5204,
      "حاشیه": 5205,
      "امو": 5206,
      "ورزشگاه": 5207,
      "متع": 5208,
      "دیوان": 5209,
      "صفر": 5210,
      "تغییرات": 5211,
      "po": 5212,
      "sc": 5213,
      "ژان": 5214,
      "گونه‌ای": 5215,
      "جلسات": 5216,
      "حادثه": 5217,
      "نمایشگاه": 5218,
      "!!": 5219,
      "گفتگو": 5220,
      "علیه‌السلام": 5221,
      "آهنگ": 5222,
      "کالاهای": 5223,
      "ret": 5224,
      "قدس": 5225,
      "ue": 5226,
      "صورتی": 5227,
      "چگونه": 5228,
      "حداک": 5229,
      "خواهم": 5230,
      "ایالات‌": 5231,
      "لز": 5232,
      "فرار": 5233,
      "طالبان": 5234,
      "26": 5235,
      "ایالات‌متحده": 5236,
      "اکت": 5237,
      "عن": 5238,
      "پایگاه": 5239,
      "حرفه‌ای": 5240,
      "ممن": 5241,
      "گذاشته": 5242,
      "مشابه": 5243,
      "ould": 5244,
      "کارگردان": 5245,
      "مازندران": 5246,
      "کارت": 5247,
      "مندی": 5248,
      "99": 5249,
      "بتوانیم": 5250,
      "میرز": 5251,
      "مراج": 5252,
      "احدا": 5253,
      "فهمی": 5254,
      "مذهبی": 5255,
      "دسته": 5256,
      "حمل‌ون": 5257,
      "‌هایش": 5258,
      "cont": 5259,
      "افتاده": 5260,
      "مطم": 5261,
      "ind": 5262,
      "کاربرد": 5263,
      "معاونت": 5264,
      "ه‌شده‌است": 5265,
      "حمل‌ونقل": 5266,
      "بینیم": 5267,
      "رغم": 5268,
      "me": 5269,
      "تفاوت": 5270,
      "گروهی": 5271,
      "born": 5272,
      "سابقه": 5273,
      "نداد": 5274,
      "تکرار": 5275,
      "سنی": 5276,
      "می‌خواهد": 5277,
      "منفی": 5278,
      "خم": 5279,
      "درگیری": 5280,
      "dr": 5281,
      "مردان": 5282,
      "حاکم": 5283,
      "فساد": 5284,
      "کارخانه": 5285,
      "کلیف": 5286,
      "احداث": 5287,
      "مقای": 5288,
      "مخالفت": 5289,
      "مدل": 5290,
      "مشاور": 5291,
      "ناصر": 5292,
      "تبصره": 5293,
      "توصی": 5294,
      "co": 5295,
      "لوب": 5296,
      "استان‌های": 5297,
      "کنونی": 5298,
      "also": 5299,
      "سرخ": 5300,
      "میرا": 5301,
      "پارلمانی": 5302,
      "نکرد": 5303,
      "فکری": 5304,
      "برس": 5305,
      "صفحه": 5306,
      "تدری": 5307,
      "هرمز": 5308,
      "گرایی": 5309,
      "اشغال": 5310,
      "نه‌تنها": 5311,
      "ارهای": 5312,
      "نحوه": 5313,
      "واژه": 5314,
      "دوز": 5315,
      "۱۹۹": 5316,
      "درخت": 5317,
      "جزو": 5318,
      "ence": 5319,
      "ه‌بودم": 5320,
      "where": 5321,
      "محکو": 5322,
      "ust": 5323,
      "ابلاغ": 5324,
      "آمادگی": 5325,
      "زید": 5326,
      "دهنده": 5327,
      "کارشناسی": 5328,
      "بازیگران": 5329,
      "همان‌طور": 5330,
      "گوشی": 5331,
      "ran": 5332,
      "محتو": 5333,
      "نامی": 5334,
      "دسترسی": 5335,
      "نماید": 5336,
      "ph": 5337,
      "بیمه": 5338,
      "محمود": 5339,
      "بزرگترین": 5340,
      "بارش": 5341,
      "می‌دانند": 5342,
      "خدای": 5343,
      "هشد": 5344,
      "می‌زد": 5345,
      "مانع": 5346,
      "ماس": 5347,
      "نفوذ": 5348,
      "موج": 5349,
      "آروم": 5350,
      "ایده": 5351,
      "ارزیابی": 5352,
      "نفتی": 5353,
      "have": 5354,
      "‌وزیر": 5355,
      "تهیه‌": 5356,
      "نخست‌وزیر": 5357,
      "سعید": 5358,
      "‌نشده‌است": 5359,
      "ه‌بودند": 5360,
      "احتی": 5361,
      "عز": 5362,
      "ظاهر": 5363,
      "ندم": 5364,
      "رسانه‌ای": 5365,
      "تبری": 5366,
      "رتبه": 5367,
      "جزیره": 5368,
      "سالن": 5369,
      "یادآور": 5370,
      "ترم": 5371,
      "ماری": 5372,
      "پوش": 5373,
      "ten": 5374,
      "دهم": 5375,
      "ace": 5376,
      "تدا": 5377,
      "ابزار": 5378,
      "رضوی": 5379,
      "راد": 5380,
      "نهادی": 5381,
      "نمی‌تواند": 5382,
      "محمدی": 5383,
      "باخت": 5384,
      "چشمان": 5385,
      "انه‌های": 5386,
      "دریای": 5387,
      "‌ان": 5388,
      "روستای": 5389,
      "تاز": 5390,
      "نمی‌کند": 5391,
      "خانواد": 5392,
      "حوزه‌های": 5393,
      "میلاد": 5394,
      "مدیرکل": 5395,
      "بشر": 5396,
      "باران": 5397,
      "یک‌میلیون": 5398,
      "دادگاه": 5399,
      "پیوست": 5400,
      "lo": 5401,
      "kn": 5402,
      "لق": 5403,
      "مختلفی": 5404,
      "وانی": 5405,
      "بازر": 5406,
      "old": 5407,
      "توپ": 5408,
      "مقایسه": 5409,
      "Amer": 5410,
      "ضروری": 5411,
      "شهرسازی": 5412,
      "شورا": 5413,
      "مراجعه": 5414,
      "بوم": 5415,
      "ارتی": 5416,
      "کشته": 5417,
      "درک": 5418,
      "ابراهیم": 5419,
      "وزن": 5420,
      "تصاوی": 5421,
      "برود": 5422,
      "ved": 5423,
      "song": 5424,
      "time": 5425,
      "Ne": 5426,
      "مدرضا": 5427,
      "ساح": 5428,
      "pt": 5429,
      "لوی": 5430,
      "طلا": 5431,
      "دشمنان": 5432,
      "منتقل": 5433,
      "فرزندان": 5434,
      "جبران": 5435,
      "دموک": 5436,
      "جنگی": 5437,
      "نبرد": 5438,
      "ارتباطات": 5439,
      "فولاد": 5440,
      "زیرساخت": 5441,
      "after": 5442,
      "گش": 5443,
      "واحدهای": 5444,
      "مطالعه": 5445,
      "خنده": 5446,
      "air": 5447,
      "صرفا": 5448,
      "دز": 5449,
      "حفاظت": 5450,
      "میخو": 5451,
      "قدیمی": 5452,
      "ریخت": 5453,
      "لین": 5454,
      "شیدی": 5455,
      "مدعی": 5456,
      "شام": 5457,
      "گفتند": 5458,
      "تربیت": 5459,
      "سنتی": 5460,
      "اتفاقات": 5461,
      "شیراز": 5462,
      "29": 5463,
      "قری": 5464,
      "حدی": 5465,
      "سخنان": 5466,
      "port": 5467,
      "شری": 5468,
      "مهندسی": 5469,
      "دون": 5470,
      "میانه": 5471,
      "می‌توانیم": 5472,
      "راند": 5473,
      "اسما": 5474,
      "گیلان": 5475,
      "been": 5476,
      "صو": 5477,
      "پروژ": 5478,
      "افتخار": 5479,
      "سرپرست": 5480,
      "خواهی": 5481,
      "بالاتر": 5482,
      "comm": 5483,
      "برز": 5484,
      "دلایل": 5485,
      "ans": 5486,
      "مور": 5487,
      "چشمه": 5488,
      "پست": 5489,
      "able": 5490,
      "عمد": 5491,
      "محکم": 5492,
      "راستا": 5493,
      "کمر": 5494,
      "ابتلا": 5495,
      "نزد": 5496,
      "گره": 5497,
      "ه‌شده‌": 5498,
      "کادر": 5499,
      "گاری": 5500,
      "زیبا": 5501,
      "هرچند": 5502,
      "مدتی": 5503,
      "خلق": 5504,
      "روزها": 5505,
      "ترجمه": 5506,
      "ازدهم": 5507,
      "تای": 5508,
      "ابن": 5509,
      "جوری": 5510,
      "ناز": 5511,
      "مذاکره": 5512,
      "امروزه": 5513,
      "پذیرش": 5514,
      "نبوده": 5515,
      "نجات": 5516,
      "سپرد": 5517,
      "تکلیف": 5518,
      "مهمترین": 5519,
      "کانون": 5520,
      "ترام": 5521,
      "وقوع": 5522,
      "مشرو": 5523,
      "خورده": 5524,
      "صادق": 5525,
      "بقیه": 5526,
      "وسیله": 5527,
      "اقی": 5528,
      "بهره‌برداری": 5529,
      "یزد": 5530,
      "bec": 5531,
      "روستایی": 5532,
      "شاخ": 5533,
      "ه‌بندی": 5534,
      "‌مان": 5535,
      "درگیر": 5536,
      "نهادهای": 5537,
      "نر": 5538,
      "نگهبان": 5539,
      "جایگ": 5540,
      "500": 5541,
      "پناه": 5542,
      "عمده": 5543,
      "ضاع": 5544,
      "ve": 5545,
      "غذا": 5546,
      "بوی": 5547,
      "نقشه": 5548,
      "ترامپ": 5549,
      "صلی": 5550,
      "پال": 5551,
      "انیان": 5552,
      "بهره": 5553,
      "مقدار": 5554,
      "ناب": 5555,
      "urn": 5556,
      "موشک": 5557,
      "می‌گیرند": 5558,
      "علنی": 5559,
      "لشکر": 5560,
      "ئین": 5561,
      "تولیدی": 5562,
      "شهدای": 5563,
      "چارچوب": 5564,
      "گریه": 5565,
      "chool": 5566,
      "خویش": 5567,
      "مصاح": 5568,
      "ضان": 5569,
      "مبلغ": 5570,
      "احترام": 5571,
      "''.": 5572,
      "رویداد": 5573,
      "مالیاتی": 5574,
      "مفهو": 5575,
      "ely": 5576,
      "محمدرضا": 5577,
      "rele": 5578,
      "اعد": 5579,
      "خات": 5580,
      "باح": 5581,
      "‌ام": 5582,
      "199": 5583,
      "صاحب": 5584,
      "سلاح": 5585,
      "کشیده": 5586,
      "198": 5587,
      "امداد": 5588,
      "۰۰۰": 5589,
      "تمرین": 5590,
      "اوز": 5591,
      "معاد": 5592,
      "سالانه": 5593,
      "سون": 5594,
      "سده": 5595,
      "دیگران": 5596,
      "ششم": 5597,
      "همسر": 5598,
      "آزمون": 5599,
      "می‌داند": 5600,
      "خوشب": 5601,
      "موتور": 5602,
      "موسسه": 5603,
      "سکوت": 5604,
      "دقت": 5605,
      "ade": 5606,
      "‌آوری": 5607,
      "بلا": 5608,
      "ile": 5609,
      "شکده": 5610,
      "‌فارس": 5611,
      "into": 5612,
      "شدی": 5613,
      "۴۰": 5614,
      "مظ": 5615,
      "سنگی": 5616,
      "خلیج‌فارس": 5617,
      "سرباز": 5618,
      "عددی": 5619,
      "منص": 5620,
      "اواخر": 5621,
      "امبر": 5622,
      "اوج": 5623,
      "آتش‌": 5624,
      "ath": 5625,
      "طلب": 5626,
      "ستگی": 5627,
      "ترکیب": 5628,
      "اتفاقی": 5629,
      "new": 5630,
      "دستو": 5631,
      "چهارشنبه": 5632,
      "اراضی": 5633,
      "انص": 5634,
      "خوشبخت": 5635,
      "جالب": 5636,
      "گونا": 5637,
      "معادل": 5638,
      "یابی": 5639,
      "ه‌دار": 5640,
      "بدین": 5641,
      "۰۷": 5642,
      "می‌کنی": 5643,
      "فهر": 5644,
      "ory": 5645,
      "خودت": 5646,
      "یکم": 5647,
      "ارشاد": 5648,
      "ملک": 5649,
      "منان": 5650,
      "جاد": 5651,
      "دامی": 5652,
      "ty": 5653,
      "مستقل": 5654,
      "نهاده": 5655,
      "ژو": 5656,
      "دفاعی": 5657,
      "بریت": 5658,
      "بگیرند": 5659,
      "45": 5660,
      "اعزام": 5661,
      "ula": 5662,
      "بدهد": 5663,
      "متخص": 5664,
      "وضع": 5665,
      "خواستار": 5666,
      "حات": 5667,
      "ظرفیت‌های": 5668,
      "اغلب": 5669,
      "تخری": 5670,
      "ارشد": 5671,
      "بیند": 5672,
      "two": 5673,
      "تصور": 5674,
      "جغ": 5675,
      "بختی": 5676,
      "حیت": 5677,
      "خانه‌های": 5678,
      "آرامش": 5679,
      "آهن": 5680,
      "زا": 5681,
      "به‌صورت": 5682,
      "آشنا": 5683,
      "پدیده": 5684,
      "نامه‌های": 5685,
      "تعجب": 5686,
      "طرح‌های": 5687,
      "وعده": 5688,
      "دانی": 5689,
      "می‌توانست": 5690,
      "نظری": 5691,
      "همراهی": 5692,
      "کتب": 5693,
      "تئاتر": 5694,
      "ئم": 5695,
      "خاط": 5696,
      "تض": 5697,
      "پشتیبانی": 5698,
      "اطلاعاتی": 5699,
      "وابسته": 5700,
      "فتح": 5701,
      "هنرمندان": 5702,
      "چطور": 5703,
      "مصوب": 5704,
      "دادیم": 5705,
      "سه‌شنبه": 5706,
      "خوانی": 5707,
      "رزم": 5708,
      "متخصص": 5709,
      "ریشه": 5710,
      "اگرچه": 5711,
      "حیح": 5712,
      "مگه": 5713,
      "can": 5714,
      "لزوم": 5715,
      "صلح": 5716,
      "بیانیه": 5717,
      "قتل": 5718,
      "اندیشه": 5719,
      "نجی": 5720,
      "اخذ": 5721,
      "دیوار": 5722,
      "دوشنبه": 5723,
      "تومانی": 5724,
      "مشت": 5725,
      "نشر": 5726,
      "یو": 5727,
      "نسخه": 5728,
      "برگرد": 5729,
      "احتمالا": 5730,
      "سیزدهم": 5731,
      "عالم": 5732,
      "خامن": 5733,
      "تحری": 5734,
      "اوایل": 5735,
      "تمد": 5736,
      "پیشین": 5737,
      "مساله": 5738,
      "قات": 5739,
      "درستی": 5740,
      "‌آباد": 5741,
      "زهرا": 5742,
      "پنجم": 5743,
      "نتوانست": 5744,
      "نامه‌ای": 5745,
      "amp": 5746,
      "ark": 5747,
      "ثرو": 5748,
      "امیدواریم": 5749,
      "ازش": 5750,
      "هشدار": 5751,
      "عاشق": 5752,
      "پهلوی": 5753,
      "عام": 5754,
      "اخی": 5755,
      "روزه": 5756,
      "we": 5757,
      "اسماعی": 5758,
      "داعش": 5759,
      "فرودگاه": 5760,
      "موافقت": 5761,
      "تردد": 5762,
      "جنبش": 5763,
      "آن‌": 5764,
      "کووید": 5765,
      "ced": 5766,
      "جزئیات": 5767,
      "pos": 5768,
      "فهم": 5769,
      "امپ": 5770,
      "ational": 5771,
      "فا": 5772,
      "۰۶": 5773,
      "ریز": 5774,
      "cent": 5775,
      "مراق": 5776,
      "نزدیکی": 5777,
      "تمرکز": 5778,
      "جهش": 5779,
      "روزانه": 5780,
      "‌شناسی": 5781,
      "نوبت": 5782,
      "اخلا": 5783,
      "گمرک": 5784,
      "app": 5785,
      "ساده": 5786,
      "گزاری": 5787,
      "تصاویر": 5788,
      "توانایی": 5789,
      "حیات": 5790,
      "مدافع": 5791,
      "اهو": 5792,
      "وجه": 5793,
      "ates": 5794,
      "تحریم‌های": 5795,
      "35": 5796,
      "‌دهنده": 5797,
      "En": 5798,
      "می‌یابد": 5799,
      "ئو": 5800,
      "تعامل": 5801,
      "قزوین": 5802,
      "محدودیت": 5803,
      "اموال": 5804,
      "بوده‌اند": 5805,
      "bum": 5806,
      "ستاره": 5807,
      "انداز": 5808,
      "غذایی": 5809,
      "ایمان": 5810,
      "ite": 5811,
      "گرفته‌شده": 5812,
      "American": 5813,
      "آره": 5814,
      "tern": 5815,
      "ck": 5816,
      "امین": 5817,
      "رسول": 5818,
      "بم": 5819,
      "زرد": 5820,
      "most": 5821,
      "خودمان": 5822,
      "مایل": 5823,
      "پایانی": 5824,
      "نوروز": 5825,
      "واسطه": 5826,
      "لع": 5827,
      "شهرها": 5828,
      "اکثر": 5829,
      "بالایی": 5830,
      "۰۳": 5831,
      "برده": 5832,
      "نباشد": 5833,
      "دلی": 5834,
      "عده‌ای": 5835,
      "تخریب": 5836,
      "خصوصا": 5837,
      "پرت": 5838,
      "کارکنان": 5839,
      "وحد": 5840,
      "جغرافی": 5841,
      "جرم": 5842,
      "فعالان": 5843,
      "پارک": 5844,
      "آرز": 5845,
      "ire": 5846,
      "هوشمند": 5847,
      "ضع": 5848,
      "محقق": 5849,
      "متوقف": 5850,
      "لیه": 5851,
      "تنگ": 5852,
      "ict": 5853,
      "ited": 5854,
      "ماموریت": 5855,
      "شبکه‌های": 5856,
      "ضربه": 5857,
      "میراث": 5858,
      "بلوچ": 5859,
      "مری": 5860,
      "پیروز": 5861,
      "ژیک": 5862,
      "لرستان": 5863,
      "ژانس": 5864,
      "des": 5865,
      "چپ": 5866,
      "می‌خورد": 5867,
      "به‌ای": 5868,
      "بستر": 5869,
      "پویا": 5870,
      "فهرست": 5871,
      "دوی": 5872,
      "مشکلی": 5873,
      "نقد": 5874,
      "راس": 5875,
      "زبانی": 5876,
      "راک": 5877,
      "used": 5878,
      "محله": 5879,
      "فق": 5880,
      "فضا": 5881,
      "شیوه": 5882,
      "آفریق": 5883,
      "son": 5884,
      "وظایف": 5885,
      "شوروی": 5886,
      "نشین": 5887,
      "تشکر": 5888,
      "تکون": 5889,
      "دانش‌آموزان": 5890,
      "لغو": 5891,
      "cess": 5892,
      "album": 5893,
      "‌کنندگان": 5894,
      "مراقبت": 5895,
      "ents": 5896,
      "بتوانند": 5897,
      "بودیم": 5898,
      "افیت": 5899,
      "formula": 5900,
      "درحالی": 5901,
      "استرات": 5902,
      "000": 5903,
      "محترم": 5904,
      "ماجرا": 5905,
      "۰۵": 5906,
      "Ac": 5907,
      "کریم": 5908,
      "any": 5909,
      "شعار": 5910,
      "صیه": 5911,
      "دروغ": 5912,
      "دانش‌بنیان": 5913,
      "تبلیغات": 5914,
      "فرایند": 5915,
      "دانم": 5916,
      "سهی": 5917,
      "پارلمان": 5918,
      "الیا": 5919,
      "سرانجام": 5920,
      "ناحیه": 5921,
      "جشن": 5922,
      "دراز": 5923,
      "آگاه": 5924,
      "سالگی": 5925,
      "پاکستان": 5926,
      "تخلف": 5927,
      "سالم": 5928,
      "تند": 5929,
      "when": 5930,
      "روای": 5931,
      "همانند": 5932,
      "۱۳۸": 5933,
      "formula_": 5934,
      "ib": 5935,
      "خوشحال": 5936,
      "سوار": 5937,
      "شیط": 5938,
      "مدال": 5939,
      "توصیه": 5940,
      "طینی": 5941,
      "چراکه": 5942,
      "پروتکل": 5943,
      "متی": 5944,
      "تلفن": 5945,
      "مسلمانان": 5946,
      "ance": 5947,
      "مرزی": 5948,
      "راهبردی": 5949,
      "ترجی": 5950,
      "برطرف": 5951,
      "لمات": 5952,
      "۰۲": 5953,
      "فرماندهی": 5954,
      "نامزد": 5955,
      "باطی": 5956,
      "شماری": 5957,
      "دستاورد": 5958,
      "هرمزگان": 5959,
      "فلسطینی": 5960,
      "ارب": 5961,
      "بالات": 5962,
      "سوء": 5963,
      "جنس": 5964,
      "حملات": 5965,
      "فیق": 5966,
      "ابعاد": 5967,
      "هری": 5968,
      "گذاشتم": 5969,
      "انش": 5970,
      "به‌های": 5971,
      "وحدت": 5972,
      "یکشنبه": 5973,
      "قابل‌توجهی": 5974,
      "انا": 5975,
      "بافت": 5976,
      "سراغ": 5977,
      "نابود": 5978,
      "ریال": 5979,
      "اهد": 5980,
      "درج": 5981,
      "cond": 5982,
      "اطلاع‌رسانی": 5983,
      "‌داری": 5984,
      "محروم": 5985,
      "writ": 5986,
      "هرچه": 5987,
      "ail": 5988,
      "نمون": 5989,
      "پاش": 5990,
      "بگذ": 5991,
      "باشید": 5992,
      "ubl": 5993,
      "دست‌": 5994,
      "لیست": 5995,
      "هرگونه": 5996,
      "مصر": 5997,
      "سار": 5998,
      "راقی": 5999,
      "سرت": 6000,
      "زور": 6001,
      "ob": 6002,
      "۰۴": 6003,
      "تنش": 6004,
      "مطابق": 6005,
      "رمضان": 6006,
      "................": 6007,
      "سران": 6008,
      "تبریز": 6009,
      "سقو": 6010,
      "کلان": 6011,
      "پایدار": 6012,
      "پوست": 6013,
      "ماسی": 6014,
      "معلمان": 6015,
      "فاطمه": 6016,
      "خوشبختانه": 6017,
      "متعل": 6018,
      "نک": 6019,
      "ever": 6020,
      "رونق": 6021,
      "تست": 6022,
      "واسه": 6023,
      "arr": 6024,
      "بشه": 6025,
      "سقوط": 6026,
      "ایتالیا": 6027,
      "میرزا": 6028,
      "نداشتم": 6029,
      "ug": 6030,
      "سیستان": 6031,
      "خیال": 6032,
      "لحظ": 6033,
      "درآمده": 6034,
      "پنجشنبه": 6035,
      "جست": 6036,
      "98": 6037,
      "الف": 6038,
      "نیک": 6039,
      "داور": 6040,
      "فضایی": 6041,
      "cording": 6042,
      "cur": 6043,
      "پیشنهادی": 6044,
      "‌دار": 6045,
      "شیعه": 6046,
      "رئیسه": 6047,
      "کتور": 6048,
      "ظرف": 6049,
      "طلبان": 6050,
      "عض": 6051,
      "اهالی": 6052,
      "شبان": 6053,
      "اصط": 6054,
      "ele": 6055,
      "ivers": 6056,
      "آمریکایی‌ها": 6057,
      "مجدد": 6058,
      "ثری": 6059,
      "جوانی": 6060,
      "پردازد": 6061,
      "بانک‌ها": 6062,
      "بایی": 6063,
      "ناو": 6064,
      "فاز": 6065,
      "علاق": 6066,
      "آلودگی": 6067,
      "ick": 6068,
      "Le": 6069,
      "راهن": 6070,
      "بومی": 6071,
      "سازد": 6072,
      "بهت": 6073,
      "امپرات": 6074,
      "uring": 6075,
      "علاقه": 6076,
      "جواد": 6077,
      "cre": 6078,
      "مقررات": 6079,
      "‌شده‌که": 6080,
      "متعددی": 6081,
      "Mar": 6082,
      "پیوند": 6083,
      "سرود": 6084,
      "آزمایش": 6085,
      "زودتر": 6086,
      "low": 6087,
      "شبیه": 6088,
      "‌الع": 6089,
      "نمایند": 6090,
      "ood": 6091,
      "حقی": 6092,
      "راحتی": 6093,
      "نگهداری": 6094,
      "بابت": 6095,
      "اکی": 6096,
      "مگر": 6097,
      "درگذشت": 6098,
      "جنگل": 6099,
      "خسارت": 6100,
      "col": 6101,
      "بوس": 6102,
      "ساع": 6103,
      "عجیب": 6104,
      "یهودی": 6105,
      "ماجرای": 6106,
      "بگیریم": 6107,
      "عظیم": 6108,
      "مدیری": 6109,
      "مسافر": 6110,
      "منستان": 6111,
      "فلسفه": 6112,
      "وک": 6113,
      "چهره": 6114,
      "کرمانشاه": 6115,
      "جهادی": 6116,
      "تصمیم‌گیری": 6117,
      "شاعر": 6118,
      "ظهر": 6119,
      "غری": 6120,
      "کرده‌ایم": 6121,
      "وزارتخانه": 6122,
      "ریش": 6123,
      "مسل": 6124,
      "جاست": 6125,
      "امضا": 6126,
      "منزل": 6127,
      "بگویم": 6128,
      "متعلق": 6129,
      "معلوم": 6130,
      "mon": 6131,
      "تکیه": 6132,
      "اهل‌": 6133,
      "افزار": 6134,
      "آد": 6135,
      "New": 6136,
      "مسکونی": 6137,
      "کتاب‌های": 6138,
      "هرگز": 6139,
      "تحولات": 6140,
      "ens": 6141,
      "شیعی": 6142,
      "ه‌ترین": 6143,
      "تونی": 6144,
      "بالغ": 6145,
      "کیلومتری": 6146,
      "ماهه": 6147,
      "جانبه": 6148,
      "قهرمانان": 6149,
      "ولوژی": 6150,
      "شریف": 6151,
      "داشته‌اند": 6152,
      "پروژه‌های": 6153,
      "این‌ها": 6154,
      "ویق": 6155,
      "هاشمی": 6156,
      "محکوم": 6157,
      "آمدن": 6158,
      "صحیح": 6159,
      "هجری": 6160,
      "صلا": 6161,
      "دونی": 6162,
      "ors": 6163,
      "پوشی": 6164,
      "اهم": 6165,
      "شرط": 6166,
      "‌مانده": 6167,
      "متهم": 6168,
      "کارها": 6169,
      "ریان": 6170,
      "ادین": 6171,
      "مفهوم": 6172,
      "ویژگی‌های": 6173,
      "gan": 6174,
      "بازرگانی": 6175,
      "گیاه": 6176,
      "بعدها": 6177,
      "می‌آورد": 6178,
      "رییس": 6179,
      "دشت": 6180,
      "اصلاح‌": 6181,
      "مشهور": 6182,
      "درخ": 6183,
      "سخنرانی": 6184,
      "years": 6185,
      "آمدند": 6186,
      "عط": 6187,
      "مره": 6188,
      "گیل": 6189,
      "ations": 6190,
      "خورشیدی": 6191,
      "راضی": 6192,
      "خواسته": 6193,
      "یارانه": 6194,
      "خرم": 6195,
      "عمیق": 6196,
      "بلوچستان": 6197,
      "مرحوم": 6198,
      "زودی": 6199,
      "رفتیم": 6200,
      "نظریه": 6201,
      "کلمه": 6202,
      "some": 6203,
      "جنسی": 6204,
      "گرفته‌اند": 6205,
      "جاع": 6206,
      "...»": 6207,
      "اپن": 6208,
      "افکار": 6209,
      "لوله": 6210,
      "تسهیل": 6211,
      "تکان": 6212,
      "معنوی": 6213,
      "only": 6214,
      "مهاجرت": 6215,
      "خطاب": 6216,
      "چیست": 6217,
      "ساخته‌شده": 6218,
      "گل‌": 6219,
      "مانه": 6220,
      "نهض": 6221,
      "ball": 6222,
      "رامون": 6223,
      "cted": 6224,
      "جایگزین": 6225,
      "تخصی": 6226,
      "مراجع": 6227,
      "برقرار": 6228,
      "ثبات": 6229,
      "fin": 6230,
      "بگم": 6231,
      "فراوان": 6232,
      "پترو": 6233,
      "شبانه‌": 6234,
      "31": 6235,
      "rem": 6236,
      "red": 6237,
      "پرا": 6238,
      "فراوانی": 6239,
      "spe": 6240,
      "هکت": 6241,
      "سومین": 6242,
      "way": 6243,
      "هویت": 6244,
      "التی": 6245,
      "اکبر": 6246,
      "انگشت": 6247,
      "اخره": 6248,
      "حزب‌الله": 6249,
      "197": 6250,
      "اء": 6251,
      "اخیرا": 6252,
      "ه‌تر": 6253,
      "صعود": 6254,
      "بگو": 6255,
      "روانی": 6256,
      "پنه": 6257,
      "پدرش": 6258,
      "ورودی": 6259,
      "فرستاد": 6260,
      "ase": 6261,
      "فروشی": 6262,
      "عراقی": 6263,
      "مقط": 6264,
      "توصیف": 6265,
      "امد": 6266,
      "تموم": 6267,
      "تبیین": 6268,
      "۱۹۸": 6269,
      "پرسش": 6270,
      "ظهور": 6271,
      "نشسته": 6272,
      "خاطرات": 6273,
      "بالاخره": 6274,
      "معامل": 6275,
      "حرفی": 6276,
      "تحمل": 6277,
      "متعدد": 6278,
      "پیرامون": 6279,
      "بتی": 6280,
      "پیشگیری": 6281,
      "هواداران": 6282,
      "پیاده": 6283,
      "زایی": 6284,
      "همت": 6285,
      "مطالعات": 6286,
      "حداکثر": 6287,
      "اظهارات": 6288,
      "اطع": 6289,
      "می‌دانست": 6290,
      "انداختم": 6291,
      "there": 6292,
      "اوضاع": 6293,
      "یادداشت": 6294,
      "خندید": 6295,
      "سات": 6296,
      "حوادث": 6297,
      "ایرانیان": 6298,
      "علام": 6299,
      "حضوری": 6300,
      "پرسید": 6301,
      "مراحل": 6302,
      "Ad": 6303,
      "قرار‌بود": 6304,
      "زائ": 6305,
      "sy": 6306,
      "می‌ز": 6307,
      "گشایی": 6308,
      "صال": 6309,
      "more": 6310,
      "ادار": 6311,
      "استاندارد": 6312,
      "افتد": 6313,
      "یک‌بار": 6314,
      "قلعه": 6315,
      "وسط": 6316,
      "loc": 6317,
      "تخصیص": 6318,
      "راج": 6319,
      "بیاید": 6320,
      "لبخندی": 6321,
      "امشب": 6322,
      "مواردی": 6323,
      "ann": 6324,
      "واقع‌شده": 6325,
      "اخلاق": 6326,
      "پرسی": 6327,
      "مبتنی": 6328,
      "تمند": 6329,
      "البرز": 6330,
      "released": 6331,
      "سینه": 6332,
      "اطمین": 6333,
      "آستانه": 6334,
      "‌هاست": 6335,
      "تشریح": 6336,
      "اصطلاح": 6337,
      "incl": 6338,
      "برام": 6339,
      "****": 6340,
      "les": 6341,
      "صندلی": 6342,
      "چندان": 6343,
      "produ": 6344,
      "مربع": 6345,
      "مناسبی": 6346,
      "مناسبت": 6347,
      "گردی": 6348,
      "۱۹۷": 6349,
      "آتی": 6350,
      "reg": 6351,
      "حاکمیت": 6352,
      "بدهی": 6353,
      "ایالت": 6354,
      "پیر": 6355,
      "known": 6356,
      "تعطیل": 6357,
      "ورا": 6358,
      "هستی": 6359,
      "فقر": 6360,
      "pol": 6361,
      "آسیب‌": 6362,
      "پذیری": 6363,
      "افتتا": 6364,
      "آلبوم": 6365,
      "ake": 6366,
      "کاندید": 6367,
      "min": 6368,
      "متقاضی": 6369,
      "گسترد": 6370,
      "مخاطبان": 6371,
      "قالی": 6372,
      "تروریستی": 6373,
      "no": 6374,
      "بازسازی": 6375,
      "ایه": 6376,
      "رافیک": 6377,
      "نژاد": 6378,
      "قبلا": 6379,
      "اصلاحات": 6380,
      "اهل‌بیت": 6381,
      "قین": 6382,
      "ناس": 6383,
      "تعهدات": 6384,
      "اخلاقی": 6385,
      "خواستم": 6386,
      "باف": 6387,
      "فرینی": 6388,
      "افتتاح": 6389,
      "کارگران": 6390,
      "مرزهای": 6391,
      "بریتانیا": 6392,
      "ونستم": 6393,
      "داغ": 6394,
      "نگفت": 6395,
      "Although": 6396,
      "ub": 6397,
      "سمی": 6398,
      "پلی": 6399,
      "pres": 6400,
      "موضع": 6401,
      "coun": 6402,
      "ژاپن": 6403,
      "فقیه": 6404,
      "ویژه‌ای": 6405,
      "شلو": 6406,
      "نیا": 6407,
      "نگری": 6408,
      "اتخا": 6409,
      "کارم": 6410,
      "آمدی": 6411,
      "نیمه‌": 6412,
      "همدان": 6413,
      "طبقه": 6414,
      "led": 6415,
      "سقف": 6416,
      "بچ": 6417,
      "روبرو": 6418,
      "داده‌شده": 6419,
      "عبدالله": 6420,
      "ces": 6421,
      "تار": 6422,
      "جانی": 6423,
      "بید": 6424,
      "اتخاذ": 6425,
      "ft": 6426,
      "افل": 6427,
      "All": 6428,
      "بازداشت": 6429,
      "هوش": 6430,
      "under": 6431,
      "عج": 6432,
      "بدهند": 6433,
      "ساماندهی": 6434,
      "جمع‌آوری": 6435,
      "امی‌": 6436,
      "م‌": 6437,
      "them": 6438,
      "single": 6439,
      "آشن": 6440,
      "گور": 6441,
      "مجید": 6442,
      "مقرر": 6443,
      "نظامیان": 6444,
      "گوشت": 6445,
      "صحن": 6446,
      "آشکار": 6447,
      "نفع": 6448,
      "ious": 6449,
      "فرآیند": 6450,
      "معدن": 6451,
      "مسئولین": 6452,
      "رضایت": 6453,
      "دانشگاه‌ها": 6454,
      "ton": 6455,
      "می‌شدند": 6456,
      "کاس": 6457,
      "همکاران": 6458,
      "باستان": 6459,
      "fore": 6460,
      "داوری": 6461,
      "جار": 6462,
      "آگاهی": 6463,
      "۵۷": 6464,
      "۳۱": 6465,
      "شمندان": 6466,
      "گستری": 6467,
      "then": 6468,
      "دیدگاه": 6469,
      "نداره": 6470,
      "bu": 6471,
      "چک": 6472,
      "دیپ": 6473,
      "فراموش": 6474,
      "باقی‌مانده": 6475,
      "فرانسوی": 6476,
      "هکتار": 6477,
      "med": 6478,
      "زیستی": 6479,
      "ating": 6480,
      "تحصیلی": 6481,
      "گوناگون": 6482,
      "می‌ک": 6483,
      "می‌گرفت": 6484,
      "آبادی": 6485,
      "بخو": 6486,
      "برف": 6487,
      "عقل": 6488,
      "دنیای": 6489,
      "سوره": 6490,
      "تشدید": 6491,
      "تیمی": 6492,
      "نماد": 6493,
      "محدودی": 6494,
      "طرفی": 6495,
      "بزن": 6496,
      "گزینه": 6497,
      "گرای": 6498,
      "‌بودیم": 6499,
      "ason": 6500,
      "رادیو": 6501,
      "آنتن": 6502,
      "آنی": 6503,
      "do": 6504,
      "مربوطه": 6505,
      "۶۰": 6506,
      "شوم": 6507,
      "کامی": 6508,
      "اجار": 6509,
      "مشکلاتی": 6510,
      "48": 6511,
      "موانع": 6512,
      "ترانه": 6513,
      "دشو": 6514,
      "اوراق": 6515,
      "مونی": 6516,
      "نهضت": 6517,
      "می‌زند": 6518,
      "36": 6519,
      "عملا": 6520,
      "شهردار": 6521,
      "عار": 6522,
      "دیروز": 6523,
      "مستقر": 6524,
      "نصب": 6525,
      "مصاحبه": 6526,
      "خبرگزاری": 6527,
      "شیرین": 6528,
      "نمی‌د": 6529,
      "ارتقا": 6530,
      "later": 6531,
      "دادگستری": 6532,
      "97": 6533,
      "دانشگاهی": 6534,
      "تابستان": 6535,
      "تمدن": 6536,
      "گزارشی": 6537,
      "مبنای": 6538,
      "توقف": 6539,
      "vel": 6540,
      "ts": 6541,
      "مطالبات": 6542,
      "غلط": 6543,
      "io": 6544,
      "حریف": 6545,
      "قلی": 6546,
      "فن": 6547,
      "اکث": 6548,
      "کمال": 6549,
      "پدید": 6550,
      "شوهر": 6551,
      "ستا": 6552,
      "گذر": 6553,
      "میانگین": 6554,
      "فوق‌الع": 6555,
      "اطمینان": 6556,
      "ورو": 6557,
      "متناسب": 6558,
      "ببینم": 6559,
      "صلاحیت": 6560,
      "راز": 6561,
      "ادا": 6562,
      "ions": 6563,
      "همسایه": 6564,
      "خواهد‌بود": 6565,
      "بدم": 6566,
      "مالکی": 6567,
      "منتق": 6568,
      "مصط": 6569,
      "امن": 6570,
      "اکران": 6571,
      "به‌روز": 6572,
      "به‌وسیله": 6573,
      "موزه": 6574,
      "فرست": 6575,
      "ریاضی": 6576,
      "بینید": 6577,
      "بینه": 6578,
      "قدیم": 6579,
      "ه‌گیری": 6580,
      "being": 6581,
      "اینترنت": 6582,
      "سفیر": 6583,
      "متحد": 6584,
      "واری": 6585,
      "بزرگ‌ترین": 6586,
      "پرداخته": 6587,
      "تصمیمات": 6588,
      "نوجوان": 6589,
      "چهل": 6590,
      "غنی": 6591,
      "ابتدایی": 6592,
      "مبتلای": 6593,
      "مطمئن": 6594,
      "عزیزم": 6595,
      "پارسا": 6596,
      "آیین‌نامه": 6597,
      "دستورال": 6598,
      "سمنان": 6599,
      "جلب": 6600,
      "بانوان": 6601,
      "۴۵": 6602,
      "کد": 6603,
      "نموده": 6604,
      "روش‌های": 6605,
      "ایمنی": 6606,
      "عقی": 6607,
      "ah": 6608,
      "vis": 6609,
      "اوتی": 6610,
      "خودر": 6611,
      "خوانده": 6612,
      "دی‌ماه": 6613,
      "دخ": 6614,
      "شفاف": 6615,
      "گاو": 6616,
      "قرا": 6617,
      "کوتاهی": 6618,
      "مباح": 6619,
      "ship": 6620,
      "oy": 6621,
      "بازنشست": 6622,
      "نادر": 6623,
      "قرارگاه": 6624,
      "عه‌": 6625,
      "تیپ": 6626,
      "نمی‌شد": 6627,
      "became": 6628,
      "طاه": 6629,
      "ful": 6630,
      "افزوده": 6631,
      "صبر": 6632,
      "iss": 6633,
      "سهیل": 6634,
      "اسد": 6635,
      "صاب": 6636,
      "۳۵": 6637,
      "اتمام": 6638,
      "iversity": 6639,
      "ered": 6640,
      "بذ": 6641,
      "گوشه": 6642,
      "رست": 6643,
      "دانشکده": 6644,
      "مردی": 6645,
      "شیو": 6646,
      "کلیه": 6647,
      "آن‌که": 6648,
      "نیستم": 6649,
      "65": 6650,
      "نشستم": 6651,
      "می‌دهیم": 6652,
      "آلو": 6653,
      "احمدی": 6654,
      "نوروزی": 6655,
      "پتروشیمی": 6656,
      "شهرستان‌های": 6657,
      "حاجی": 6658,
      "برجسته": 6659,
      "band": 6660,
      "بالاترین": 6661,
      "دستگاه‌ها": 6662,
      "می‌خواهند": 6663,
      "نویسی": 6664,
      "ماست": 6665,
      "چم": 6666,
      "رنج": 6667,
      "37": 6668,
      "ممنوع": 6669,
      "حماس": 6670,
      "ذه": 6671,
      "دیه": 6672,
      "پیچید": 6673,
      "مکتب": 6674,
      "محبو": 6675,
      "زیبایی": 6676,
      "شکایت": 6677,
      "دوربین": 6678,
      "چیه": 6679,
      "می‌روند": 6680,
      "ردیف": 6681,
      "many": 6682,
      "جزء": 6683,
      "وحی": 6684,
      "Re": 6685,
      "پاری": 6686,
      "row": 6687,
      "گناه": 6688,
      "تبریک": 6689,
      "برنده": 6690,
      "جنایت": 6691,
      "تولیدکنندگان": 6692,
      "مدیره": 6693,
      "هادی": 6694,
      "آلمانی": 6695,
      "ild": 6696,
      "معماری": 6697,
      "۱۳۹۷": 6698,
      "مسیحی": 6699,
      "معض": 6700,
      "مبارک": 6701,
      "سپاهان": 6702,
      "pop": 6703,
      "رب": 6704,
      "کیلوگرم": 6705,
      "ادعا": 6706,
      "می‌باشند": 6707,
      "فرمودند": 6708,
      "خوردن": 6709,
      "سلول": 6710,
      "آسمان": 6711,
      "یل": 6712,
      "44": 6713,
      "سیک": 6714,
      "واگذاری": 6715,
      "حساس": 6716,
      "زله": 6717,
      "second": 6718,
      "نخب": 6719,
      "ناظر": 6720,
      "محرو": 6721,
      "دریاچه": 6722,
      "عصبانی": 6723,
      "fl": 6724,
      "سروی": 6725,
      "اراده": 6726,
      "دقیقا": 6727,
      "num": 6728,
      "کاخ": 6729,
      "مبتلایان": 6730,
      "کلام": 6731,
      "ular": 6732,
      "پید": 6733,
      "قابلیت": 6734,
      "اتحاد": 6735,
      "De": 6736,
      "oup": 6737,
      "درخصوص": 6738,
      "thr": 6739,
      "هیئت‌رئیسه": 6740,
      "rel": 6741,
      "ily": 6742,
      "شاء": 6743,
      "حلقه": 6744,
      "معنا": 6745,
      "gen": 6746,
      "تداوم": 6747,
      "موقت": 6748,
      "ارتباطی": 6749,
      "mus": 6750,
      "oot": 6751,
      "inter": 6752,
      "خانوم": 6753,
      "کسری": 6754,
      "‌تری": 6755,
      "کورد": 6756,
      "هشتم": 6757,
      "day": 6758,
      "تصاد": 6759,
      "قیمت‌ها": 6760,
      "اومدم": 6761,
      "سازمان‌های": 6762,
      "300": 6763,
      "بیانی": 6764,
      "سفار": 6765,
      "زبان‌های": 6766,
      "ساکن": 6767,
      "قیب": 6768,
      "فته": 6769,
      "شرکت‌ها": 6770,
      "برمی": 6771,
      "رفاه": 6772,
      "سکو": 6773,
      "‌نژاد": 6774,
      "راسی": 6775,
      "برخلاف": 6776,
      "سرنوشت": 6777,
      "نظرات": 6778,
      "زیارت": 6779,
      "‌نشده‌": 6780,
      "؟...": 6781,
      "قادر": 6782,
      "ایثار": 6783,
      "سویه": 6784,
      "ابوال": 6785,
      "خامنه‌ای": 6786,
      "ics": 6787,
      "صورتش": 6788,
      "می‌خواهیم": 6789,
      "اضع": 6790,
      "مطرح‌شده": 6791,
      "بلاف": 6792,
      "اخم": 6793,
      "شفافیت": 6794,
      "ایلام": 6795,
      "شهرک": 6796,
      "ئه": 6797,
      "لهی": 6798,
      "دستورالعمل": 6799,
      "انف": 6800,
      "آرمان": 6801,
      "اردبیل": 6802,
      "اوش": 6803,
      "زح": 6804,
      "موضوعی": 6805,
      "دروازه": 6806,
      "برزی": 6807,
      "ترور": 6808,
      "میدونم": 6809,
      "ik": 6810,
      "می‌نوی": 6811,
      "75": 6812,
      "درسی": 6813,
      "گذاران": 6814,
      "وسایل": 6815,
      "‌پور": 6816,
      "چینی": 6817,
      "Com": 6818,
      "Sh": 6819,
      "چو": 6820,
      "به‌ویژه": 6821,
      "تجاوز": 6822,
      "ویر": 6823,
      "گفتن": 6824,
      "زمستان": 6825,
      "دوش": 6826,
      "قیر": 6827,
      "Th": 6828,
      "تصرف": 6829,
      "would": 6830,
      "مطلوب": 6831,
      "مرور": 6832,
      "آیه": 6833,
      "کاشان": 6834,
      "fil": 6835,
      "میزبان": 6836,
      "هنگامی‌": 6837,
      "پروانه": 6838,
      "آزمای": 6839,
      "لیک": 6840,
      "معلم": 6841,
      "خانواده‌های": 6842,
      "ارتقای": 6843,
      "عرف": 6844,
      "اجی": 6845,
      "‌الدین": 6846,
      "اوه": 6847,
      "بلافاصله": 6848,
      "محدوده": 6849,
      "پیکر": 6850,
      "سکه": 6851,
      "شایا": 6852,
      "fr": 6853,
      "اسمی": 6854,
      "عموم": 6855,
      "38": 6856,
      "هنگامی‌که": 6857,
      "فرض": 6858,
      "آسیایی": 6859,
      "زاب": 6860,
      "مسعود": 6861,
      "برگشتم": 6862,
      "جاس": 6863,
      "روبه‌": 6864,
      "آوردن": 6865,
      "محاسبات": 6866,
      "نداشتند": 6867,
      "سرویس": 6868,
      "تلاش‌های": 6869,
      "قسم": 6870,
      "eng": 6871,
      "سفارت": 6872,
      "again": 6873,
      "includ": 6874,
      "هیچی": 6875,
      "راه‌های": 6876,
      "تولیدات": 6877,
      "ناش": 6878,
      "back": 6879,
      "متولی": 6880,
      "ناتو": 6881,
      "عناصر": 6882,
      "found": 6883,
      "دما": 6884,
      "let": 6885,
      "school": 6886,
      "خمی": 6887,
      "ستر": 6888,
      "مصطفی": 6889,
      "unt": 6890,
      "انتخاباتی": 6891,
      "لوازم": 6892,
      "واگذار": 6893,
      "منح": 6894,
      "دیپل": 6895,
      "ایستگاه": 6896,
      "شیدا": 6897,
      "بزنم": 6898,
      "سورن": 6899,
      "الو": 6900,
      "ings": 6901,
      "قطعه": 6902,
      "cer": 6903,
      "سازان": 6904,
      "دانشجویی": 6905,
      "می‌گویم": 6906,
      "صالح": 6907,
      "during": 6908,
      "الگوی": 6909,
      "96": 6910,
      "میوه": 6911,
      "یخ": 6912,
      "محو": 6913,
      "فارغ": 6914,
      "pre": 6915,
      "مالک": 6916,
      "about": 6917,
      "غلام": 6918,
      "دیپلماسی": 6919,
      "هاست": 6920,
      "قائ": 6921,
      "گرامی": 6922,
      "پادشاهی": 6923,
      "uary": 6924,
      "شبه": 6925,
      "ناراحت": 6926,
      "32": 6927,
      "بازرسی": 6928,
      "عسل": 6929,
      "serv": 6930,
      "خطی": 6931,
      "بشکه": 6932,
      "موسوی": 6933,
      "lar": 6934,
      "حقوق‌": 6935,
      "شاگردان": 6936,
      "publ": 6937,
      "ident": 6938,
      "بول": 6939,
      "امپراتوری": 6940,
      "دادستان": 6941,
      "نوری": 6942,
      "ختم": 6943,
      "غالی": 6944,
      "قربانی": 6945,
      "تقاضا": 6946,
      "یوس": 6947,
      "خورشید": 6948,
      "همی": 6949,
      "اتهام": 6950,
      "اقدامی": 6951,
      "بختیاری": 6952,
      "‌افزار": 6953,
      "خطوط": 6954,
      "مجددا": 6955,
      "اصرار": 6956,
      "رفتند": 6957,
      "اراک": 6958,
      "کالای": 6959,
      "فاض": 6960,
      "ward": 6961,
      "تجدید": 6962,
      "پنجره": 6963,
      "دغدغه": 6964,
      "شمرد": 6965,
      "چای": 6966,
      "34": 6967,
      "شغل": 6968,
      "انگیز": 6969,
      "گوار": 6970,
      "نامیده": 6971,
      "‌گرفته": 6972,
      "فریاد": 6973,
      "دیجی": 6974,
      "تماش": 6975,
      "روستاهای": 6976,
      "منطقی": 6977,
      "ادعای": 6978,
      "نمایندگی": 6979,
      "نوین": 6980,
      "رادی": 6981,
      "عضویت": 6982,
      "95": 6983,
      "بازگشایی": 6984,
      "گس": 6985,
      "set": 6986,
      "نکند": 6987,
      "احکام": 6988,
      "مات": 6989,
      "هفتم": 6990,
      "مشمول": 6991,
      "زحمت": 6992,
      "گا": 6993,
      "وحشت": 6994,
      "شاعران": 6995,
      "خوابی": 6996,
      "آرای": 6997,
      "‌زد": 6998,
      "مصوبات": 6999,
      "موظ": 7000,
      "ins": 7001,
      "بنزین": 7002,
      "پاسداران": 7003,
      "آه": 7004,
      "طبیعت": 7005,
      "عوار": 7006,
      "انه‌ای": 7007,
      "باسی": 7008,
      "نظارتی": 7009,
      "als": 7010,
      "صداوسی": 7011,
      "خاطره": 7012,
      "اسپانیا": 7013,
      "inn": 7014,
      "ماه‌های": 7015,
      "een": 7016,
      "نیم‌": 7017,
      "۳۶": 7018,
      "بیاد": 7019,
      "1399": 7020,
      "ma": 7021,
      "یازدهم": 7022,
      "فعلا": 7023,
      "University": 7024,
      "اژ": 7025,
      "جناب": 7026,
      "ابو": 7027,
      "پله": 7028,
      "بستگی": 7029,
      "ished": 7030,
      "نداری": 7031,
      "نمی‌کنند": 7032,
      "بدهیم": 7033,
      "نسب": 7034,
      "try": 7035,
      "نکن": 7036,
      "محاسبه": 7037,
      "call": 7038,
      "صدام": 7039,
      "تذکر": 7040,
      "‌شده‌در": 7041,
      "ied": 7042,
      "انگیزه": 7043,
      "شیری": 7044,
      "علی‌رغم": 7045,
      "امع": 7046,
      "۱۳۷": 7047,
      "کول": 7048,
      "ستون": 7049,
      "اسکن": 7050,
      "آژانس": 7051,
      "فراز": 7052,
      "par": 7053,
      "بردن": 7054,
      "۴۸": 7055,
      "کیم": 7056,
      "هواپیما": 7057,
      "شیمیایی": 7058,
      "نخبگان": 7059,
      "ازده": 7060,
      "می‌کردیم": 7061,
      "تاخیر": 7062,
      "حقیقی": 7063,
      "خوبه": 7064,
      "برعهده": 7065,
      "ذیل": 7066,
      "Jo": 7067,
      "معتقدند": 7068,
      "سوز": 7069,
      "outh": 7070,
      "خسته": 7071,
      "می‌افتد": 7072,
      "‌جمهوری": 7073,
      "مجری": 7074,
      "57": 7075,
      "میاد": 7076,
      "کشاورزان": 7077,
      "انتخابی": 7078,
      "عمدتا": 7079,
      "ix": 7080,
      "می‌بینیم": 7081,
      "تقدیم": 7082,
      "فهمیدم": 7083,
      "می‌تر": 7084,
      "خانوار": 7085,
      "نیازهای": 7086,
      "برآورد": 7087,
      "مرتضی": 7088,
      "لاین": 7089,
      "توج": 7090,
      "زای": 7091,
      "تفسیر": 7092,
      "کانال": 7093,
      "عمق": 7094,
      "شکار": 7095,
      "چرخه": 7096,
      "ذوب": 7097,
      "خانواده‌ها": 7098,
      "تعطیلی": 7099,
      "ative": 7100,
      "ختی": 7101,
      "احزاب": 7102,
      "موظف": 7103,
      "فوق‌العاده": 7104,
      "فوری": 7105,
      "گذارند": 7106,
      "رکورد": 7107,
      "ایلیا": 7108,
      "معاصر": 7109,
      "صورتم": 7110,
      "محافظ": 7111,
      "بخور": 7112,
      "تنهایی": 7113,
      "88": 7114,
      "انگلستان": 7115,
      "مقطع": 7116,
      "حمید": 7117,
      "مترین": 7118,
      "دامنه": 7119,
      "تفکر": 7120,
      "2022": 7121,
      "بیفت": 7122,
      "مطهر": 7123,
      "می‌خواستم": 7124,
      "According": 7125,
      "az": 7126,
      "عصبی": 7127,
      "احیای": 7128,
      "الکترونیک": 7129,
      "بغداد": 7130,
      "تروی": 7131,
      "اندو": 7132,
      "تلخ": 7133,
      "رصد": 7134,
      "استعف": 7135,
      "قص": 7136,
      "تیمش": 7137,
      "‌پذیر": 7138,
      "شهاب": 7139,
      "کاست": 7140,
      "والی": 7141,
      "خودروهای": 7142,
      "خاور": 7143,
      "نظرم": 7144,
      "مدرن": 7145,
      "And": 7146,
      "through": 7147,
      "go": 7148,
      "ابهام": 7149,
      "بهانه": 7150,
      "اثبات": 7151,
      "مباحث": 7152,
      "well": 7153,
      "پدرم": 7154,
      "برنج": 7155,
      "منتخب": 7156,
      "بغل": 7157,
      "محیطی": 7158,
      "high": 7159,
      "فرق": 7160,
      "نویسندگان": 7161,
      "مسلمین": 7162,
      "ترافیک": 7163,
      "مدیریتی": 7164,
      "اندن": 7165,
      "عمه": 7166,
      "خواهان": 7167,
      "fam": 7168,
      "gl": 7169,
      "how": 7170,
      "حامی": 7171,
      "صمت": 7172,
      "رضایی": 7173,
      "نشانه": 7174,
      "بخشید": 7175,
      "احتمالی": 7176,
      "بها": 7177,
      "توانسته": 7178,
      "):": 7179,
      "cap": 7180,
      "؟»": 7181,
      "اونم": 7182,
      "کلید": 7183,
      "آفرین": 7184,
      "جانب": 7185,
      "ضبط": 7186,
      "تقدیر": 7187,
      "مهندس": 7188,
      "مجازات": 7189,
      "سفارش": 7190,
      "je": 7191,
      "گندم": 7192,
      "فیزیکی": 7193,
      "نگر": 7194,
      "اعلام‌شده": 7195,
      "گرام": 7196,
      "elf": 7197,
      "امریکا": 7198,
      "made": 7199,
      "رویه": 7200,
      "udi": 7201,
      "before": 7202,
      "خالص": 7203,
      "رسیدند": 7204,
      "ه‌شده‌بود": 7205,
      "میکنه": 7206,
      "کاربران": 7207,
      "تفاهم": 7208,
      "اکثریت": 7209,
      "استعداد": 7210,
      "ظمی": 7211,
      "ارمنستان": 7212,
      "می‌کنید": 7213,
      "اسماعیل": 7214,
      "مشتری": 7215,
      "حن": 7216,
      "به‌دلیل": 7217,
      "He": 7218,
      "چیک": 7219,
      "چاه": 7220,
      "فرانس": 7221,
      "هایش": 7222,
      "ash": 7223,
      "حقوق‌بشر": 7224,
      "واج": 7225,
      "فاقد": 7226,
      "آموز": 7227,
      "دانشگاه‌های": 7228,
      "برون": 7229,
      "جغرافیایی": 7230,
      "اهواز": 7231,
      "بالی": 7232,
      "می‌بین": 7233,
      "مرجع": 7234,
      "تاثیرگذار": 7235,
      "cr": 7236,
      "برات": 7237,
      "تراکتور": 7238,
      "قش": 7239,
      "۳۷": 7240,
      "پوشان": 7241,
      "پانتی": 7242,
      "ساحل": 7243,
      "۴۷": 7244,
      "منتظ": 7245,
      "while": 7246,
      "will": 7247,
      "الگو": 7248,
      "بیدار": 7249,
      "مکانی": 7250,
      "آشنایی": 7251,
      "cy": 7252,
      "تشکیل‌شده": 7253,
      "اعتبارات": 7254,
      "واژ": 7255,
      "ملاق": 7256,
      "میو": 7257,
      "تهیه‌کننده": 7258,
      "پنهان": 7259,
      "ارگان": 7260,
      "می‌دادند": 7261,
      "بدست": 7262,
      "علاقه‌": 7263,
      "war": 7264,
      "بغض": 7265,
      "یورو": 7266,
      "مطلب": 7267,
      "Col": 7268,
      "قضیه": 7269,
      "33": 7270,
      "محض": 7271,
      "جریمه": 7272,
      "استرا": 7273,
      "مادرش": 7274,
      "sub": 7275,
      "بهتری": 7276,
      "تضمین": 7277,
      "۵۵": 7278,
      "تعالی": 7279,
      "قابل‌توجه": 7280,
      "کمترین": 7281,
      "رداد": 7282,
      "cons": 7283,
      "زنجان": 7284,
      "روبه‌رو": 7285,
      "ارزشمند": 7286,
      "موسسات": 7287,
      "انها": 7288,
      "صدق": 7289,
      "دره": 7290,
      "ه‌نشد": 7291,
      "طنز": 7292,
      "۳۲": 7293,
      "چراغ": 7294,
      "لطف": 7295,
      "موند": 7296,
      "جانشین": 7297,
      "صداوسیما": 7298,
      "ince": 7299,
      "عق": 7300,
      "400": 7301,
      "‌فقیه": 7302,
      "‌هم": 7303,
      "کنگره": 7304,
      "گرمی": 7305,
      "منصوب": 7306,
      "دموکرات": 7307,
      "بچه‌های": 7308,
      "الکترونیکی": 7309,
      "قصه": 7310,
      "هل": 7311,
      "۱۳۹۸": 7312,
      "مرتبه": 7313,
      "روحیه": 7314,
      "تاثی": 7315,
      "استقرار": 7316,
      "دستگیر": 7317,
      "عوارض": 7318,
      "۱۹۶": 7319,
      "اتمی": 7320,
      "196": 7321,
      "برنامه‌ها": 7322,
      "----": 7323,
      "اوم": 7324,
      "ممنو": 7325,
      "افزایش‌یافته": 7326,
      "جذاب": 7327,
      "سوزی": 7328,
      "برکت": 7329,
      "ده‌ها": 7330,
      "اشار": 7331,
      "بزند": 7332,
      "زیرساخت‌های": 7333,
      "تماشاگر": 7334,
      "سرو": 7335,
      "tain": 7336,
      "نواحی": 7337,
      "اربعین": 7338,
      "غن": 7339,
      "ایراد": 7340,
      "دربار": 7341,
      "موشکی": 7342,
      "شبانه‌روز": 7343,
      "پزشکان": 7344,
      "تشی": 7345,
      "تقاضای": 7346,
      "برت": 7347,
      "معرض": 7348,
      "رتبه‌": 7349,
      "معاملات": 7350,
      "وده": 7351,
      "شیعیان": 7352,
      "کوهی": 7353,
      "سلطان": 7354,
      "lead": 7355,
      "هنرمند": 7356,
      "داوران": 7357,
      "دند": 7358,
      "نهم": 7359,
      "نیت": 7360,
      "هسته": 7361,
      "بیمارستان‌های": 7362,
      "عادل": 7363,
      "تکن": 7364,
      "یاری": 7365,
      "کیک": 7366,
      "پژوهشی": 7367,
      "my": 7368,
      "آفت": 7369,
      "کسیون": 7370,
      "شرف": 7371,
      "باهاش": 7372,
      "اردوغان": 7373,
      "ذخ": 7374,
      "اقتدار": 7375,
      "خشم": 7376,
      "کتا": 7377,
      "آسان": 7378,
      "شکل‌گیری": 7379,
      "قبیل": 7380,
      "ond": 7381,
      "دوره‌های": 7382,
      "امیرمهدی": 7383,
      "بماند": 7384,
      "ونا": 7385,
      "دیپلمات": 7386,
      "ثانیه": 7387,
      "حیا": 7388,
      "ریاست‌جمهوری": 7389,
      "ساری": 7390,
      "دسترس": 7391,
      "سلمان": 7392,
      "سرای": 7393,
      "کامران": 7394,
      "مض": 7395,
      "نشی": 7396,
      "ذخایر": 7397,
      "بایست": 7398,
      "داو": 7399,
      "مولف": 7400,
      "اوست": 7401,
      "نع": 7402,
      "کهن": 7403,
      "car": 7404,
      "نوجوانان": 7405,
      "سانتی": 7406,
      "خراب": 7407,
      "نصی": 7408,
      "پرده": 7409,
      "خداحافظ": 7410,
      "دائ": 7411,
      "رزمندگان": 7412,
      "55": 7413,
      "‌گیر": 7414,
      "inv": 7415,
      "ضرر": 7416,
      "بهمن‌ماه": 7417,
      "طار": 7418,
      "۱۰۰": 7419,
      "گردن": 7420,
      "۵۸": 7421,
      "than": 7422,
      "مومنین": 7423,
      "اسر": 7424,
      "زلزله": 7425,
      "۳۳": 7426,
      "می‌پردازد": 7427,
      "معمول": 7428,
      "season": 7429,
      "معادن": 7430,
      "پرچم": 7431,
      "می‌گذرد": 7432,
      "عقد": 7433,
      "ual": 7434,
      "ks": 7435,
      "مواضع": 7436,
      "مساحت": 7437,
      "رتبه‌بندی": 7438,
      "عان": 7439,
      "film": 7440,
      "املاک": 7441,
      "نواز": 7442,
      "منی": 7443,
      "تالی": 7444,
      "تمایل": 7445,
      "‌داده": 7446,
      "کوچه": 7447,
      "متولد": 7448,
      "تولد": 7449,
      "ently": 7450,
      "بگیرم": 7451,
      "محتوای": 7452,
      "دانشمندان": 7453,
      "جیره": 7454,
      "مارس": 7455,
      "تردید": 7456,
      "نقض": 7457,
      "وقتی‌که": 7458,
      "‌برداری": 7459,
      "دوستی": 7460,
      "فرماندهان": 7461,
      "اعط": 7462,
      "می‌گفتند": 7463,
      "مکر": 7464,
      "‌دستی": 7465,
      "رسیدیم": 7466,
      "ters": 7467,
      "ماد": 7468,
      "47": 7469,
      "خواندن": 7470,
      "بون": 7471,
      "کنن": 7472,
      "می‌برند": 7473,
      "اعظم": 7474,
      "حکمر": 7475,
      "رک": 7476,
      "three": 7477,
      "طوف": 7478,
      "تلفیق": 7479,
      "کما": 7480,
      "خواهر": 7481,
      "زدی": 7482,
      "نادی": 7483,
      "تیک": 7484,
      "ale": 7485,
      "United": 7486,
      "ژانویه": 7487,
      "نیروگاه": 7488,
      "می‌آیند": 7489,
      "قطعات": 7490,
      "فراکسیون": 7491,
      "۳۸": 7492,
      "برزیل": 7493,
      "می‌گی": 7494,
      "دارید": 7495,
      "عمران": 7496,
      "دسام": 7497,
      "پاریس": 7498,
      "منه": 7499,
      "دخالت": 7500,
      "مادی": 7501,
      "راجع": 7502,
      "کلف": 7503,
      "رمز": 7504,
      "ترویج": 7505,
      "92": 7506,
      "دسامبر": 7507,
      "اینا": 7508,
      "تشویق": 7509,
      "team": 7510,
      "نظم": 7511,
      "زیت": 7512,
      "hel": 7513,
      "سلس": 7514,
      "هتل": 7515,
      "عروس": 7516,
      "اعم": 7517,
      "قرآنی": 7518,
      "طیف": 7519,
      "جزایر": 7520,
      "نشانی": 7521,
      "جعفر": 7522,
      "ually": 7523,
      "برتری": 7524,
      "خاند": 7525,
      "پوز": 7526,
      "2021": 7527,
      "تبع": 7528,
      "نگتن": 7529,
      "reat": 7530,
      "آلومینی": 7531,
      "تجربی": 7532,
      "ولان": 7533,
      "آورند": 7534,
      "number": 7535,
      "رده‌های": 7536,
      "سپت": 7537,
      "قمری": 7538,
      "مالکیت": 7539,
      "ived": 7540,
      "بکار": 7541,
      "دبیرکل": 7542,
      "شهرت": 7543,
      "ouse": 7544,
      "ذاشت": 7545,
      "58": 7546,
      "ئت": 7547,
      "کین": 7548,
      "حرص": 7549,
      "خریداری": 7550,
      "می‌کنه": 7551,
      "می‌خواهم": 7552,
      "کتری": 7553,
      "فیزیک": 7554,
      "music": 7555,
      "انح": 7556,
      "میتی": 7557,
      "اقیان": 7558,
      "نساجی": 7559,
      "اطلاعی": 7560,
      "روحی": 7561,
      "پیشک": 7562,
      "کلاه": 7563,
      "جلال": 7564,
      "سپتامبر": 7565,
      "ثروت": 7566,
      "مهارت": 7567,
      "شناخته‌شده": 7568,
      "می‌نویسد": 7569,
      "ارض": 7570,
      "نشون": 7571,
      "چیکار": 7572,
      "ملاقات": 7573,
      "پرتاب": 7574,
      "کمک‌های": 7575,
      "برایش": 7576,
      "خطرناک": 7577,
      "appear": 7578,
      "هزاران": 7579,
      "اشکال": 7580,
      "خروجی": 7581,
      "iel": 7582,
      "ویس": 7583,
      "حریم": 7584,
      "نات": 7585,
      "۵۶": 7586,
      "باقر": 7587,
      "معیشت": 7588,
      "برنامه‌ای": 7589,
      "فدرال": 7590,
      "tal": 7591,
      "امتح": 7592,
      "۳۴": 7593,
      "رهبران": 7594,
      "olog": 7595,
      "mer": 7596,
      "tween": 7597,
      "مادرم": 7598,
      "رقابت‌های": 7599,
      "char": 7600,
      "between": 7601,
      "بایدن": 7602,
      "دعا": 7603,
      "پذیرد": 7604,
      "آلومینیوم": 7605,
      "تصادف": 7606,
      "such": 7607,
      "ازای": 7608,
      "روسای": 7609,
      "ional": 7610,
      "۳۹": 7611,
      "دیجیتال": 7612,
      "راهکار": 7613,
      "ناه": 7614,
      "42": 7615,
      "قراری": 7616,
      "گونی": 7617,
      "تعیین‌شده": 7618,
      "use": 7619,
      "سول": 7620,
      "غیرقانونی": 7621,
      "ted": 7622,
      "مخدر": 7623,
      "گهر": 7624,
      "تحمیل": 7625,
      "پروتکل‌های": 7626,
      "گمان": 7627,
      "تصویری": 7628,
      "قاجار": 7629,
      "کاروان": 7630,
      "پاشی": 7631,
      "راه‌آهن": 7632,
      "‌گذار": 7633,
      "پارس": 7634,
      "کربلا": 7635,
      "مهار": 7636,
      "ایفا": 7637,
      "حیوان": 7638,
      "رئیس‌جمهوری": 7639,
      "علمیه": 7640,
      "کمو": 7641,
      "هماهنگ": 7642,
      "fer": 7643,
      "مفی": 7644,
      "تبدیل‌شده": 7645,
      "شکن": 7646,
      "بیاور": 7647,
      "inst": 7648,
      "گرفتیم": 7649,
      "کابل": 7650,
      "می‌رسید": 7651,
      "دیدی": 7652,
      "پردازند": 7653,
      "‌زده": 7654,
      "کارش": 7655,
      "start": 7656,
      "خانه‌ها": 7657,
      "فضل": 7658,
      "شنیدم": 7659,
      "زمینه‌های": 7660,
      "باقری": 7661,
      "دفاتر": 7662,
      "return": 7663,
      "بلی": 7664,
      "قالیباف": 7665,
      "تابع": 7666,
      "قیام": 7667,
      "چندی": 7668,
      "امیدوار": 7669,
      "four": 7670,
      "رایج": 7671,
      "براش": 7672,
      "هان": 7673,
      "کیف": 7674,
      "fol": 7675,
      "انبار": 7676,
      "غیره": 7677,
      "آموزان": 7678,
      "فهمید": 7679,
      "ماندگار": 7680,
      "nor": 7681,
      "ذخیره": 7682,
      "۵۹": 7683,
      "انقدر": 7684,
      "ازن": 7685,
      "mar": 7686,
      "همگی": 7687,
      "مکلف": 7688,
      "اساتی": 7689,
      "کالاها": 7690,
      "نمی‌کرد": 7691,
      "یونانی": 7692,
      "زرت": 7693,
      "فیلمن": 7694,
      "ناشران": 7695,
      "اینقدر": 7696,
      "record": 7697,
      "پارچه": 7698,
      "عثمانی": 7699,
      "ry": 7700,
      "توانمندی": 7701,
      "غلی": 7702,
      "گرایش": 7703,
      "بگوییم": 7704,
      "شانس": 7705,
      "ضرب": 7706,
      "ارک": 7707,
      "تیراند": 7708,
      "آخه": 7709,
      "group": 7710,
      "آفریقا": 7711,
      "اقشار": 7712,
      "بیانیه‌ای": 7713,
      "تلقی": 7714,
      "بشود": 7715,
      "فاضل": 7716,
      "زیه": 7717,
      "نام‌های": 7718,
      "سوالی": 7719,
      "Con": 7720,
      "۴۶": 7721,
      "بهای": 7722,
      "نوشته‌شده": 7723,
      "نحوی": 7724,
      "خاندان": 7725,
      "‌گرایی": 7726,
      "نتیج": 7727,
      "کنفرانس": 7728,
      "برداشتم": 7729,
      "وات": 7730,
      "ement": 7731,
      "46": 7732,
      "اخراج": 7733,
      "اقداماتی": 7734,
      "سواح": 7735,
      "پارسی": 7736,
      "مرات": 7737,
      "زنجیره": 7738,
      "اتوبوس": 7739,
      "مسافران": 7740,
      "می‌دانی": 7741,
      "برداشته": 7742,
      "ایات": 7743,
      "سرط": 7744,
      "صنایع‌دستی": 7745,
      "قاره": 7746,
      "دولت‌های": 7747,
      "عبارتند": 7748,
      "نیازی": 7749,
      "دستاوردهای": 7750,
      "کنده": 7751,
      "مترو": 7752,
      "محبت": 7753,
      "آوردند": 7754,
      "85": 7755,
      "سالگرد": 7756,
      "لوت": 7757,
      "until": 7758,
      "می‌گذارد": 7759,
      "تدریس": 7760,
      "بیفتد": 7761,
      "روغن": 7762,
      "محاص": 7763,
      "فان": 7764,
      "تعاون": 7765,
      "نایب‌": 7766,
      "عاط": 7767,
      "اوقات": 7768,
      "ارائه‌شده": 7769,
      "کمونیست": 7770,
      "gu": 7771,
      "جات": 7772,
      "خن": 7773,
      "اشعار": 7774,
      "الزام": 7775,
      "دلش": 7776,
      "چالش‌های": 7777,
      "Pr": 7778,
      "ather": 7779,
      "فراتر": 7780,
      "اعدام": 7781,
      "رونمایی": 7782,
      "خانه‌ای": 7783,
      "پیاد": 7784,
      "شایسته": 7785,
      "bro": 7786,
      "مب": 7787,
      "بازارهای": 7788,
      "هندو": 7789,
      "حاد": 7790,
      "می‌شه": 7791,
      "دستیابی": 7792,
      "ople": 7793,
      "خج": 7794,
      "۴۹": 7795,
      "باستانی": 7796,
      "گویش": 7797,
      "تجمع": 7798,
      "ترخیص": 7799,
      "top": 7800,
      "اکتبر": 7801,
      "وزرای": 7802,
      "مباد": 7803,
      "مربیان": 7804,
      "کرا": 7805,
      "اساسا": 7806,
      "سوت": 7807,
      "معتبر": 7808,
      "تک‌": 7809,
      "خیز": 7810,
      "feat": 7811,
      "nam": 7812,
      "stud": 7813,
      "سواحل": 7814,
      "sur": 7815,
      "تعبیر": 7816,
      "ساکت": 7817,
      "امله": 7818,
      "بازیگری": 7819,
      "ترجیح": 7820,
      "انتشارات": 7821,
      "محاصره": 7822,
      "حین": 7823,
      "اشخاص": 7824,
      "محدودیت‌های": 7825,
      "روزگار": 7826,
      "خوش‌": 7827,
      "آشپز": 7828,
      "نکات": 7829,
      "میمی": 7830,
      "اقامت": 7831,
      "چرخی": 7832,
      "آبادان": 7833,
      "صیر": 7834,
      "فرش": 7835,
      "اقوام": 7836,
      "کارا": 7837,
      "شوخی": 7838,
      "تنف": 7839,
      "خودروی": 7840,
      "این‌طور": 7841,
      "استک": 7842,
      "بگوید": 7843,
      "رفسن": 7844,
      "مصلح": 7845,
      "هم‌چنین": 7846,
      "طلایی": 7847,
      "عمرانی": 7848,
      "now": 7849,
      "امروزی": 7850,
      "ه‌داری": 7851,
      "ارومیه": 7852,
      "استراتژیک": 7853,
      "ضه": 7854,
      "‌گری": 7855,
      "مصنوعی": 7856,
      "خلاصه": 7857,
      "ناگه": 7858,
      "سهمیه": 7859,
      "یاران": 7860,
      "حساسی": 7861,
      "...،": 7862,
      "میرم": 7863,
      "زنند": 7864,
      "سفرهای": 7865,
      "39": 7866,
      "پیش‌بینی‌شده": 7867,
      "هیچ‌کس": 7868,
      "رنگی": 7869,
      "۵۴": 7870,
      "یادم": 7871,
      "world": 7872,
      "سنگینی": 7873,
      "صهیونیست‌ها": 7874,
      "نشان‌دهنده": 7875,
      "Ab": 7876,
      "لک": 7877,
      "استناد": 7878,
      "مهاجم": 7879,
      "بلندی": 7880,
      "نوشتن": 7881,
      "توط": 7882,
      "کوب": 7883,
      "دبی": 7884,
      "الا": 7885,
      "Wor": 7886,
      "نکنند": 7887,
      "show": 7888,
      "فیلمی": 7889,
      "لحن": 7890,
      "sm": 7891,
      "ساکنان": 7892,
      "رشته‌های": 7893,
      "غافل": 7894,
      "گرچه": 7895,
      "۵۳": 7896,
      "erson": 7897,
      "بخواهد": 7898,
      "گفته‌بود": 7899,
      "بازم": 7900,
      "خواهش": 7901,
      "rol": 7902,
      "کاد": 7903,
      "کمیت": 7904,
      "نمی‌توانند": 7905,
      "مجموعه‌ای": 7906,
      "خراج": 7907,
      "جدایی": 7908,
      "راستی": 7909,
      "مستمر": 7910,
      "واش": 7911,
      "اهیتا": 7912,
      "ootball": 7913,
      "آنقدر": 7914,
      "sever": 7915,
      "تسلی": 7916,
      "قزاق": 7917,
      "شتاب": 7918,
      "studi": 7919,
      "زائران": 7920,
      "ملاح": 7921,
      "فوریه": 7922,
      "۴۴": 7923,
      "نیش": 7924,
      "نمی‌کنم": 7925,
      "مبارز": 7926,
      "اساتید": 7927,
      "منتهی": 7928,
      "روستاها": 7929,
      "یافتن": 7930,
      "تعرف": 7931,
      "پرهی": 7932,
      "اشنا": 7933,
      "igin": 7934,
      "وست": 7935,
      "امان": 7936,
      "ظاهرا": 7937,
      "درآمدهای": 7938,
      "Nor": 7939,
      "برایم": 7940,
      "شنیدن": 7941,
      "متج": 7942,
      "eral": 7943,
      "Se": 7944,
      "نوامبر": 7945,
      "مشا": 7946,
      "کابینه": 7947,
      "حکمت": 7948,
      "تغذ": 7949,
      "قلبی": 7950,
      "tow": 7951,
      "تلفنی": 7952,
      "تاجیک": 7953,
      "آمی": 7954,
      "چشما": 7955,
      "توئی": 7956,
      "حجاب": 7957,
      "تولیدکننده": 7958,
      "present": 7959,
      "مریم": 7960,
      "پداف": 7961,
      "کشورهایی": 7962,
      "ific": 7963,
      "۵۲": 7964,
      "ماسک": 7965,
      "ثمر": 7966,
      "متصل": 7967,
      "ساحلی": 7968,
      "راه‌حل": 7969,
      "۴۲": 7970,
      "زیان": 7971,
      "خاموش": 7972,
      "اعتراف": 7973,
      "کارنامه": 7974,
      "وصل": 7975,
      "بشی": 7976,
      "امضای": 7977,
      "منظر": 7978,
      "یگان": 7979,
      "عرص": 7980,
      "خاست": 7981,
      "قام": 7982,
      "حکومتی": 7983,
      "ose": 7984,
      "ظریف": 7985,
      "بعدا": 7986,
      "کریمی": 7987,
      "معیشتی": 7988,
      "دشوار": 7989,
      "خودداری": 7990,
      "نسبتا": 7991,
      "مطمئ": 7992,
      "امتحان": 7993,
      "جاب": 7994,
      "کربن": 7995,
      "چشمام": 7996,
      "سریال‌های": 7997,
      "‌نشده": 7998,
      "اومده": 7999,
      "ext": 8000,
      "میزبانی": 8001,
      "بنادر": 8002,
      "متقاضیان": 8003,
      "شخصیت‌های": 8004,
      "خواننده": 8005,
      "نقدی": 8006,
      "آله": 8007,
      "spec": 8008,
      "Brit": 8009,
      "تمع": 8010,
      "سیاوش": 8011,
      "اهایی": 8012,
      "برانگی": 8013,
      "بستم": 8014,
      "می‌آمد": 8015,
      "نوآوری": 8016,
      "شادی": 8017,
      "چنانچه": 8018,
      "تنوع": 8019,
      "iver": 8020,
      "نهایتا": 8021,
      "مفاه": 8022,
      "اصلاح‌طلبان": 8023,
      "حیاط": 8024,
      "ننه": 8025,
      "می‌دانیم": 8026,
      "side": 8027,
      "کیا": 8028,
      "تالاب": 8029,
      "curr": 8030,
      "called": 8031,
      "سلسله": 8032,
      "انسان‌ها": 8033,
      "آب‌های": 8034,
      "شنید": 8035,
      "شاءالله": 8036,
      "ros": 8037,
      "محرومیت": 8038,
      "شلیک": 8039,
      "پایش": 8040,
      "ممنوعیت": 8041,
      "زیده": 8042,
      "کانادا": 8043,
      "سراسری": 8044,
      "قاطع": 8045,
      "معرفت": 8046,
      "رایگان": 8047,
      "همکاری‌های": 8048,
      "سوسی": 8049,
      "Br": 8050,
      "سگ": 8051,
      "اویه": 8052,
      "مخصوص": 8053,
      "ه‌گذاری": 8054,
      "ley": 8055,
      "آزادسازی": 8056,
      "مطالبه": 8057,
      "بروم": 8058,
      "معصو": 8059,
      "نامزده": 8060,
      "دلال": 8061,
      "آزمایشگاه": 8062,
      "War": 8063,
      "پیچیده": 8064,
      "point": 8065,
      "ادب": 8066,
      "بیکاری": 8067,
      "عباسی": 8068,
      "یادآوری": 8069,
      "یوسف": 8070,
      "تران": 8071,
      "مجله": 8072,
      "قایق": 8073,
      "آسیب‌های": 8074,
      "برسیم": 8075,
      "مخفی": 8076,
      "پهپاد": 8077,
      "مجتمع": 8078,
      "‌آمیز": 8079,
      "به‌دنبال": 8080,
      "خرج": 8081,
      "مقد": 8082,
      "چس": 8083,
      "توانید": 8084,
      "تبادل": 8085,
      "مدارک": 8086,
      "43": 8087,
      "بخواهیم": 8088,
      "همه‌ی": 8089,
      "ناص": 8090,
      "معامله": 8091,
      "ef": 8092,
      "نمی‌توانیم": 8093,
      "حمایتی": 8094,
      "قضاوت": 8095,
      "میکرون": 8096,
      "شاخه": 8097,
      "حکمرانی": 8098,
      "جیغ": 8099,
      "بدل": 8100,
      "origin": 8101,
      "کودکی": 8102,
      "مقت": 8103,
      "ببینیم": 8104,
      "هجو": 8105,
      "حسابی": 8106,
      "ثبت‌شده": 8107,
      "هیئت‌مدیره": 8108,
      "دلت": 8109,
      "ایای": 8110,
      "دینگی": 8111,
      "56": 8112,
      "کشیدن": 8113,
      "اختیارات": 8114,
      "aking": 8115,
      "لندن": 8116,
      "استرالیا": 8117,
      "چگون": 8118,
      "زیست‌": 8119,
      "پیچ": 8120,
      "رخ‌داده": 8121,
      "dire": 8122,
      "‌ساز": 8123,
      "کوروش": 8124,
      "ثال": 8125,
      "پالای": 8126,
      "مفاهیم": 8127,
      "له‌": 8128,
      "می‌شویم": 8129,
      "ci": 8130,
      "برقراری": 8131,
      "نامید": 8132,
      "becom": 8133,
      "تفحص": 8134,
      "اندکی": 8135,
      "می‌ماند": 8136,
      "نقدینگی": 8137,
      "گلی": 8138,
      "Gr": 8139,
      "بدانند": 8140,
      "مدنظر": 8141,
      "تروریست": 8142,
      "kill": 8143,
      "قاسمی": 8144,
      "آناهیتا": 8145,
      "مسدود": 8146,
      "خز": 8147,
      "طبا": 8148,
      "written": 8149,
      "پره": 8150,
      "چادر": 8151,
      "head": 8152,
      "دوازدهم": 8153,
      "شاهین": 8154,
      "ارمنی": 8155,
      "بزرگان": 8156,
      "پرداختند": 8157,
      "چگونگی": 8158,
      "4200": 8159,
      "حنانه": 8160,
      "خاد": 8161,
      "رسال": 8162,
      "هلال": 8163,
      "معارف": 8164,
      "بدان": 8165,
      "تث": 8166,
      "قوم": 8167,
      "قائل": 8168,
      "۵۱": 8169,
      "قدرتمند": 8170,
      "ctor": 8171,
      "متمرکز": 8172,
      "کارگروه": 8173,
      "کینگ": 8174,
      "مایه": 8175,
      "sign": 8176,
      "می‌شناس": 8177,
      "بخش‌هایی": 8178,
      "مخالفان": 8179,
      "however": 8180,
      "۴۱": 8181,
      "ابتلای": 8182,
      "شکلی": 8183,
      "ost": 8184,
      "حاکی": 8185,
      "برویم": 8186,
      "استخ": 8187,
      "روزنامه‌های": 8188,
      "نقاشی": 8189,
      "عقیده": 8190,
      "دندان": 8191,
      "بدنه": 8192,
      "عزت": 8193,
      "پروی": 8194,
      "لیلی": 8195,
      "اشغالی": 8196,
      "مفید": 8197,
      "سرمو": 8198,
      "بعضا": 8199,
      "پرستی": 8200,
      "عنصر": 8201,
      "فتنه": 8202,
      "ities": 8203,
      "lex": 8204,
      "سطوح": 8205,
      "jo": 8206,
      "نایی": 8207,
      "یدی": 8208,
      "کنکور": 8209,
      "صنفی": 8210,
      "aving": 8211,
      "آوی": 8212,
      "grad": 8213,
      "کم‌کم": 8214,
      "چشمانش": 8215,
      "ببرد": 8216,
      "محمو": 8217,
      "سامانه‌های": 8218,
      "آمیز": 8219,
      "تدار": 8220,
      "کلم": 8221,
      "نقط": 8222,
      "امیرال": 8223,
      "متعال": 8224,
      "سپرده": 8225,
      "ئیه": 8226,
      "طو": 8227,
      "ظلم": 8228,
      "منصور": 8229,
      "کتابخانه": 8230,
      "فرهنگیان": 8231,
      "Is": 8232,
      "۴۳": 8233,
      "نمایشی": 8234,
      "86": 8235,
      "قید": 8236,
      "prof": 8237,
      "بگذاری": 8238,
      "قوا": 8239,
      "سرهنگ": 8240,
      "leg": 8241,
      "صحبت‌های": 8242,
      "خواهید": 8243,
      "ury": 8244,
      "گونه‌های": 8245,
      "مواجهه": 8246,
      "بخت": 8247,
      "ریکی": 8248,
      "لهستان": 8249,
      "sup": 8250,
      "هواپیمایی": 8251,
      "تعلق": 8252,
      "اندر": 8253,
      "علیهم": 8254,
      "اشناسی": 8255,
      "41": 8256,
      "زمین‌های": 8257,
      "اتفاقا": 8258,
      "زخمی": 8259,
      "فدا": 8260,
      "اختلافات": 8261,
      "\".": 8262,
      "تنی": 8263,
      "ird": 8264,
      "oper": 8265,
      "stru": 8266,
      "تکنولوژی": 8267,
      "مخصوصا": 8268,
      "دانسته": 8269,
      "سمتش": 8270,
      "نمی‌دهد": 8271,
      "دانشجو": 8272,
      "آری": 8273,
      "گند": 8274,
      "استث": 8275,
      "کوه‌های": 8276,
      "آوردم": 8277,
      "نداشتیم": 8278,
      "بیام": 8279,
      "ایستاده": 8280,
      "صلی‌الله": 8281,
      "رایزنی": 8282,
      "عمان": 8283,
      "تسلیم": 8284,
      "سازند": 8285,
      "کنارش": 8286,
      "اطر": 8287,
      "زمز": 8288,
      "هزین": 8289,
      "تسریع": 8290,
      "ورک": 8291,
      "نیو": 8292,
      "ماندن": 8293,
      "ناپذیر": 8294,
      "خلف": 8295,
      "اسامی": 8296,
      "خوار": 8297,
      "احسان": 8298,
      "مطالب": 8299,
      "امیرالمومنین": 8300,
      "می‌زنند": 8301,
      "بیماری‌های": 8302,
      "قوت": 8303,
      "می‌خواند": 8304,
      "مذهب": 8305,
      "استخراج": 8306,
      "name": 8307,
      "غف": 8308,
      "تخلفات": 8309,
      "اونجا": 8310,
      "ارن": 8311,
      "early": 8312,
      "آنها": 8313,
      "مدرس": 8314,
      "پهلو": 8315,
      "حصار": 8316,
      "نگاری": 8317,
      "مطبو": 8318,
      "اینترنتی": 8319,
      "دادی": 8320,
      "آیات": 8321,
      "اعتباری": 8322,
      "hy": 8323,
      "‌ی": 8324,
      "‌گویی": 8325,
      "کرج": 8326,
      "series": 8327,
      "شناختی": 8328,
      "مناظ": 8329,
      "suc": 8330,
      "سیستم‌های": 8331,
      "تدریج": 8332,
      "آرزو": 8333,
      "vers": 8334,
      "مهرماه": 8335,
      "Cl": 8336,
      "غیرد": 8337,
      "واشنگتن": 8338,
      "میشن": 8339,
      "قره": 8340,
      "درختان": 8341,
      "زارع": 8342,
      "آقایان": 8343,
      "سلطنت": 8344,
      "گنج": 8345,
      "پات": 8346,
      "ازل": 8347,
      "دختران": 8348,
      "کاظمی": 8349,
      "رئیس‌کل": 8350,
      "حبی": 8351,
      "پیوسته": 8352,
      "می‌کشد": 8353,
      "سازنده": 8354,
      "آرش": 8355,
      "چنگ": 8356,
      "درحالی‌که": 8357,
      "بروند": 8358,
      "محال": 8359,
      "سنجش": 8360,
      "اسکو": 8361,
      "محرم": 8362,
      "iet": 8363,
      "چه‌": 8364,
      "ورهای": 8365,
      "بخاطر": 8366,
      "ائمه": 8367,
      "تهاج": 8368,
      "uc": 8369,
      "نارنجی": 8370,
      "باند": 8371,
      "تمدید": 8372,
      "people": 8373,
      "آفرینی": 8374,
      "فیلم‌ها": 8375,
      "علائم": 8376,
      "played": 8377,
      "عیتی": 8378,
      "کیو": 8379,
      "اعضا": 8380,
      "سوالات": 8381,
      "رسمیت": 8382,
      "stem": 8383,
      "وحشی": 8384,
      "فشرد": 8385,
      "تغذیه": 8386,
      "مجتبی": 8387,
      "گرفتار": 8388,
      "ended": 8389,
      "علامه": 8390,
      "نعمت": 8391,
      "زندانی": 8392,
      "سواد": 8393,
      "شیشه": 8394,
      "اختلال": 8395,
      "including": 8396,
      "ملا": 8397,
      "ماهیت": 8398,
      "زدند": 8399,
      "انفجار": 8400,
      "ren": 8401,
      "ارجاع": 8402,
      "هواشناسی": 8403,
      "dec": 8404,
      "پیکان": 8405,
      "می‌گرد": 8406,
      "گل‌گهر": 8407,
      "get": 8408,
      "فک": 8409,
      "نکردم": 8410,
      "اقلام": 8411,
      "تراز": 8412,
      "دستمو": 8413,
      "cover": 8414,
      "دمای": 8415,
      "حامل": 8416,
      "می‌سازد": 8417,
      "دهید": 8418,
      "‌انداز": 8419,
      "قله": 8420,
      "both": 8421,
      "سکونت": 8422,
      "ague": 8423,
      "مراتب": 8424,
      "وله": 8425,
      "می‌دانم": 8426,
      "ept": 8427,
      "down": 8428,
      "ناف": 8429,
      "هین": 8430,
      "ove": 8431,
      "برساند": 8432,
      "آستان": 8433,
      "انبو": 8434,
      "مومن": 8435,
      "قطب": 8436,
      "ماموری": 8437,
      "سربازان": 8438,
      "گسترده‌ای": 8439,
      "شال": 8440,
      "همسرش": 8441,
      "کارآمد": 8442,
      "contin": 8443,
      "follow": 8444,
      "داده‌بود": 8445,
      "؟؟؟": 8446,
      "معدنی": 8447,
      "مشکی": 8448,
      "ارزش‌های": 8449,
      "پرهیز": 8450,
      "2020": 8451,
      "result": 8452,
      "توجیه": 8453,
      "perform": 8454,
      "محمدعلی": 8455,
      "کارگر": 8456,
      "بانک‌های": 8457,
      "ابرو": 8458,
      "ه‌شده‌و": 8459,
      "دات": 8460,
      "prov": 8461,
      "آوریل": 8462,
      "lin": 8463,
      "نون": 8464,
      "پوتین": 8465,
      "مورخ": 8466,
      "دگر": 8467,
      "دارویی": 8468,
      "آمریکای": 8469,
      "bel": 8470,
      "واریز": 8471,
      "سنجی": 8472,
      "ماهای": 8473,
      "کوچکی": 8474,
      "پیشرفته": 8475,
      "کنارم": 8476,
      "ئل": 8477,
      "استکبار": 8478,
      "long": 8479,
      "نگرفته": 8480,
      "استفاد": 8481,
      "تخلیه": 8482,
      "لذت": 8483,
      "متا": 8484,
      "رسما": 8485,
      "hn": 8486,
      "اکو": 8487,
      "ise": 8488,
      "دولت‌ها": 8489,
      "احیا": 8490,
      "بهشتی": 8491,
      "‌آهن": 8492,
      "جذابی": 8493,
      "افتادم": 8494,
      "نابودی": 8495,
      "اقیانوس": 8496,
      "several": 8497,
      "ساختن": 8498,
      "ایلی": 8499,
      "موسوم": 8500,
      "نمی‌دانم": 8501,
      "قدری": 8502,
      "صفوی": 8503,
      "حدیث": 8504,
      "اهدا": 8505,
      "نجف": 8506,
      "death": 8507,
      "vie": 8508,
      "لاس": 8509,
      "زنج": 8510,
      "صاف": 8511,
      "گفتی": 8512,
      "ببینید": 8513,
      "سازو": 8514,
      "نفره": 8515,
      "هم‌زمان": 8516,
      "67": 8517,
      "بگذارد": 8518,
      "تایی": 8519,
      "انیایی": 8520,
      "صفحات": 8521,
      "عمیقی": 8522,
      "توری": 8523,
      "نگام": 8524,
      "diff": 8525,
      "cept": 8526,
      "وابستگی": 8527,
      "گازی": 8528,
      "150": 8529,
      "ject": 8530,
      "مجاهد": 8531,
      "رحیم": 8532,
      "فیه": 8533,
      "تازگی": 8534,
      "دربی": 8535,
      "گفتنی": 8536,
      "بازه": 8537,
      "آواز": 8538,
      "خاورمیانه": 8539,
      "افزون": 8540,
      "دیدیم": 8541,
      "شکسته": 8542,
      "ica": 8543,
      "بررسی‌های": 8544,
      "سپه": 8545,
      "تاسیسات": 8546,
      "راها": 8547,
      "ives": 8548,
      "هوادار": 8549,
      "خانوادگی": 8550,
      "Jan": 8551,
      "care": 8552,
      "ه‌اید": 8553,
      "مقننه": 8554,
      "نداده": 8555,
      "خشونت": 8556,
      "معمولی": 8557,
      "زمزمه": 8558,
      "وانه": 8559,
      "atch": 8560,
      "تروریسم": 8561,
      "جلد": 8562,
      "توانستند": 8563,
      "ایق": 8564,
      "چهره‌های": 8565,
      "پالایشگاه": 8566,
      "ناق": 8567,
      "اسیر": 8568,
      "devel": 8569,
      "moved": 8570,
      "نایب‌رئیس": 8571,
      "نکردند": 8572,
      "اینطور": 8573,
      "کمپ": 8574,
      "مشکوک": 8575,
      "‌شده‌تا": 8576,
      "حداکثری": 8577,
      "ترز": 8578,
      "۱۳۶": 8579,
      "بارندگی": 8580,
      "پژوهش‌های": 8581,
      "تشکل": 8582,
      "دوری": 8583,
      "معل": 8584,
      "ائلی": 8585,
      "مصدق": 8586,
      "وایی": 8587,
      "ادارات": 8588,
      "متعهد": 8589,
      "ورزشکاران": 8590,
      "مراقبت‌های": 8591,
      "ریسک": 8592,
      "مقصد": 8593,
      "تثبیت": 8594,
      "غار": 8595,
      "کرسی": 8596,
      "بیت‌ال": 8597,
      "aid": 8598,
      "open": 8599,
      "دارایی‌های": 8600,
      "خودمو": 8601,
      "مشاغل": 8602,
      "محموله": 8603,
      "صلاح": 8604,
      "دلاری": 8605,
      "began": 8606,
      "داستانی": 8607,
      "تحصیلات": 8608,
      "کتابی": 8609,
      "وج": 8610,
      "مهمان": 8611,
      "‌نشینی": 8612,
      "offic": 8613,
      "پین": 8614,
      "بردار": 8615,
      "une": 8616,
      "ه‍": 8617,
      "فاضلاب": 8618,
      "mem": 8619,
      "رگ": 8620,
      "۹۰": 8621,
      "موهای": 8622,
      "سرطان": 8623,
      "سوری": 8624,
      "سیدم": 8625,
      "ولی‌فقیه": 8626,
      "متفاوتی": 8627,
      ".،": 8628,
      "میک": 8629,
      "میگم": 8630,
      "الدین": 8631,
      "تساوی": 8632,
      "می‌خوام": 8633,
      "سبد": 8634,
      "استی": 8635,
      "گرفته‌بود": 8636,
      "رزمایش": 8637,
      "ists": 8638,
      "نمیت": 8639,
      "ولا": 8640,
      "بازگرد": 8641,
      "بدتر": 8642,
      "عاق": 8643,
      "جانباز": 8644,
      "مدرک": 8645,
      "press": 8646,
      "بشری": 8647,
      "پذیرفته": 8648,
      "همسای": 8649,
      "ven": 8650,
      "ماموران": 8651,
      "فلز": 8652,
      "مهرداد": 8653,
      "داریوش": 8654,
      "ارتفاعات": 8655,
      "منحصر": 8656,
      "pow": 8657,
      "ons": 8658,
      "سطحی": 8659,
      "ock": 8660,
      "هرانی": 8661,
      "اکسی": 8662,
      "دفعه": 8663,
      "ان‌شاءالله": 8664,
      "ولتی": 8665,
      "ause": 8666,
      "تعطیلات": 8667,
      "زوج": 8668,
      "والیبال": 8669,
      "مهاجر": 8670,
      "میخوام": 8671,
      "لیکی": 8672,
      "گذاشتند": 8673,
      "May": 8674,
      "متون": 8675,
      "ism": 8676,
      "نمی‌دونم": 8677,
      "World": 8678,
      "same": 8679,
      "بشم": 8680,
      "پارت": 8681,
      "por": 8682,
      "تکو": 8683,
      "نمیدونم": 8684,
      "فیف": 8685,
      "سلامتی": 8686,
      "عاشورا": 8687,
      "عرصه‌های": 8688,
      "Fran": 8689,
      "جنبه": 8690,
      "Ger": 8691,
      "جمل": 8692,
      "انداری": 8693,
      "94": 8694,
      "ames": 8695,
      "سمتم": 8696,
      "Indi": 8697,
      "Can": 8698,
      "کاب": 8699,
      "بیتی": 8700,
      "ناراحتی": 8701,
      "اتصال": 8702,
      "توق": 8703,
      "رسد": 8704,
      "دامن": 8705,
      "گلو": 8706,
      "مشور": 8707,
      "کارهایی": 8708,
      "اخبار": 8709,
      "داده‌های": 8710,
      "ایفای": 8711,
      "Sp": 8712,
      "نرو": 8713,
      "گویا": 8714,
      "۷۰": 8715,
      "معت": 8716,
      "بازی‌ها": 8717,
      "شیطان": 8718,
      "گوشم": 8719,
      "واشی": 8720,
      "گذاشتن": 8721,
      "States": 8722,
      "develop": 8723,
      "استراحت": 8724,
      "فرماید": 8725,
      "Be": 8726,
      "ترسیم": 8727,
      "‌آور": 8728,
      "ژوئن": 8729,
      "عذر": 8730,
      "قبر": 8731,
      "ارزان": 8732,
      "نبودند": 8733,
      "tri": 8734,
      "همایش": 8735,
      "وارداتی": 8736,
      "مغز": 8737,
      "هواپیمای": 8738,
      "توقی": 8739,
      "رهایی": 8740,
      "ونست": 8741,
      "وسعت": 8742,
      "حبس": 8743,
      "اومیکرون": 8744,
      "ترکیبی": 8745,
      "تیم‌ها": 8746,
      "قاع": 8747,
      "قیاس": 8748,
      "پلت": 8749,
      "اسرائیلی": 8750,
      "فوتی": 8751,
      "II": 8752,
      "نیوی": 8753,
      "ذوب‌آهن": 8754,
      "soc": 8755,
      "ارتقاء": 8756,
      "آیی": 8757,
      "نفری": 8758,
      "فرنگی": 8759,
      "اذعان": 8760,
      "town": 8761,
      "var": 8762,
      "خزر": 8763,
      "عادت": 8764,
      "add": 8765,
      "نوسان": 8766,
      "تظاه": 8767,
      "خدایا": 8768,
      "غام": 8769,
      "ai": 8770,
      "یونان": 8771,
      "جاده‌ای": 8772,
      "یهودیان": 8773,
      "خانی": 8774,
      "عس": 8775,
      "اقلیم": 8776,
      "بارز": 8777,
      "پنالتی": 8778,
      "دانش‌آموز": 8779,
      "محمدحسین": 8780,
      "نرم‌افزار": 8781,
      "خطبه": 8782,
      "گیاهان": 8783,
      "School": 8784,
      "ting": 8785,
      "الس": 8786,
      "نیمی": 8787,
      "ork": 8788,
      "نقشی": 8789,
      "چندانی": 8790,
      "شیرازی": 8791,
      "فیلمس": 8792,
      "ستری": 8793,
      "del": 8794,
      "۸۰": 8795,
      "مجیدی": 8796,
      "87": 8797,
      "ویکی": 8798,
      "سوئی": 8799,
      "نگارش": 8800,
      "urch": 8801,
      "سرمایه‌گذاران": 8802,
      "خشکسالی": 8803,
      "Car": 8804,
      "ys": 8805,
      "قشر": 8806,
      "میکرو": 8807,
      "محوری": 8808,
      "قلبم": 8809,
      "حائ": 8810,
      "former": 8811,
      "استراتژی": 8812,
      "نیما": 8813,
      "دیگ": 8814,
      "احمر": 8815,
      "pass": 8816,
      "ابتی": 8817,
      "خوام": 8818,
      "والدین": 8819,
      "آزار": 8820,
      "ained": 8821,
      "اتم": 8822,
      "مردمان": 8823,
      "عزیزان": 8824,
      "کبیر": 8825,
      "اومدی": 8826,
      "سالروز": 8827,
      "کاربری": 8828,
      "غیرقابل": 8829,
      "ذوق": 8830,
      "رئ": 8831,
      "قضاییه": 8832,
      "نادیده": 8833,
      "حمی": 8834,
      "جمعیتی": 8835,
      "هیجان": 8836,
      "enn": 8837,
      "غرور": 8838,
      "football": 8839,
      "حکایت": 8840,
      "پک": 8841,
      "نوید": 8842,
      "شاخص‌های": 8843,
      "against": 8844,
      "family": 8845,
      "الهام": 8846,
      "کشتار": 8847,
      "John": 8848,
      "آنلاین": 8849,
      "پیامی": 8850,
      "گزارش‌های": 8851,
      "گردیده": 8852,
      "بحرانی": 8853,
      "طلبی": 8854,
      "مصلحت": 8855,
      "sol": 8856,
      "طرحی": 8857,
      "تحریک": 8858,
      "استخدام": 8859,
      "run": 8860,
      "گواهی": 8861,
      "66": 8862,
      "فون": 8863,
      "مامور": 8864,
      "محورهای": 8865,
      "رستم": 8866,
      "دستگیری": 8867,
      "خداحافظی": 8868,
      "تیراندازی": 8869,
      "فقه": 8870,
      "‌بخش": 8871,
      "رانندگی": 8872,
      "فینال": 8873,
      "ures": 8874,
      "دستمزد": 8875,
      "عده": 8876,
      "فیلمنامه": 8877,
      "خره": 8878,
      "هوی": 8879,
      "تکنی": 8880,
      "تویی": 8881,
      "کوهست": 8882,
      "نسبی": 8883,
      "فرصتی": 8884,
      "قرائت": 8885,
      "شبی": 8886,
      "مهی": 8887,
      "ژوئیه": 8888,
      "ئون": 8889,
      "ese": 8890,
      "قدردانی": 8891,
      "تاکسی": 8892,
      "زندانیان": 8893,
      "بزرگوار": 8894,
      "می‌زنم": 8895,
      "شل": 8896,
      "محوطه": 8897,
      "زهر": 8898,
      "راهکارهای": 8899,
      "ield": 8900,
      "جس": 8901,
      "راننده": 8902,
      "هستید": 8903,
      "lege": 8904,
      "بنگاه": 8905,
      "عزم": 8906,
      "تقویم": 8907,
      "حرفش": 8908,
      "سپری": 8909,
      "may": 8910,
      "وسیع": 8911,
      "کوهستانی": 8912,
      "آث": 8913,
      "دهان": 8914,
      "هومن": 8915,
      "برادران": 8916,
      "59": 8917,
      "bus": 8918,
      "دارا": 8919,
      "امک": 8920,
      "کاهش‌یافته": 8921,
      "قند": 8922,
      "مصاف": 8923,
      "British": 8924,
      "Fe": 8925,
      "جدیت": 8926,
      "‌زدایی": 8927,
      "نیویورک": 8928,
      "لید": 8929,
      "اجاره": 8930,
      "تعلی": 8931,
      "جلسه‌ای": 8932,
      "زخم": 8933,
      "خوردم": 8934,
      "اعتراضات": 8935,
      "since": 8936,
      "کمتری": 8937,
      "ized": 8938,
      "فاصل": 8939,
      "صادراتی": 8940,
      "بگیر": 8941,
      "مهتاب": 8942,
      "مجاه": 8943,
      "Bl": 8944,
      "Ju": 8945,
      "ped": 8946,
      "بستان": 8947,
      "main": 8948,
      "محق": 8949,
      "خدایی": 8950,
      "جاسوسی": 8951,
      "بدو": 8952,
      "زینی": 8953,
      "آرامی": 8954,
      "‌احمر": 8955,
      "اندک": 8956,
      "خاله": 8957,
      "بزرگتر": 8958,
      "حرف‌های": 8959,
      "نکنه": 8960,
      "وگر": 8961,
      "معین": 8962,
      "هوشی": 8963,
      "اسفندماه": 8964,
      "ماشین‌": 8965,
      "حذفی": 8966,
      "مسائلی": 8967,
      "پرونده‌های": 8968,
      "غیردولتی": 8969,
      "تام": 8970,
      "ابند": 8971,
      "هلال‌احمر": 8972,
      "ملکی": 8973,
      "بادی": 8974,
      "دفع": 8975,
      "پاید": 8976,
      "متشکل": 8977,
      "نیستیم": 8978,
      "رحمت": 8979,
      "تپه": 8980,
      "رومی": 8981,
      "اعداد": 8982,
      "ویض": 8983,
      "line": 8984,
      "تدبیر": 8985,
      "مدنی": 8986,
      "میهمان": 8987,
      "توانمند": 8988,
      "عذ": 8989,
      "ملی‌": 8990,
      "قسمتی": 8991,
      "تاکتی": 8992,
      "نامه‌": 8993,
      "rew": 8994,
      "قزاقستان": 8995,
      "600": 8996,
      "فاج": 8997,
      "سالاری": 8998,
      "ممنون": 8999,
      "Ro": 9000,
      "ina": 9001,
      "اجباری": 9002,
      "رسنجی": 9003,
      "فعل": 9004,
      "مظلوم": 9005,
      "ترجیحی": 9006,
      "پهن": 9007,
      "کلیدی": 9008,
      "member": 9009,
      "ime": 9010,
      "فرسود": 9011,
      "فراگیر": 9012,
      "Au": 9013,
      "نوار": 9014,
      "آینه": 9015,
      "king": 9016,
      "رحم": 9017,
      "بیایند": 9018,
      "‌شناس": 9019,
      "لیوان": 9020,
      "مسیری": 9021,
      "دائمی": 9022,
      "بهرام": 9023,
      "درواز": 9024,
      "بورگ": 9025,
      "اسکار": 9026,
      "آذرماه": 9027,
      "overn": 9028,
      "تظاهرات": 9029,
      "فیروز": 9030,
      "له‌ای": 9031,
      "انتری": 9032,
      "اماکن": 9033,
      "ناوگان": 9034,
      "معضل": 9035,
      "ger": 9036,
      "ior": 9037,
      "معتقدم": 9038,
      "روایتی": 9039,
      "هندی": 9040,
      "سیمان": 9041,
      "گفتمان": 9042,
      "دوره‌ای": 9043,
      "تسلط": 9044,
      "فتی": 9045,
      "کردید": 9046,
      "آمارهای": 9047,
      "لقب": 9048,
      "ازبک": 9049,
      "همچین": 9050,
      "جوامع": 9051,
      "Nov": 9052,
      "bers": 9053,
      "وکیل": 9054,
      "دستان": 9055,
      "پدافند": 9056,
      "بعث": 9057,
      "دوله": 9058,
      "trans": 9059,
      "2008": 9060,
      "ویلی": 9061,
      "بایستی": 9062,
      "مجموعه‌های": 9063,
      "اختصاصی": 9064,
      "خسرو": 9065,
      "آرزوی": 9066,
      "77": 9067,
      "نظرسنجی": 9068,
      "استانداری": 9069,
      "سیگار": 9070,
      "سرقت": 9071,
      "مسلم": 9072,
      "تقی": 9073,
      "iving": 9074,
      "آسیای": 9075,
      "هدیه": 9076,
      "small": 9077,
      "معتر": 9078,
      "جعفری": 9079,
      "کفش": 9080,
      "ریلی": 9081,
      "اولا": 9082,
      "کارکرد": 9083,
      "اینه": 9084,
      "خودروها": 9085,
      "پایداری": 9086,
      "مندان": 9087,
      "مجروح": 9088,
      "عقب‌نشینی": 9089,
      "شق": 9090,
      "سوئ": 9091,
      "می‌کشید": 9092,
      "لحظه‌ای": 9093,
      "جیم": 9094,
      "رقیب": 9095,
      "اسکان": 9096,
      "لاتین": 9097,
      "polit": 9098,
      "شهرام": 9099,
      "York": 9100,
      "could": 9101,
      "84": 9102,
      "گوری": 9103,
      "درآورد": 9104,
      "تصدی": 9105,
      "جاذ": 9106,
      "استدلال": 9107,
      "مهلت": 9108,
      "برابری": 9109,
      "فروشگاه": 9110,
      "ریاض": 9111,
      "سلطه": 9112,
      "خنثی": 9113,
      "زیرزمینی": 9114,
      "چهارمین": 9115,
      "۱۳۹۶": 9116,
      "شوری": 9117,
      "واقعه": 9118,
      "می‌دهم": 9119,
      "عروسی": 9120,
      "خیانت": 9121,
      "هنرهای": 9122,
      "حوض": 9123,
      "ه‌بان": 9124,
      "غرق": 9125,
      "آن‌قدر": 9126,
      "sim": 9127,
      "بدانیم": 9128,
      "progr": 9129,
      "درحال": 9130,
      "رسیدم": 9131,
      "ble": 9132,
      "کای": 9133,
      "مطلق": 9134,
      "اذیت": 9135,
      "نگو": 9136,
      "اندیشی": 9137,
      "شنیده": 9138,
      "ier": 9139,
      "صدها": 9140,
      "انیمیشن": 9141,
      "کرده‌بودند": 9142,
      "درخشان": 9143,
      "آثاری": 9144,
      "اخترا": 9145,
      "did": 9146,
      "میگی": 9147,
      "خبرگان": 9148,
      "بهره‌گیری": 9149,
      "عال": 9150,
      "شهیدان": 9151,
      "چشماش": 9152,
      "success": 9153,
      "بیری": 9154,
      "rece": 9155,
      "بن‌": 9156,
      "رقص": 9157,
      "می‌شده": 9158,
      "نوسازی": 9159,
      "کارآمدی": 9160,
      "‌شده‌اند": 9161,
      "ارا": 9162,
      "اصغر": 9163,
      "هفته‌های": 9164,
      "hist": 9165,
      "jor": 9166,
      "نجو": 9167,
      "چسب": 9168,
      "می‌خور": 9169,
      "تدارک": 9170,
      "بزنیم": 9171,
      "gradu": 9172,
      "کاظم": 9173,
      "سالهای": 9174,
      "تشریف": 9175,
      "uss": 9176,
      "آتش‌سوزی": 9177,
      "غیبت": 9178,
      "کلاسیک": 9179,
      "راهنمایی": 9180,
      "جناح": 9181,
      "کجاست": 9182,
      "بیرو": 9183,
      "صدایی": 9184,
      "باع": 9185,
      "عمار": 9186,
      "مصرف‌کننده": 9187,
      "شیرینی": 9188,
      "تخصص": 9189,
      "می‌فرماید": 9190,
      "گیاهی": 9191,
      "ابزارهای": 9192,
      "اونی": 9193,
      "بازنگری": 9194,
      "................................": 9195,
      "پاره": 9196,
      "موز": 9197,
      "مناق": 9198,
      "تفکیک": 9199,
      "left": 9200,
      "اسماعیلی": 9201,
      "تمام‌شده": 9202,
      "ired": 9203,
      "می‌نماید": 9204,
      "نشریه": 9205,
      "راکی": 9206,
      "اهتمام": 9207,
      "سرانه": 9208,
      "حالم": 9209,
      "ured": 9210,
      "نشوند": 9211,
      "اینو": 9212,
      "می‌رساند": 9213,
      "خوابم": 9214,
      "اثری": 9215,
      "ined": 9216,
      "مهران": 9217,
      "محوریت": 9218,
      "profess": 9219,
      "cut": 9220,
      "ازجمله": 9221,
      "شمسی": 9222,
      "قیمتی": 9223,
      "self": 9224,
      "داوط": 9225,
      "بردم": 9226,
      "Ph": 9227,
      "قلمرو": 9228,
      "ایز": 9229,
      "بازنشستگان": 9230,
      "تماشاگران": 9231,
      "می‌گیری": 9232,
      "بیستم": 9233,
      "edia": 9234,
      "اشو": 9235,
      "arm": 9236,
      "توانستیم": 9237,
      "داوطلب": 9238,
      "بامداد": 9239,
      "ارزشی": 9240,
      "میث": 9241,
      "علیها": 9242,
      "very": 9243,
      "پاسخ‌گویی": 9244,
      "پژوهشگر": 9245,
      "نمونه‌های": 9246,
      "شایع": 9247,
      "oman": 9248,
      "نبودم": 9249,
      "سخنانی": 9250,
      "هیچ‌گونه": 9251,
      "باشگاه‌های": 9252,
      "رج": 9253,
      "کارگیری": 9254,
      "امکان‌پذیر": 9255,
      "حاوی": 9256,
      "احتیاط": 9257,
      "فیلم‌برداری": 9258,
      "وطن": 9259,
      "همه‌گیری": 9260,
      "هجوم": 9261,
      "سفره": 9262,
      "قفل": 9263,
      "تالیف": 9264,
      "قاعده": 9265,
      "کرات": 9266,
      "اقصی": 9267,
      "پاپ": 9268,
      "صاحبان": 9269,
      "life": 9270,
      "محتوا": 9271,
      "مواق": 9272,
      "augh": 9273,
      "شجاع": 9274,
      "نمی‌تون": 9275,
      "سایبری": 9276,
      "تمرینات": 9277,
      "حلال": 9278,
      "الکتریکی": 9279,
      "like": 9280,
      "بدر": 9281,
      "‌طلب": 9282,
      "read": 9283,
      "Oc": 9284,
      "شغلی": 9285,
      "اینستا": 9286,
      "بیاورد": 9287,
      "ax": 9288,
      "تعادل": 9289,
      "برگزیده": 9290,
      "علی‌اکبر": 9291,
      "FC": 9292,
      "تشکیلات": 9293,
      "تامل": 9294,
      "جسم": 9295,
      "بردند": 9296,
      "حیاتی": 9297,
      "ربط": 9298,
      "ible": 9299,
      "49": 9300,
      "Wh": 9301,
      "انتقام": 9302,
      "tit": 9303,
      "بق": 9304,
      "ister": 9305,
      "روایات": 9306,
      "ه‌نشده‌است": 9307,
      "زلی": 9308,
      "ساختاری": 9309,
      "89": 9310,
      "تاسف": 9311,
      "نرگس": 9312,
      "نبودن": 9313,
      "قریب": 9314,
      "ital": 9315,
      "باطل": 9316,
      "دیدند": 9317,
      "مختص": 9318,
      "system": 9319,
      "کوی": 9320,
      "سازندگی": 9321,
      "اریان": 9322,
      "شواهد": 9323,
      "قطار": 9324,
      "کیش": 9325,
      "امیدواری": 9326,
      "آذ": 9327,
      "درآمدی": 9328,
      "خوشحالی": 9329,
      "men": 9330,
      "تضعیف": 9331,
      "حمد": 9332,
      "مواج": 9333,
      "سازمانی": 9334,
      "حش": 9335,
      "دیشب": 9336,
      "موب": 9337,
      "علوی": 9338,
      "آنجایی": 9339,
      "مداری": 9340,
      "عصبانیت": 9341,
      "منشا": 9342,
      "واکسن‌های": 9343,
      "organ": 9344,
      "عموما": 9345,
      "پایین‌تر": 9346,
      "دلیلی": 9347,
      "person": 9348,
      "uro": 9349,
      "می‌ش": 9350,
      "شرب": 9351,
      "ساختمانی": 9352,
      "محبوب": 9353,
      "Coun": 9354,
      "ca": 9355,
      "اصلی‌ترین": 9356,
      "مارک": 9357,
      "تهیه‌کنند": 9358,
      "استرس": 9359,
      "افقی": 9360,
      "وزیری": 9361,
      "انصار": 9362,
      "سوابق": 9363,
      "نصف": 9364,
      "کالی": 9365,
      "مراقب": 9366,
      "موبایل": 9367,
      "زامی": 9368,
      "ماها": 9369,
      "رکود": 9370,
      "میری": 9371,
      "الد": 9372,
      "تبعی": 9373,
      "غیرمجاز": 9374,
      "زینب": 9375,
      "هیچ‌گاه": 9376,
      "AT": 9377,
      "لیبی": 9378,
      "صیانت": 9379,
      "ببرند": 9380,
      "عجی": 9381,
      "زلزل": 9382,
      "توقیف": 9383,
      "وکال": 9384,
      "گروه‌ها": 9385,
      "دال": 9386,
      "نشینی": 9387,
      "درضا": 9388,
      "تسلیت": 9389,
      "نیروها": 9390,
      "حمایت‌های": 9391,
      "چشم‌": 9392,
      "چشمای": 9393,
      "آفتاب": 9394,
      "واض": 9395,
      "سرما": 9396,
      "‌آفرینی": 9397,
      "سرکوب": 9398,
      "منتشر‌شده‌است": 9399,
      "رالدین": 9400,
      "مرو": 9401,
      "پنجاه": 9402,
      "بندرعباس": 9403,
      "based": 9404,
      "به‌خاطر": 9405,
      "plac": 9406,
      "دبیرستان": 9407,
      "‌متر": 9408,
      "ony": 9409,
      "عارف": 9410,
      "اجد": 9411,
      "امیری": 9412,
      "کمدی": 9413,
      "بریتی": 9414,
      "مقداری": 9415,
      "requ": 9416,
      "سلیمان": 9417,
      "فرماندار": 9418,
      "عاملی": 9419,
      "جفت": 9420,
      "حساسیت": 9421,
      "US": 9422,
      "کعب": 9423,
      "خیل": 9424,
      "اساسنامه": 9425,
      "شلوار": 9426,
      "سرزمین‌های": 9427,
      "رضو": 9428,
      "پتان": 9429,
      "طبیع": 9430,
      "ببخشید": 9431,
      "لایه": 9432,
      "Sept": 9433,
      "ont": 9434,
      "طرفین": 9435,
      "می‌شدم": 9436,
      "Another": 9437,
      "مکات": 9438,
      "کاربردی": 9439,
      "بیاب": 9440,
      "شکاف": 9441,
      "190": 9442,
      "صداش": 9443,
      "رواج": 9444,
      "بلیت": 9445,
      "نود": 9446,
      "اسکندر": 9447,
      "آدرس": 9448,
      "فلان": 9449,
      "tober": 9450,
      "آلوده": 9451,
      "Tr": 9452,
      "نرسیده": 9453,
      "ادها": 9454,
      "آماری": 9455,
      "خوانند": 9456,
      "الحاق": 9457,
      "بمب": 9458,
      "خوراک": 9459,
      "محاک": 9460,
      "ماهواره": 9461,
      "2014": 9462,
      "مزاح": 9463,
      "عادلانه": 9464,
      "رسالت": 9465,
      "مستقی": 9466,
      "جراحی": 9467,
      "ali": 9468,
      "تحمیلی": 9469,
      "‌شده‌از": 9470,
      "نفرات": 9471,
      "فاطمی": 9472,
      "هلند": 9473,
      "گلوله": 9474,
      "سویی": 9475,
      "مکرر": 9476,
      "مجه": 9477,
      "نکرده‌اند": 9478,
      "مترم": 9479,
      "October": 9480,
      "52": 9481,
      "لبا": 9482,
      "بی‌توجهی": 9483,
      "جنگ‌های": 9484,
      "تعلیق": 9485,
      "game": 9486,
      "اتوم": 9487,
      "خیزد": 9488,
      "قواعد": 9489,
      "پرید": 9490,
      "Engl": 9491,
      "شکل‌گرفته": 9492,
      "استوار": 9493,
      "الیز": 9494,
      "گزاران": 9495,
      "Apr": 9496,
      "بودج": 9497,
      "طینه": 9498,
      "بروج": 9499,
      "76": 9500,
      "Sc": 9501,
      "father": 9502,
      "ببریم": 9503,
      "سانی": 9504,
      "اکرم": 9505,
      "نداشتن": 9506,
      "September": 9507,
      "uch": 9508,
      "عا": 9509,
      "ایران‌": 9510,
      "area": 9511,
      "Chr": 9512,
      "دغدغه‌های": 9513,
      "English": 9514,
      "زحم": 9515,
      "پم": 9516,
      "طبیعتا": 9517,
      "home": 9518,
      "دوتا": 9519,
      "مدت‌ها": 9520,
      "prom": 9521,
      "اپی": 9522,
      "مایع": 9523,
      "گرایان": 9524,
      "تکه": 9525,
      "متنوع": 9526,
      "2011": 9527,
      "dep": 9528,
      "700": 9529,
      "شباه": 9530,
      "یمی": 9531,
      "نیفت": 9532,
      "توفیق": 9533,
      "شینه": 9534,
      "حسب": 9535,
      "الیست": 9536,
      "احوال": 9537,
      "January": 9538,
      "صریح": 9539,
      "بنی‌": 9540,
      "class": 9541,
      "design": 9542,
      "نخواهند": 9543,
      "مدام": 9544,
      "توسعه‌": 9545,
      "می‌بیند": 9546,
      "قرنطینه": 9547,
      "April": 9548,
      "Pro": 9549,
      "خوری": 9550,
      "خاکی": 9551,
      "هزینه‌ها": 9552,
      "اردوی": 9553,
      "شهره": 9554,
      "پوشیده": 9555,
      "تاجیکستان": 9556,
      "خوشم": 9557,
      "مساجد": 9558,
      "مدد": 9559,
      "ison": 9560,
      "دایره": 9561,
      "نمودند": 9562,
      "public": 9563,
      "sk": 9564,
      "شج": 9565,
      "شانه": 9566,
      "مبانی": 9567,
      "ank": 9568,
      "ابتکار": 9569,
      "یکسان": 9570,
      "fri": 9571,
      "سلو": 9572,
      "ساعات": 9573,
      "vision": 9574,
      "hand": 9575,
      "توهین": 9576,
      "خطا": 9577,
      "اعطای": 9578,
      "جنین": 9579,
      "سرلشکر": 9580,
      "امیدی": 9581,
      "book": 9582,
      "even": 9583,
      "800": 9584,
      "اثرات": 9585,
      "بازنشستگی": 9586,
      "Aug": 9587,
      "طلای": 9588,
      "طالب": 9589,
      "غالب": 9590,
      "دهستان": 9591,
      "third": 9592,
      "برخاست": 9593,
      "بلد": 9594,
      "مسیح": 9595,
      "ذهنم": 9596,
      "house": 9597,
      "tle": 9598,
      "مداخ": 9599,
      "پردیس": 9600,
      "مقاومتی": 9601,
      "بهره‌مند": 9602,
      "state": 9603,
      "آلات": 9604,
      "March": 9605,
      "همیش": 9606,
      "Par": 9607,
      "فال": 9608,
      "inc": 9609,
      "سرشماری": 9610,
      "فیفا": 9611,
      "پرسیدم": 9612,
      "تبار": 9613,
      "تمای": 9614,
      "جما": 9615,
      "‌فر": 9616,
      "تفری": 9617,
      "بابایی": 9618,
      "cour": 9619,
      "عاتی": 9620,
      "متغیر": 9621,
      "ناطی": 9622,
      "اته": 9623,
      "مرده": 9624,
      "باهم": 9625,
      "ساسانی": 9626,
      "2010": 9627,
      "تیرماه": 9628,
      "ساک": 9629,
      "منازل": 9630,
      "حالیکه": 9631,
      "تبلیغاتی": 9632,
      "Alex": 9633,
      "still": 9634,
      "بزنند": 9635,
      "نده‌های": 9636,
      "۲۰۰۶": 9637,
      "نشده": 9638,
      "۵۰۰": 9639,
      "عیسی": 9640,
      "peri": 9641,
      "هیئت‌علمی": 9642,
      "Man": 9643,
      "met": 9644,
      "بروی": 9645,
      "رقابت‌ها": 9646,
      "رستوران": 9647,
      "استیک": 9648,
      "stand": 9649,
      "July": 9650,
      "شاف": 9651,
      "راحمد": 9652,
      "وگرنه": 9653,
      "مرج": 9654,
      "تعارض": 9655,
      "اسلح": 9656,
      "سارا": 9657,
      "برشمرد": 9658,
      "می‌توانید": 9659,
      "ants": 9660,
      "نهادها": 9661,
      "build": 9662,
      "طباطب": 9663,
      "حائز": 9664,
      "می‌ری": 9665,
      "پلاس": 9666,
      "برسند": 9667,
      "ask": 9668,
      "مشخصی": 9669,
      "place": 9670,
      "اولوی": 9671,
      "قیمت‌گذاری": 9672,
      "طباطبایی": 9673,
      "54": 9674,
      "آشو": 9675,
      "اتیک": 9676,
      "می‌گوییم": 9677,
      "ظاهری": 9678,
      "ریل": 9679,
      "ماهانه": 9680,
      "خجالت": 9681,
      "تنفسی": 9682,
      "زاه": 9683,
      "صب": 9684,
      "ator": 9685,
      "کرونای": 9686,
      "رابط": 9687,
      "2006": 9688,
      "شخصیتی": 9689,
      "گردشگران": 9690,
      "مازاد": 9691,
      "حیث": 9692,
      "طرفدار": 9693,
      "دموکراسی": 9694,
      "ریب": 9695,
      "آرایش": 9696,
      "بیمارستان‌ها": 9697,
      "ک‌ها": 9698,
      "‌ریز": 9699,
      "thing": 9700,
      "تعلیم": 9701,
      "جمع‌بندی": 9702,
      "ided": 9703,
      "gest": 9704,
      "تماشا": 9705,
      "مطلع": 9706,
      "2015": 9707,
      "زنجیر": 9708,
      "overnment": 9709,
      "la": 9710,
      "حمام": 9711,
      "لرز": 9712,
      "چیزه": 9713,
      "ببر": 9714,
      "پلتفرم": 9715,
      "کیان": 9716,
      "مسج": 9717,
      "چیان": 9718,
      "بسیجی": 9719,
      "August": 9720,
      "زمست": 9721,
      "کوپ": 9722,
      "وصول": 9723,
      "few": 9724,
      "حاب": 9725,
      "سیامک": 9726,
      "خودی": 9727,
      "خستگی": 9728,
      "کردو": 9729,
      "شرم": 9730,
      "هیدرو": 9731,
      "یهو": 9732,
      "پردازی": 9733,
      "ربی": 9734,
      "city": 9735,
      "aining": 9736,
      "مدافعان": 9737,
      "شورش": 9738,
      "2000": 9739,
      "برون‌": 9740,
      "continu": 9741,
      "لاری": 9742,
      "کویت": 9743,
      "تحقیقاتی": 9744,
      "بگویند": 9745,
      "خاتمی": 9746,
      "tribut": 9747,
      "انض": 9748,
      "لیبرا": 9749,
      "around": 9750,
      "پرتو": 9751,
      "خندیدم": 9752,
      "وحید": 9753,
      "پله‌ها": 9754,
      "زرا": 9755,
      "ویچ": 9756,
      "پیرو": 9757,
      "حیوانات": 9758,
      "سپی": 9759,
      "نادرست": 9760,
      "ملت‌های": 9761,
      "دوستانه": 9762,
      "سیزده": 9763,
      "اردن": 9764,
      "رفسنجان": 9765,
      "these": 9766,
      "گشود": 9767,
      "اسازی": 9768,
      "نگذ": 9769,
      "پسرش": 9770,
      "شکی": 9771,
      "عشایر": 9772,
      "لبه": 9773,
      "توابع": 9774,
      "شکوف": 9775,
      "فروپاشی": 9776,
      "فرقه": 9777,
      "وصله": 9778,
      "فردوسی": 9779,
      "نوشته‌های": 9780,
      "بانو": 9781,
      "استعفا": 9782,
      "کیمی": 9783,
      "وقایع": 9784,
      "حدودی": 9785,
      "کامیون": 9786,
      "تبعات": 9787,
      "اینجاست": 9788,
      "rock": 9789,
      "وکالت": 9790,
      "af": 9791,
      "‌نظر": 9792,
      "یافتند": 9793,
      "مختار": 9794,
      "یادداشتی": 9795,
      "می‌بایست": 9796,
      "شکوه": 9797,
      "عبداللهی": 9798,
      "شبه‌": 9799,
      "متخصصان": 9800,
      "توانی": 9801,
      "مسو": 9802,
      "هیچ‌یک": 9803,
      "view": 9804,
      "مونده": 9805,
      "غزه": 9806,
      "پیگیر": 9807,
      "یزدانی": 9808,
      "دیپلماتیک": 9809,
      "مغرب": 9810,
      "حیدری": 9811,
      "player": 9812,
      "November": 9813,
      "نحو": 9814,
      "تذ": 9815,
      "نخواهیم": 9816,
      "ندا": 9817,
      "گنبد": 9818,
      "غلبه": 9819,
      "گیلویه": 9820,
      "mil": 9821,
      "arch": 9822,
      "پتانسیل": 9823,
      "bre": 9824,
      "ایمن": 9825,
      "انکار": 9826,
      "کهگیلویه": 9827,
      "بحرین": 9828,
      "ایستادگی": 9829,
      "گرگان": 9830,
      "مران": 9831,
      "انداخته": 9832,
      "میخوای": 9833,
      "پاشو": 9834,
      "کوهیار": 9835,
      "الع": 9836,
      "شمنی": 9837,
      "صالحی": 9838,
      "آت": 9839,
      "افش": 9840,
      "منتقدان": 9841,
      "ذرات": 9842,
      "سکان": 9843,
      "کارمندان": 9844,
      "سج": 9845,
      "بودی": 9846,
      "پیروی": 9847,
      "اشراف": 9848,
      "ility": 9849,
      "سریع‌تر": 9850,
      "حکام": 9851,
      "می‌دارد": 9852,
      "سیاست‌گذاری": 9853,
      "61": 9854,
      "هول": 9855,
      "تجزیه": 9856,
      "مادران": 9857,
      "ذات": 9858,
      "مادری": 9859,
      "رویترز": 9860,
      "ically": 9861,
      "ode": 9862,
      "رایانه": 9863,
      "career": 9864,
      "tak": 9865,
      "went": 9866,
      "نمیشه": 9867,
      "خدماتی": 9868,
      "هالی": 9869,
      "کرده‌ام": 9870,
      "چهارمحال": 9871,
      "Also": 9872,
      "مجوزهای": 9873,
      "because": 9874,
      "موشک‌های": 9875,
      "‌نشده‌و": 9876,
      "تکواندو": 9877,
      "همیشگی": 9878,
      "mark": 9879,
      "کدوم": 9880,
      "منع": 9881,
      "خوند": 9882,
      "grap": 9883,
      "لبی": 9884,
      "کله": 9885,
      "نمک": 9886,
      "شاهی": 9887,
      "فروردین‌ماه": 9888,
      "خسارات": 9889,
      "ple": 9890,
      "vent": 9891,
      "you": 9892,
      "غبار": 9893,
      "فرمای": 9894,
      "قراردادی": 9895,
      "53": 9896,
      "قاعد": 9897,
      "احمدی‌نژاد": 9898,
      "NA": 9899,
      "کانی": 9900,
      "الآن": 9901,
      "اواس": 9902,
      "مصدو": 9903,
      "فلسفی": 9904,
      "‌زبان": 9905,
      "کنج": 9906,
      "دستشو": 9907,
      "جابه‌": 9908,
      "مترمکعب": 9909,
      "اتوری": 9910,
      "سلول‌های": 9911,
      "/.": 9912,
      "چاره": 9913,
      "عزیزی": 9914,
      "won": 9915,
      "ضوابط": 9916,
      "دختری": 9917,
      "دشمنی": 9918,
      "مصالح": 9919,
      "برگزید": 9920,
      "‌عالی": 9921,
      "علمای": 9922,
      "زایند": 9923,
      "یکا": 9924,
      "مشروطه": 9925,
      "خامنشی": 9926,
      "National": 9927,
      "law": 9928,
      "جاش": 9929,
      "نرسید": 9930,
      "رسانده": 9931,
      "خرم‌آباد": 9932,
      "Me": 9933,
      "rest": 9934,
      "هخامنشی": 9935,
      "وزش": 9936,
      "شوراهای": 9937,
      "کاراک": 9938,
      "ذهنی": 9939,
      "کلای": 9940,
      "اورژانس": 9941,
      "رفتارهای": 9942,
      "company": 9943,
      "واضح": 9944,
      "پیوتر": 9945,
      "خرمشهر": 9946,
      "زیست‌محیطی": 9947,
      "ham": 9948,
      "قار": 9949,
      "طرف‌های": 9950,
      "میگه": 9951,
      "صحت": 9952,
      "شمس": 9953,
      "ادیان": 9954,
      "اصیل": 9955,
      "پاییز": 9956,
      "1398": 9957,
      "تحریر": 9958,
      "مهدوی": 9959,
      "lear": 9960,
      "خلیفه": 9961,
      "قدیمی‌": 9962,
      "دست‌کم": 9963,
      "power": 9964,
      "250": 9965,
      "اباد": 9966,
      "پرندگان": 9967,
      "رساندن": 9968,
      "fact": 9969,
      "less": 9970,
      "مصدا": 9971,
      "همینطور": 9972,
      "beg": 9973,
      "صادقی": 9974,
      "نازی": 9975,
      "کشان": 9976,
      "ستار": 9977,
      "بارسل": 9978,
      "یحی": 9979,
      "میادین": 9980,
      "بهزیستی": 9981,
      "دهک": 9982,
      "اوپک": 9983,
      "گذران": 9984,
      "پنج‌": 9985,
      "پیگیری‌های": 9986,
      "ذیب": 9987,
      "Canad": 9988,
      "72": 9989,
      "غزل": 9990,
      "/؛": 9991,
      "aim": 9992,
      "سی‌": 9993,
      "che": 9994,
      "درونی": 9995,
      "event": 9996,
      "ross": 9997,
      "اولویت‌های": 9998,
      "each": 9999,
      "کنسرت": 10000,
      "دوازده": 10001,
      "اصحاب": 10002,
      "ایتالی": 10003,
      "تلفات": 10004,
      "named": 10005,
      "پشی": 10006,
      "بانوی": 10007,
      "شاهنش": 10008,
      "قیمت‌های": 10009,
      "دیدارهای": 10010,
      "گفت‌وگوی": 10011,
      "مصارف": 10012,
      "Dec": 10013,
      "قال": 10014,
      "ناچار": 10015,
      "برید": 10016,
      "2012": 10017,
      "خونه‌ی": 10018,
      "گمن": 10019,
      "دانان": 10020,
      "short": 10021,
      "پسند": 10022,
      "پیشکسوت": 10023,
      "ازت": 10024,
      "تعقیب": 10025,
      "بزنه": 10026,
      "جانسون": 10027,
      "bert": 10028,
      "یاس": 10029,
      "‌گر": 10030,
      "الن": 10031,
      "لیمان": 10032,
      "بهره‌وری": 10033,
      "right": 10034,
      "کلمات": 10035,
      "پیمایی": 10036,
      "قوای": 10037,
      "خیزداری": 10038,
      "رزمی": 10039,
      "سهراب": 10040,
      "کشند": 10041,
      "کلاس‌های": 10042,
      "تشییع": 10043,
      "نیستی": 10044,
      "سعدی": 10045,
      "یمنی": 10046,
      "اصناف": 10047,
      "سناری": 10048,
      "آبخیزداری": 10049,
      "طرفداران": 10050,
      "دبیرخانه": 10051,
      "تهیه‌کنندگی": 10052,
      "عجیبی": 10053,
      "درام": 10054,
      "دهن": 10055,
      "نامگذاری": 10056,
      "بخشد": 10057,
      "حیدر": 10058,
      "رای‌گیری": 10059,
      "فوتسال": 10060,
      "ببیند": 10061,
      "خفه": 10062,
      "زبی": 10063,
      "مرتک": 10064,
      "اندازه‌گیری": 10065,
      "مسجدس": 10066,
      "lit": 10067,
      "حکیم": 10068,
      "سنند": 10069,
      "آموخت": 10070,
      "داوطلبان": 10071,
      "شیش": 10072,
      "تاریک": 10073,
      "تناب": 10074,
      "عنایت": 10075,
      "صوتی": 10076,
      "ling": 10077,
      "داستان‌های": 10078,
      "ماهان": 10079,
      "popular": 10080,
[...]
